<pad>	0
<unk>	0
<s>	0
</s>	0
▁t	-0
ou	-1
he	-2
▁a	-3
in	-4
re	-5
▁w	-6
▁I	-7
▁s	-8
▁y	-9
ha	-10
▁m	-11
▁you	-12
on	-13
▁the	-14
ll	-15
er	-16
▁b	-17
▁-	-18
▁d	-19
it	-20
is	-21
▁to	-22
▁c	-23
ing	-24
an	-25
▁f	-26
or	-27
en	-28
hat	-29
▁g	-30
▁l	-31
..	-32
es	-33
▁W	-34
ve	-35
▁o	-36
▁n	-37
▁T	-38
nd	-39
ar	-40
om	-41
ow	-42
▁p	-43
▁Y	-44
et	-45
▁he	-46
ot	-47
ed	-48
▁h	-49
▁of	-50
st	-51
▁A	-52
▁ha	-53
at	-54
▁H	-55
▁in	-56
▁be	-57
ay	-58
▁it	-59
▁me	-60
▁th	-61
le	-62
gh	-63
▁M	-64
se	-65
▁S	-66
▁You	-67
▁that	-68
▁and	-69
...	-70
▁on	-71
ld	-72
ut	-73
id	-74
im	-75
ke	-76
ght	-77
▁is	-78
ell	-79
▁for	-80
ic	-81
as	-82
▁N	-83
oo	-84
▁e	-85
ver	-86
▁u	-87
▁B	-88
▁do	-89
ri	-90
ad	-91
▁k	-92
▁D	-93
▁The	-94
ome	-95
▁C	-96
out	-97
ac	-98
ill	-99
▁O	-100
▁your	-101
al	-102
▁my	-103
▁G	-104
▁we	-105
ir	-106
ly	-107
▁st	-108
▁have	-109
▁go	-110
▁li	-111
▁re	-112
▁L	-113
ith	-114
ent	-115
▁an	-116
▁not	-117
ee	-118
▁kn	-119
▁What	-120
am	-121
▁He	-122
her	-123
ust	-124
▁with	-125
ould	-126
▁P	-127
▁this	-128
▁was	-129
ant	-130
▁don	-131
▁know	-132
▁are	-133
ur	-134
▁"	-135
ter	-136
▁can	-137
hing	-138
▁It	-139
▁him	-140
▁all	-141
if	-142
ood	-143
ion	-144
▁F	-145
ry	-146
ro	-147
ce	-148
ch	-149
▁as	-150
ho	-151
ea	-152
ight	-153
ake	-154
▁here	-155
▁ne	-156
▁And	-157
our	-158
▁No	-159
▁so	-160
▁get	-161
ain	-162
▁what	-163
▁Yes	-164
and	-165
▁j	-166
▁at	-167
▁J	-168
▁see	-169
han	-170
▁Oh	-171
one	-172
▁will	-173
pp	-174
▁like	-175
▁ab	-176
▁her	-177
▁out	-178
▁de	-179
ink	-180
▁want	-181
un	-182
all	-183
very	-184
▁E	-185
▁up	-186
us	-187
ie	-188
ess	-189
right	-190
il	-191
▁r	-192
ct	-193
▁did	-194
ore	-195
▁R	-196
hy	-197
▁We	-198
▁That	-199
ind	-200
▁But	-201
▁no	-202
▁Well	-203
ul	-204
▁about	-205
ge	-206
▁there	-207
▁any	-208
ive	-209
op	-210
▁wor	-211
ook	-212
▁right	-213
▁al	-214
▁lo	-215
▁su	-216
ack	-217
end	-218
rom	-219
ra	-220
ong	-221
▁but	-222
▁one	-223
▁sh	-224
here	-225
▁think	-226
ame	-227
▁say	-228
▁if	-229
art	-230
est	-231
▁man	-232
▁she	-233
ven	-234
hen	-235
ast	-236
▁Mr	-237
▁now	-238
▁his	-239
way	-240
ck	-241
▁got	-242
▁us	-243
▁going	-244
ist	-245
ers	-246
▁just	-247
au	-248
ice	-249
ard	-250
qu	-251
ol	-252
ab	-253
▁would	-254
▁come	-255
▁from	-256
ine	-257
ime	-258
rou	-259
▁they	-260
▁been	-261
ate	-262
ig	-263
▁too	-264
▁sa	-265
▁them	-266
▁tell	-267
▁good	-268
ss	-269
other	-270
are	-271
itt	-272
▁ex	-273
▁pl	-274
▁who	-275
▁ag	-276
▁com	-277
ase	-278
▁Why	-279
lf	-280
ear	-281
od	-282
nt	-283
▁Come	-284
▁or	-285
ak	-286
own	-287
▁Don	-288
▁must	-289
ous	-290
▁some	-291
ure	-292
fe	-293
hank	-294
▁Th	-295
▁sp	-296
▁Do	-297
▁time	-298
▁were	-299
▁back	-300
▁look	-301
thing	-302
iss	-303
ick	-304
▁won	-305
um	-306
▁Good	-307
▁had	-308
▁How	-309
▁take	-310
ap	-311
▁love	-312
ep	-313
▁She	-314
▁has	-315
."	-316
em	-317
ace	-318
oy	-319
▁If	-320
hi	-321
▁could	-322
▁very	-323
el	-324
▁by	-325
▁af	-326
▁let	-327
ation	-328
▁There	-329
omet	-330
▁con	-331
ait	-332
ittle	-333
▁K	-334
alk	-335
▁thing	-336
▁se	-337
ber	-338
ather	-339
▁tr	-340
self	-341
ose	-342
▁didn	-343
ort	-344
ire	-345
▁when	-346
▁off	-347
▁v	-348
00	-349
▁happ	-350
▁They	-351
ag	-352
▁bet	-353
▁My	-354
▁little	-355
lease	-356
▁never	-357
▁our	-358
▁night	-359
▁Now	-360
▁So	-361
▁sir	-362
▁qu	-363
▁am	-364
▁down	-365
▁again	-366
▁int	-367
ite	-368
▁only	-369
▁every	-370
ble	-371
▁day	-372
uch	-373
▁V	-374
▁lea	-375
omething	-376
▁All	-377
▁Not	-378
▁1	-379
ady	-380
▁way	-381
▁St	-382
▁This	-383
▁mar	-384
ally	-385
▁en	-386
▁more	-387
os	-388
th	-389
ish	-390
▁over	-391
▁how	-392
▁Thank	-393
▁make	-394
▁br	-395
▁mean	-396
ought	-397
ew	-398
▁pre	-399
ect	-400
nder	-401
ough	-402
▁much	-403
ng	-404
▁Let	-405
▁should	-406
ide	-407
▁ro	-408
▁give	-409
▁something	-410
ran	-411
▁Where	-412
wo	-413
ving	-414
reat	-415
▁talk	-416
▁away	-417
ne	-418
ther	-419
ling	-420
ning	-421
▁co	-422
▁gu	-423
ty	-424
oney	-425
▁ar	-426
▁old	-427
ves	-428
▁Is	-429
▁work	-430
na	-431
ause	-432
ound	-433
red	-434
▁In	-435
▁even	-436
▁le	-437
▁does	-438
age	-439
▁Your	-440
▁long	-441
ue	-442
row	-443
▁pro	-444
▁well	-445
▁pe	-446
ies	-447
▁po	-448
▁ask	-449
▁cour	-450
▁then	-451
ave	-452
riend	-453
▁under	-454
▁Who	-455
▁cl	-456
▁mad	-457
▁wait	-458
ny	-459
cause	-460
man	-461
!"	-462
ree	-463
▁Here	-464
▁need	-465
▁said	-466
ody	-467
pl	-468
▁bl	-469
wn	-470
der	-471
▁better	-472
▁sha	-473
▁find	-474
ello	-475
▁dear	-476
irst	-477
▁where	-478
ise	-479
▁Go	-480
ye	-481
▁friend	-482
ful	-483
▁U	-484
fore	-485
▁call	-486
▁un	-487
▁ke	-488
ons	-489
▁home	-490
▁money	-491
irl	-492
get	-493
▁Be	-494
▁im	-495
▁anything	-496
▁two	-497
ount	-498
tain	-499
ity	-500
ff	-501
▁other	-502
▁mo	-503
▁mat	-504
ud	-505
▁boy	-506
ways	-507
▁nothing	-508
be	-509
ich	-510
urn	-511
ren	-512
ople	-513
▁wr	-514
▁Hello	-515
▁sw	-516
ft	-517
▁min	-518
▁wom	-519
▁girl	-520
lp	-521
▁life	-522
per	-523
▁thought	-524
act	-525
ass	-526
▁hand	-527
▁after	-528
▁why	-529
▁may	-530
ment	-531
ried	-532
eah	-533
ress	-534
▁please	-535
ps	-536
▁Mar	-537
▁...	-538
▁dr	-539
▁course	-540
▁year	-541
body	-542
▁bel	-543
▁before	-544
orry	-545
able	-546
▁last	-547
▁people	-548
uck	-549
ord	-550
▁Just	-551
▁sc	-552
▁wh	-553
isten	-554
▁new	-555
▁always	-556
▁TH	-557
ach	-558
▁first	-559
▁minut	-560
▁care	-561
pt	-562
▁happen	-563
ond	-564
▁yes	-565
ife	-566
▁leave	-567
▁Get	-568
▁isn	-569
ater	-570
▁than	-571
▁Are	-572
▁Miss	-573
▁pr	-574
▁matter	-575
stand	-576
round	-577
▁cha	-578
▁Yeah	-579
day	-580
▁told	-581
OU	-582
▁fee	-583
▁2	-584
ting	-585
▁For	-586
▁mind	-587
hild	-588
▁help	-589
▁things	-590
ull	-591
▁ac	-592
ia	-593
▁Then	-594
▁put	-595
▁rem	-596
▁bo	-597
ence	-598
▁those	-599
▁chan	-600
▁into	-601
▁mor	-602
▁father	-603
▁ad	-604
▁dis	-605
hed	-606
▁doing	-607
▁When	-608
▁fl	-609
bye	-610
▁jo	-611
▁car	-612
ious	-613
▁keep	-614
ance	-615
▁Did	-616
ory	-617
ouse	-618
▁stay	-619
▁name	-620
▁enough	-621
ctor	-622
▁ever	-623
▁child	-624
pect	-625
onight	-626
▁sure	-627
▁understand	-628
▁To	-629
▁Look	-630
▁still	-631
ved	-632
ip	-633
▁May	-634
iz	-635
▁these	-636
▁great	-637
▁morning	-638
▁try	-639
aw	-640
iness	-641
▁wife	-642
▁fa	-643
ER	-644
ool	-645
orrow	-646
▁because	-647
▁place	-648
▁bus	-649
▁years	-650
▁gl	-651
▁Mad	-652
▁woman	-653
▁really	-654
▁sorry	-655
▁Hey	-656
entle	-657
▁yourself	-658
▁left	-659
▁everything	-660
▁part	-661
▁around	-662
▁sm	-663
▁kill	-664
▁mother	-665
ever	-666
ery	-667
▁wouldn	-668
▁Al	-669
▁room	-670
▁bad	-671
old	-672
▁Ex	-673
ian	-674
▁Dr	-675
ince	-676
▁belie	-677
ict	-678
onna	-679
rest	-680
▁young	-681
ope	-682
▁tonight	-683
▁their	-684
▁hear	-685
ary	-686
▁dar	-687
▁own	-688
▁men	-689
▁came	-690
▁ser	-691
▁gonna	-692
ci	-693
▁doesn	-694
▁per	-695
▁might	-696
rough	-697
▁nice	-698
men	-699
ember	-700
eak	-701
▁done	-702
use	-703
▁gr	-704
▁Jo	-705
▁feel	-706
▁At	-707
int	-708
▁show	-709
▁play	-710
les	-711
▁On	-712
ix	-713
ub	-714
▁alone	-715
▁Please	-716
pen	-717
aught	-718
▁made	-719
▁haven	-720
ret	-721
▁myself	-722
▁through	-723
▁har	-724
▁Of	-725
ock	-726
ness	-727
▁war	-728
▁coming	-729
▁imp	-730
▁supp	-731
ger	-732
raid	-733
▁happy	-734
?"	-735
▁id	-736
▁YOU	-737
ister	-738
▁house	-739
▁mon	-740
ign	-741
▁Have	-742
▁gentle	-743
▁kind	-744
ath	-745
IN	-746
▁tak	-747
og	-748
▁world	-749
▁big	-750
▁thank	-751
▁another	-752
▁cr	-753
▁believe	-754
▁bu	-755
▁minute	-756
ms	-757
▁che	-758
▁lot	-759
▁shall	-760
▁An	-761
▁live	-762
ily	-763
▁wanted	-764
ks	-765
ult	-766
▁Mrs	-767
▁tom	-768
▁such	-769
▁hur	-770
atch	-771
▁drink	-772
▁afraid	-773
▁'	-774
▁One	-775
▁res	-776
▁Will	-777
aut	-778
▁sec	-779
▁Tell	-780
oll	-781
▁Can	-782
ott	-783
ions	-784
hes	-785
▁hus	-786
eet	-787
▁As	-788
▁hat	-789
▁kid	-790
pe	-791
▁Ma	-792
band	-793
my	-794
▁!	-795
ans	-796
▁ins	-797
▁fell	-798
▁wrong	-799
iv	-800
▁business	-801
ner	-802
▁once	-803
▁husband	-804
▁tomorrow	-805
mer	-806
med	-807
▁el	-808
▁app	-809
▁fun	-810
▁pret	-811
ont	-812
▁seen	-813
000	-814
ail	-815
▁same	-816
▁pay	-817
▁word	-818
ertain	-819
▁soon	-820
▁bring	-821
leep	-822
ier	-823
air	-824
▁sho	-825
▁without	-826
▁Take	-827
▁run	-828
oth	-829
▁pol	-830
▁count	-831
▁meet	-832
av	-833
gg	-834
▁head	-835
de	-836
▁Wait	-837
▁start	-838
xt	-839
▁gone	-840
▁happened	-841
▁hour	-842
▁darling	-843
▁THE	-844
▁bre	-845
▁three	-846
▁beaut	-847
▁hu	-848
▁found	-849
▁far	-850
▁being	-851
hile	-852
▁Ch	-853
▁real	-854
ost	-855
ible	-856
▁des	-857
▁lady	-858
▁God	-859
igh	-860
▁mak	-861
▁heart	-862
▁speak	-863
▁yet	-864
▁Say	-865
▁days	-866
▁which	-867
▁remember	-868
▁hope	-869
▁else	-870
▁Goodbye	-871
▁married	-872
▁3	-873
▁sl	-874
ars	-875
▁ain	-876
▁dead	-877
▁son	-878
▁Q	-879
iet	-880
▁wish	-881
gether	-882
▁Every	-883
▁evening	-884
▁forg	-885
You	-886
imes	-887
▁heard	-888
▁stop	-889
▁couldn	-890
▁guy	-891
▁today	-892
cuse	-893
▁mom	-894
▁miss	-895
▁forget	-896
▁Bar	-897
▁case	-898
▁worry	-899
▁bit	-900
▁late	-901
haps	-902
anc	-903
ph	-904
▁Cha	-905
▁saw	-906
▁Very	-907
raz	-908
less	-909
▁Madame	-910
iful	-911
▁most	-912
ors	-913
▁ch	-914
▁att	-915
▁use	-916
▁marry	-917
▁listen	-918
▁Sh	-919
AN	-920
▁char	-921
▁idea	-922
▁together	-923
up	-924
▁wonder	-925
▁?	-926
▁cle	-927
▁quite	-928
▁With	-929
▁Par	-930
▁Maybe	-931
ple	-932
res	-933
ied	-934
ream	-935
▁beg	-936
▁moment	-937
yes	-938
▁knew	-939
land	-940
▁fam	-941
▁rep	-942
▁wee	-943
LL	-944
no	-945
▁fin	-946
▁Listen	-947
aptain	-948
▁dec	-949
▁dif	-950
▁getting	-951
▁wants	-952
▁pretty	-953
▁Ah	-954
te	-955
▁fine	-956
▁stand	-957
,000	-958
▁bed	-959
▁sit	-960
▁month	-961
▁Thanks	-962
▁Give	-963
▁along	-964
▁comm	-965
▁send	-966
▁Br	-967
▁rec	-968
▁hard	-969
▁luck	-970
▁many	-971
▁Nothing	-972
▁waiting	-973
▁eat	-974
▁says	-975
▁te	-976
▁turn	-977
▁acc	-978
▁ret	-979
▁looking	-980
▁Sure	-981
▁cont	-982
▁went	-983
ove	-984
▁gi	-985
▁Tom	-986
▁Per	-987
▁true	-988
▁hands	-989
EN	-990
▁5	-991
ired	-992
▁best	-993
▁prom	-994
aughter	-995
ready	-996
▁end	-997
▁ter	-998
▁Fran	-999
▁beautiful	-1000
▁few	-1001
ward	-1002
▁job	-1003
▁eyes	-1004
▁talking	-1005
AT	-1006
we	-1007
▁Cl	-1008
aby	-1009
orm	-1010
ition	-1011
▁sleep	-1012
▁police	-1013
▁act	-1014
▁wasn	-1015
▁Com	-1016
ated	-1017
▁..	-1018
come	-1019
▁later	-1020
▁Because	-1021
▁fool	-1022
▁next	-1023
▁sent	-1024
▁whole	-1025
erson	-1026
▁break	-1027
ents	-1028
▁glad	-1029
fess	-1030
ieur	-1031
▁brother	-1032
uth	-1033
▁mine	-1034
▁Ar	-1035
leas	-1036
ying	-1037
▁Sir	-1038
▁ago	-1039
erest	-1040
▁already	-1041
mp	-1042
eep	-1043
▁Qu	-1044
▁Ro	-1045
▁aw	-1046
▁hon	-1047
▁open	-1048
▁trou	-1049
▁Me	-1050
onsieur	-1051
▁Any	-1052
ru	-1053
ins	-1054
bert	-1055
▁Her	-1056
▁unt	-1057
aster	-1058
cy	-1059
▁while	-1060
ane	-1061
cept	-1062
cess	-1063
AR	-1064
az	-1065
▁friends	-1066
▁pres	-1067
aid	-1068
kay	-1069
▁ent	-1070
me	-1071
▁His	-1072
▁rest	-1073
▁mur	-1074
▁fight	-1075
ov	-1076
▁took	-1077
ug	-1078
▁ready	-1079
▁doctor	-1080
▁interest	-1081
▁gave	-1082
reet	-1083
▁door	-1084
▁used	-1085
ations	-1086
ild	-1087
▁Pro	-1088
▁gentlemen	-1089
ile	-1090
▁since	-1091
▁daughter	-1092
unt	-1093
▁ear	-1094
▁met	-1095
▁Bl	-1096
▁dress	-1097
du	-1098
The	-1099
ike	-1100
▁Ge	-1101
razy	-1102
▁pass	-1103
▁poor	-1104
ollow	-1105
▁comp	-1106
▁sing	-1107
▁set	-1108
eal	-1109
▁Pr	-1110
erry	-1111
▁inv	-1112
▁hold	-1113
led	-1114
▁ph	-1115
ON	-1116
▁Some	-1117
▁guess	-1118
▁suppose	-1119
ised	-1120
▁Would	-1121
▁sur	-1122
ler	-1123
where	-1124
▁Mother	-1125
hn	-1126
ense	-1127
▁See	-1128
▁stran	-1129
▁Af	-1130
augh	-1131
▁pap	-1132
▁letter	-1133
▁face	-1134
▁someone	-1135
ens	-1136
fect	-1137
▁crazy	-1138
▁bar	-1139
▁chance	-1140
▁certain	-1141
▁return	-1142
ony	-1143
▁boys	-1144
▁Sp	-1145
▁Jim	-1146
▁10	-1147
▁fellow	-1148
▁cons	-1149
▁hot	-1150
▁fact	-1151
▁lost	-1152
uss	-1153
oor	-1154
▁Geor	-1155
▁town	-1156
▁Re	-1157
▁read	-1158
▁knows	-1159
▁pleas	-1160
cle	-1161
▁mist	-1162
▁country	-1163
lly	-1164
▁Un	-1165
▁expect	-1166
▁4	-1167
ern	-1168
▁until	-1169
dd	-1170
ief	-1171
orn	-1172
unk	-1173
▁person	-1174
ished	-1175
▁rather	-1176
▁minutes	-1177
ason	-1178
▁each	-1179
so	-1180
ged	-1181
▁Gr	-1182
ical	-1183
vel	-1184
▁hurt	-1185
ank	-1186
▁terri	-1187
▁(	-1188
▁del	-1189
▁str	-1190
▁family	-1191
ize	-1192
▁Har	-1193
▁eas	-1194
ither	-1195
▁children	-1196
▁reg	-1197
▁yours	-1198
head	-1199
▁tri	-1200
▁Stop	-1201
▁Right	-1202
▁asked	-1203
▁diffe	-1204
pped	-1205
rought	-1206
▁compl	-1207
▁against	-1208
▁Or	-1209
▁New	-1210
▁John	-1211
▁walk	-1212
ross	-1213
▁fran	-1214
▁news	-1215
▁leaving	-1216
▁death	-1217
▁dream	-1218
▁light	-1219
ade	-1220
ding	-1221
▁tra	-1222
▁kiss	-1223
▁comes	-1224
wer	-1225
ention	-1226
▁Maj	-1227
ssible	-1228
▁water	-1229
▁huh	-1230
▁baby	-1231
▁Never	-1232
dy	-1233
▁lad	-1234
▁Fl	-1235
▁sweet	-1236
▁$	-1237
als	-1238
▁adv	-1239
▁Paris	-1240
▁half	-1241
▁Father	-1242
ang	-1243
ener	-1244
ately	-1245
cl	-1246
ina	-1247
sel	-1248
▁quick	-1249
▁trouble	-1250
pr	-1251
▁trying	-1252
RE	-1253
▁fr	-1254
▁die	-1255
▁brought	-1256
▁[	-1257
▁Le	-1258
▁follow	-1259
ING	-1260
ole	-1261
ird	-1262
▁Ger	-1263
▁din	-1264
▁inst	-1265
▁wind	-1266
any	-1267
its	-1268
cs	-1269
cell	-1270
▁women	-1271
▁anyone	-1272
▁sister	-1273
ND	-1274
▁Je	-1275
▁Car	-1276
▁five	-1277
ib	-1278
esc	-1279
ute	-1280
▁Z	-1281
▁dri	-1282
▁laugh	-1283
▁import	-1284
ats	-1285
▁De	-1286
ating	-1287
▁dist	-1288
most	-1289
▁sign	-1290
att	-1291
ming	-1292
▁Eng	-1293
▁Dad	-1294
▁Lord	-1295
▁hor	-1296
▁four	-1297
▁quest	-1298
--	-1299
oc	-1300
fort	-1301
▁law	-1302
ardon	-1303
▁Count	-1304
▁makes	-1305
▁goes	-1306
uff	-1307
▁Am	-1308
..."	-1309
ared	-1310
▁aren	-1311
▁train	-1312
ster	-1313
▁disc	-1314
▁Captain	-1315
▁Perhaps	-1316
▁both	-1317
▁thinking	-1318
amp	-1319
ker	-1320
ably	-1321
▁After	-1322
▁ob	-1323
▁Hur	-1324
▁fire	-1325
▁means	-1326
▁times	-1327
ient	-1328
more	-1329
ully	-1330
▁buy	-1331
▁its	-1332
ung	-1333
▁mus	-1334
▁ref	-1335
▁Jerry	-1336
▁Monsieur	-1337
What	-1338
▁cry	-1339
▁expl	-1340
▁mill	-1341
ls	-1342
ower	-1343
rent	-1344
▁saying	-1345
▁secret	-1346
▁arri	-1347
▁Excuse	-1348
▁serious	-1349
ky	-1350
▁em	-1351
anna	-1352
vil	-1353
▁killed	-1354
ned	-1355
▁week	-1356
▁funny	-1357
▁maybe	-1358
▁order	-1359
▁Ab	-1360
illy	-1361
▁francs	-1362
airs	-1363
▁hum	-1364
▁change	-1365
▁telling	-1366
aint	-1367
aven	-1368
swer	-1369
▁reason	-1370
▁cou	-1371
▁Ph	-1372
▁TO	-1373
▁eh	-1374
▁vis	-1375
▁called	-1376
▁having	-1377
ced	-1378
▁Only	-1379
▁longer	-1380
ump	-1381
▁Wh	-1382
▁dou	-1383
▁cold	-1384
▁ap	-1385
side	-1386
▁bro	-1387
▁Okay	-1388
▁German	-1389
▁important	-1390
ets	-1391
king	-1392
outh	-1393
▁truth	-1394
▁George	-1395
▁Nick	-1396
▁party	-1397
▁Doctor	-1398
OR	-1399
▁ahead	-1400
icture	-1401
ete	-1402
ius	-1403
ring	-1404
▁inf	-1405
▁sou	-1406
▁ship	-1407
IS	-1408
arth	-1409
▁watch	-1410
ED	-1411
bt	-1412
not	-1413
▁20	-1414
ides	-1415
▁ass	-1416
▁dance	-1417
▁hours	-1418
▁story	-1419
umber	-1420
▁ought	-1421
▁months	-1422
▁also	-1423
lic	-1424
rer	-1425
▁Sha	-1426
▁sold	-1427
▁taking	-1428
▁picture	-1429
ney	-1430
esty	-1431
▁gun	-1432
▁second	-1433
ual	-1434
ards	-1435
▁eng	-1436
▁hell	-1437
ousand	-1438
▁gentleman	-1439
bb	-1440
ash	-1441
▁cor	-1442
ction	-1443
▁quiet	-1444
▁stud	-1445
ES	-1446
▁Sc	-1447
▁Lea	-1448
▁Our	-1449
eally	-1450
ton	-1451
▁OF	-1452
enty	-1453
actly	-1454
▁lead	-1455
▁dinner	-1456
anny	-1457
▁Two	-1458
rench	-1459
▁fore	-1460
▁grand	-1461
ey	-1462
ta	-1463
▁ill	-1464
bably	-1465
app	-1466
▁Bo	-1467
▁front	-1468
gr	-1469
mm	-1470
▁Isn	-1471
▁thousand	-1472
ces	-1473
ates	-1474
ident	-1475
ork	-1476
ison	-1477
▁Char	-1478
▁hate	-1479
▁exper	-1480
▁inter	-1481
une	-1482
riage	-1483
▁seems	-1484
▁wanna	-1485
▁shouldn	-1486
▁rel	-1487
▁himself	-1488
OW	-1489
ots	-1490
▁rid	-1491
▁able	-1492
▁till	-1493
▁Really	-1494
▁Su	-1495
ial	-1496
▁sch	-1497
▁almost	-1498
▁office	-1499
raw	-1500
▁dep	-1501
▁dro	-1502
hind	-1503
ital	-1504
▁Keep	-1505
▁deal	-1506
▁tired	-1507
ka	-1508
ains	-1509
ween	-1510
▁boat	-1511
▁taken	-1512
io	-1513
▁Baron	-1514
▁hurry	-1515
".	-1516
hip	-1517
ken	-1518
ury	-1519
ency	-1520
▁Sit	-1521
▁lie	-1522
▁serv	-1523
fessor	-1524
ene	-1525
▁ri	-1526
▁pat	-1527
fully	-1528
terday	-1529
rew	-1530
▁Se	-1531
unch	-1532
▁art	-1533
▁det	-1534
▁win	-1535
▁French	-1536
No	-1537
ric	-1538
ched	-1539
▁Like	-1540
▁lovely	-1541
:00	-1542
▁least	-1543
▁surpr	-1544
▁answer	-1545
▁feeling	-1546
▁6	-1547
ited	-1548
▁lear	-1549
▁seem	-1550
Yes	-1551
ten	-1552
▁Sorry	-1553
VE	-1554
ax	-1555
▁def	-1556
meric	-1557
▁girls	-1558
▁promise	-1559
ush	-1560
▁fall	-1561
▁pick	-1562
▁easy	-1563
▁clear	-1564
▁write	-1565
▁thanks	-1566
ert	-1567
▁fav	-1568
▁Does	-1569
▁making	-1570
▁terrible	-1571
▁sn	-1572
ject	-1573
▁lose	-1574
▁present	-1575
▁By	-1576
vern	-1577
▁dog	-1578
▁blood	-1579
▁Americ	-1580
▁behind	-1581
osed	-1582
▁boss	-1583
▁less	-1584
▁sort	-1585
▁different	-1586
ele	-1587
▁nat	-1588
▁coll	-1589
▁Hurry	-1590
▁Leave	-1591
▁strange	-1592
eed	-1593
▁tou	-1594
anger	-1595
▁high	-1596
▁near	-1597
▁street	-1598
▁anymore	-1599
▁between	-1600
ois	-1601
ives	-1602
▁pri	-1603
▁free	-1604
▁side	-1605
selves	-1606
▁anyway	-1607
▁WH	-1608
vers	-1609
▁cut	-1610
▁wed	-1611
▁From	-1612
▁gets	-1613
▁land	-1614
▁looks	-1615
▁living	-1616
▁wonderful	-1617
▁Was	-1618
▁air	-1619
▁mess	-1620
▁silly	-1621
ings	-1622
ounds	-1623
▁move	-1624
▁others	-1625
▁Majesty	-1626
▁sim	-1627
▁music	-1628
ale	-1629
▁Ed	-1630
▁Man	-1631
▁mis	-1632
▁Phil	-1633
▁cannot	-1634
▁8	-1635
ular	-1636
▁Dar	-1637
▁Even	-1638
cial	-1639
▁esc	-1640
▁certainly	-1641
ah	-1642
br	-1643
ama	-1644
ience	-1645
▁visit	-1646
▁known	-1647
▁Excell	-1648
▁anybody	-1649
irty	-1650
▁Sw	-1651
▁Uh	-1652
cent	-1653
▁spo	-1654
▁tre	-1655
▁either	-1656
▁pleasure	-1657
ipp	-1658
▁uh	-1659
▁vill	-1660
▁small	-1661
ze	-1662
idd	-1663
lish	-1664
▁ner	-1665
owers	-1666
▁point	-1667
▁number	-1668
▁leg	-1669
▁become	-1670
▁probably	-1671
▁yesterday	-1672
fer	-1673
▁tw	-1674
▁Pet	-1675
▁adm	-1676
▁ele	-1677
▁par	-1678
▁wit	-1679
▁loved	-1680
▁working	-1681
▁sk	-1682
ches	-1683
▁exc	-1684
▁mil	-1685
▁dare	-1686
▁allow	-1687
▁question	-1688
irt	-1689
▁ten	-1690
▁hang	-1691
▁7	-1692
ants	-1693
▁full	-1694
▁plan	-1695
▁Robert	-1696
▁six	-1697
▁danger	-1698
▁Professor	-1699
IT	-1700
▁Ne	-1701
ific	-1702
▁Put	-1703
▁accept	-1704
▁19	-1705
▁book	-1706
▁suit	-1707
aces	-1708
▁Mor	-1709
▁city	-1710
eneral	-1711
▁drunk	-1712
▁Everything	-1713
uc	-1714
ines	-1715
▁aff	-1716
▁cop	-1717
▁div	-1718
▁worth	-1719
GH	-1720
ters	-1721
▁shoot	-1722
▁explain	-1723
ames	-1724
ders	-1725
ield	-1726
mand	-1727
▁imag	-1728
▁sail	-1729
▁fault	-1730
▁weeks	-1731
▁school	-1732
▁perhaps	-1733
▁Hen	-1734
▁Jean	-1735
▁tele	-1736
▁close	-1737
▁swear	-1738
▁somebody	-1739
ching	-1740
▁dest	-1741
▁trust	-1742
umb	-1743
▁hit	-1744
▁cast	-1745
▁check	-1746
▁murde	-1747
▁stuff	-1748
▁wedding	-1749
AS	-1750
CE	-1751
He	-1752
▁IN	-1753
▁ma	-1754
ided	-1755
medi	-1756
ndred	-1757
▁High	-1758
▁peace	-1759
▁though	-1760
cc	-1761
ik	-1762
fic	-1763
▁Pl	-1764
ades	-1765
noon	-1766
ondon	-1767
▁hasn	-1768
▁sick	-1769
▁Could	-1770
▁earth	-1771
▁mustn	-1772
▁murder	-1773
ERE	-1774
▁fix	-1775
▁sea	-1776
▁squ	-1777
▁sub	-1778
otten	-1779
▁past	-1780
▁gotta	-1781
▁London	-1782
▁outside	-1783
ana	-1784
▁ra	-1785
▁Hon	-1786
▁pub	-1787
▁These	-1788
▁tried	-1789
▁asking	-1790
▁excuse	-1791
▁ladies	-1792
nie	-1793
▁AND	-1794
▁safe	-1795
▁couple	-1796
▁hundred	-1797
gu	-1798
▁Tar	-1799
▁THAT	-1800
▁paper	-1801
▁words	-1802
alm	-1803
ste	-1804
▁wear	-1805
itting	-1806
▁court	-1807
▁strong	-1808
▁window	-1809
vo	-1810
▁Ant	-1811
▁cho	-1812
▁pur	-1813
night	-1814
▁catch	-1815
UT	-1816
▁Rem	-1817
▁ext	-1818
▁swell	-1819
ometimes	-1820
▁afternoon	-1821
It	-1822
▁Gl	-1823
▁add	-1824
▁pie	-1825
ually	-1826
▁bank	-1827
▁started	-1828
osp	-1829
uin	-1830
▁Hel	-1831
▁ann	-1832
iment	-1833
ution	-1834
▁clot	-1835
raight	-1836
els	-1837
ley	-1838
▁IT	-1839
rist	-1840
▁Won	-1841
▁save	-1842
▁given	-1843
▁forgive	-1844
OT	-1845
aul	-1846
key	-1847
rat	-1848
uty	-1849
▁Ho	-1850
▁mem	-1851
rence	-1852
▁join	-1853
▁sake	-1854
▁About	-1855
▁immedi	-1856
LE	-1857
ald	-1858
ille	-1859
▁fil	-1860
▁Think	-1861
▁human	-1862
▁state	-1863
▁marriage	-1864
oun	-1865
zan	-1866
reed	-1867
▁Jul	-1868
▁cost	-1869
▁soul	-1870
stairs	-1871
▁arrest	-1872
▁captain	-1873
▁million	-1874
kes	-1875
ogn	-1876
▁Mary	-1877
▁Tommy	-1878
artment	-1879
▁pardon	-1880
▁Something	-1881
OM	-1882
by	-1883
And	-1884
GHT	-1885
▁Ell	-1886
▁More	-1887
▁Tony	-1888
▁alive	-1889
olog	-1890
▁body	-1891
▁tick	-1892
▁phone	-1893
ges	-1894
▁ev	-1895
▁fig	-1896
▁pal	-1897
▁ris	-1898
▁line	-1899
▁shut	-1900
▁escap	-1901
▁perfect	-1902
▁i	-1903
▁fo	-1904
▁step	-1905
bo	-1906
oof	-1907
▁HA	-1908
read	-1909
used	-1910
lcome	-1911
▁coff	-1912
▁sell	-1913
▁shot	-1914
▁offic	-1915
▁throw	-1916
▁exactly	-1917
to	-1918
son	-1919
▁Bill	-1920
▁York	-1921
▁fear	-1922
idence	-1923
pector	-1924
▁Shall	-1925
ossible	-1926
ude	-1927
▁15	-1928
▁Sm	-1929
ured	-1930
▁ind	-1931
▁whe	-1932
uture	-1933
▁Make	-1934
▁Poor	-1935
▁fort	-1936
▁heal	-1937
▁song	-1938
▁carry	-1939
▁madam	-1940
▁Darling	-1941
CH	-1942
▁La	-1943
ries	-1944
▁mag	-1945
▁lives	-1946
▁white	-1947
▁bother	-1948
bar	-1949
chen	-1950
ette	-1951
▁Che	-1952
▁Ins	-1953
▁spe	-1954
▁sus	-1955
uring	-1956
▁hung	-1957
▁ring	-1958
▁awful	-1959
▁begin	-1960
▁often	-1961
▁belong	-1962
▁master	-1963
▁possible	-1964
,"	-1965
rave	-1966
▁inc	-1967
▁rece	-1968
▁changed	-1969
▁clothes	-1970
▁Ad	-1971
▁Hi	-1972
ering	-1973
▁bott	-1974
▁black	-1975
▁Tarzan	-1976
▁immediately	-1977
ron	-1978
ract	-1979
room	-1980
▁Boy	-1981
▁Aren	-1982
▁Help	-1983
▁Marie	-1984
▁Nobody	-1985
▁complete	-1986
ages	-1987
▁bag	-1988
▁dam	-1989
▁danc	-1990
▁doll	-1991
▁weren	-1992
joy	-1993
▁WE	-1994
▁Ber	-1995
▁abs	-1996
▁cap	-1997
▁trip	-1998
▁doubt	-1999
▁guest	-2000
▁English	-2001
▁company	-2002
▁Remember	-2003
▁Excellency	-2004
Oh	-2005
uel	-2006
▁Didn	-2007
▁Jose	-2008
▁prot	-2009
▁short	-2010
▁table	-2011
▁France	-2012
▁future	-2013
▁heaven	-2014
▁looked	-2015
▁careful	-2016
▁HE	-2017
▁Call	-2018
▁lucky	-2019
▁recogn	-2020
▁seeing	-2021
▁straight	-2022
ma	-2023
sy	-2024
oint	-2025
udge	-2026
▁pos	-2027
arent	-2028
▁beha	-2029
▁pull	-2030
▁whom	-2031
▁orders	-2032
▁papers	-2033
roy	-2034
▁ed	-2035
That	-2036
aste	-2037
dden	-2038
hose	-2039
orce	-2040
▁Ser	-2041
▁War	-2042
▁game	-2043
▁power	-2044
▁Christ	-2045
▁forgot	-2046
▁nobody	-2047
▁sudden	-2048
emy	-2049
▁sad	-2050
▁sto	-2051
▁dire	-2052
▁fair	-2053
▁ones	-2054
▁rich	-2055
▁star	-2056
▁meant	-2057
▁needs	-2058
▁spend	-2059
onsense	-2060
▁everyone	-2061
"?	-2062
van	-2063
ilty	-2064
▁ran	-2065
▁hair	-2066
▁sett	-2067
▁favor	-2068
▁treat	-2069
▁Highness	-2070
....	-2071
▁pen	-2072
▁Joan	-2073
▁conf	-2074
▁died	-2075
▁feet	-2076
▁moon	-2077
▁vict	-2078
▁touch	-2079
▁fright	-2080
▁report	-2081
ked	-2082
miss	-2083
ones	-2084
reen	-2085
ures	-2086
▁cab	-2087
▁suc	-2088
▁Mart	-2089
▁beat	-2090
▁mistake	-2091
▁charming	-2092
▁everybody	-2093
We	-2094
▁Con	-2095
▁Nat	-2096
▁lock	-2097
esides	-2098
▁Uncle	-2099
▁hotel	-2100
▁giving	-2101
▁honest	-2102
ien	-2103
ows	-2104
▁Du	-2105
▁Sch	-2106
▁cig	-2107
▁smo	-2108
▁Lady	-2109
▁king	-2110
▁clean	-2111
▁horse	-2112
▁coffee	-2113
▁disapp	-2114
▁govern	-2115
ET	-2116
ST	-2117
law	-2118
▁di	-2119
elle	-2120
oose	-2121
▁bec	-2122
▁cir	-2123
▁cur	-2124
▁med	-2125
▁sil	-2126
▁conc	-2127
▁duty	-2128
▁prop	-2129
▁hello	-2130
▁inside	-2131
ertainly	-2132
▁arrived	-2133
▁interested	-2134
▁Att	-2135
▁sal	-2136
▁sun	-2137
▁Russ	-2138
▁hosp	-2139
▁hungry	-2140
▁prison	-2141
▁9	-2142
rodu	-2143
uten	-2144
▁Ind	-2145
▁Pol	-2146
▁Sil	-2147
▁Jane	-2148
▁busy	-2149
▁suff	-2150
▁Those	-2151
▁honey	-2152
▁promised	-2153
▁happiness	-2154
co	-2155
▁12	-2156
▁ME	-2157
iled	-2158
▁val	-2159
ander	-2160
attle	-2161
ities	-2162
iting	-2163
▁coat	-2164
▁takes	-2165
ppy	-2166
thy	-2167
▁ya	-2168
▁age	-2169
▁key	-2170
▁kept	-2171
▁pain	-2172
▁entire	-2173
▁running	-2174
▁El	-2175
aged	-2176
ider	-2177
▁lay	-2178
▁Nice	-2179
▁dark	-2180
▁quar	-2181
▁Three	-2182
▁glass	-2183
▁lying	-2184
▁sound	-2185
utenant	-2186
▁quickly	-2187
▁respect	-2188
▁worried	-2189
▁finished	-2190
▁Inspector	-2191
ogra	-2192
▁arm	-2193
▁col	-2194
▁Fine	-2195
▁conv	-2196
▁farm	-2197
▁neck	-2198
▁paid	-2199
▁upon	-2200
▁Daddy	-2201
▁eight	-2202
▁honor	-2203
▁mouth	-2204
har	-2205
▁11	-2206
▁Bel	-2207
▁Out	-2208
▁arms	-2209
▁Henry	-2210
▁early	-2211
▁knock	-2212
▁loves	-2213
amb	-2214
▁Fr	-2215
ened	-2216
fast	-2217
upid	-2218
▁Pat	-2219
▁Too	-2220
▁exp	-2221
▁Shut	-2222
▁exam	-2223
▁inno	-2224
▁playing	-2225
SD	-2226
ett	-2227
uri	-2228
▁Hans	-2229
▁ball	-2230
▁bird	-2231
▁cross	-2232
▁enjoy	-2233
▁public	-2234
nes	-2235
▁BE	-2236
▁eye	-2237
▁"...	-2238
▁pack	-2239
▁wine	-2240
▁First	-2241
▁bought	-2242
▁calling	-2243
▁Certainly	-2244
ya	-2245
elt	-2246
▁Pe	-2247
ourt	-2248
▁hop	-2249
▁wat	-2250
▁Herr	-2251
▁priv	-2252
▁resp	-2253
▁spir	-2254
▁Since	-2255
▁creat	-2256
0.	-2257
lt	-2258
oon	-2259
IGHT	-2260
aret	-2261
▁dra	-2262
▁cond	-2263
▁kids	-2264
▁among	-2265
▁worse	-2266
▁hospital	-2267
AY	-2268
ote	-2269
pap	-2270
the	-2271
▁Lu	-2272
sing	-2273
▁tea	-2274
▁Fanny	-2275
▁steal	-2276
▁plenty	-2277
▁worked	-2278
CT	-2279
uh	-2280
hol	-2281
urb	-2282
▁En	-2283
iter	-2284
▁Col	-2285
▁Gee	-2286
▁Dear	-2287
▁King	-2288
incess	-2289
▁build	-2290
▁proper	-2291
▁murderer	-2292
SE	-2293
ead	-2294
olf	-2295
rel	-2296
ized	-2297
▁bur	-2298
▁sac	-2299
▁Open	-2300
▁gold	-2301
▁wall	-2302
▁Quick	-2303
▁across	-2304
▁happens	-2305
vous	-2306
▁LSD	-2307
clock	-2308
▁Hold	-2309
▁born	-2310
▁drop	-2311
cially	-2312
ational	-2313
▁guilty	-2314
▁turned	-2315
▁protect	-2316
itz	-2317
itor	-2318
iver	-2319
▁Ale	-2320
▁lar	-2321
▁mod	-2322
▁decided	-2323
▁dressed	-2324
▁flowers	-2325
▁station	-2326
▁somewhere	-2327
yn	-2328
▁Pap	-2329
▁fly	-2330
ustom	-2331
ville	-2332
▁Send	-2333
▁circ	-2334
▁fast	-2335
▁fish	-2336
fortun	-2337
▁Under	-2338
▁Which	-2339
▁devil	-2340
▁offer	-2341
▁sight	-2342
▁trick	-2343
▁prefer	-2344
▁goodbye	-2345
▁newspap	-2346
▁surprise	-2347
▁forgotten	-2348
▁Mc	-2349
roud	-2350
▁Bet	-2351
▁ang	-2352
▁fur	-2353
▁sat	-2354
▁food	-2355
▁agree	-2356
▁Prince	-2357
▁attack	-2358
▁caught	-2359
▁impossible	-2360
for	-2361
set	-2362
ists	-2363
▁Lou	-2364
▁owe	-2365
phone	-2366
rades	-2367
▁felt	-2368
▁foot	-2369
▁harm	-2370
▁lunch	-2371
▁uncle	-2372
▁Tomorrow	-2373
inc	-2374
▁vo	-2375
ator	-2376
▁oper	-2377
▁prep	-2378
▁dirty	-2379
▁Charles	-2380
▁General	-2381
▁village	-2382
lin	-2383
▁DO	-2384
▁Ha	-2385
arry	-2386
idge	-2387
▁Cor	-2388
▁Has	-2389
▁Try	-2390
▁box	-2391
▁pun	-2392
▁tem	-2393
▁hadn	-2394
▁blame	-2395
▁scared	-2396
▁Alright	-2397
▁imagine	-2398
▁introdu	-2399
IR	-2400
bly	-2401
off	-2402
▁ca	-2403
...?	-2404
berg	-2405
ears	-2406
▁opp	-2407
ratul	-2408
▁Love	-2409
▁guys	-2410
▁hide	-2411
▁poss	-2412
▁Helen	-2413
▁Madam	-2414
▁stick	-2415
▁Gentle	-2416
▁castle	-2417
▁diffic	-2418
▁stupid	-2419
▁thinks	-2420
IM	-2421
ini	-2422
▁50	-2423
gram	-2424
iers	-2425
inal	-2426
▁Ros	-2427
▁red	-2428
ments	-2429
▁Stay	-2430
▁road	-2431
▁sear	-2432
▁crime	-2433
▁smart	-2434
ongratul	-2435
▁alright	-2436
▁witness	-2437
▁breakfast	-2438
ko	-2439
how	-2440
resh	-2441
▁port	-2442
▁Allen	-2443
But	-2444
ark	-2445
ior	-2446
rie	-2447
rol	-2448
▁ON	-2449
▁ty	-2450
ggest	-2451
▁none	-2452
▁arran	-2453
▁drive	-2454
▁learn	-2455
▁contin	-2456
▁destroy	-2457
▁meeting	-2458
▁receive	-2459
▁suggest	-2460
▁monsieur	-2461
asc	-2462
iot	-2463
rey	-2464
▁30	-2465
▁Em	-2466
rowd	-2467
ories	-2468
wards	-2469
▁Step	-2470
▁pock	-2471
▁breat	-2472
▁broke	-2473
▁plans	-2474
▁charge	-2475
▁address	-2476
▁realize	-2477
ID	-2478
LD	-2479
iew	-2480
▁sy	-2481
ored	-2482
▁Hor	-2483
▁Hot	-2484
pping	-2485
▁Jack	-2486
▁grow	-2487
▁post	-2488
▁Bring	-2489
▁class	-2490
▁proble	-2491
▁England	-2492
▁dangerous	-2493
▁MY	-2494
▁da	-2495
itch	-2496
phan	-2497
well	-2498
▁Mac	-2499
▁Mat	-2500
▁Nan	-2501
▁YOUR	-2502
▁buck	-2503
▁ruin	-2504
ealous	-2505
▁floor	-2506
▁health	-2507
▁special	-2508
▁Gentlemen	-2509
▁interesting	-2510
AK	-2511
den	-2512
iar	-2513
oud	-2514
que	-2515
sch	-2516
ule	-2517
▁Ag	-2518
▁Tod	-2519
▁mach	-2520
▁shop	-2521
▁super	-2522
▁notice	-2523
How	-2524
abb	-2525
che	-2526
▁Hol	-2527
▁cent	-2528
▁hero	-2529
▁stri	-2530
▁Danny	-2531
▁Great	-2532
▁Jimmy	-2533
▁gives	-2534
▁piece	-2535
▁Pardon	-2536
▁crying	-2537
▁finish	-2538
▁.	-2539
erc	-2540
aire	-2541
▁Eur	-2542
olute	-2543
▁form	-2544
▁jour	-2545
▁lord	-2546
▁dough	-2547
▁proud	-2548
▁voice	-2549
▁Marius	-2550
▁detect	-2551
▁madame	-2552
Do	-2553
amm	-2554
rop	-2555
val	-2556
▁GO	-2557
Good	-2558
give	-2559
▁emp	-2560
▁fit	-2561
arden	-2562
▁Paul	-2563
earest	-2564
▁deser	-2565
▁upset	-2566
▁Europe	-2567
▁Johnny	-2568
▁instead	-2569
▁mention	-2570
▁sitting	-2571
▁innocent	-2572
▁difficult	-2573
▁difference	-2574
ift	-2575
irth	-2576
▁100	-2577
▁Dur	-2578
▁Beck	-2579
▁deep	-2580
▁jail	-2581
▁sens	-2582
▁thief	-2583
▁custom	-2584
▁escape	-2585
▁hardly	-2586
▁inform	-2587
▁comfort	-2588
▁service	-2589
AD	-2590
Th	-2591
min	-2592
▁ST	-2593
anis	-2594
ceed	-2595
▁occ	-2596
inger	-2597
itted	-2598
▁Aunt	-2599
▁Mama	-2600
▁maid	-2601
▁Always	-2602
▁except	-2603
pecially	-2604
▁America	-2605
▁concern	-2606
▁whatever	-2607
▁sometimes	-2608
Why	-2609
ipe	-2610
▁Er	-2611
▁Roy	-2612
heart	-2613
▁bear	-2614
▁inde	-2615
▁Grand	-2616
▁faith	-2617
▁Sister	-2618
▁partic	-2619
▁Someone	-2620
▁fortune	-2621
▁further	-2622
My	-2623
mb	-2624
rig	-2625
ula	-2626
▁Got	-2627
▁Nap	-2628
▁Sat	-2629
▁rev	-2630
hamed	-2631
rible	-2632
▁Long	-2633
▁calm	-2634
▁ride	-2635
arents	-2636
▁Quiet	-2637
▁enemy	-2638
▁lived	-2639
▁apolog	-2640
▁Besides	-2641
▁confess	-2642
▁jealous	-2643
▁success	-2644
▁position	-2645
let	-2646
▁Aw	-2647
▁ir	-2648
ichi	-2649
▁Off	-2650
▁rob	-2651
iddle	-2652
▁Papa	-2653
▁Part	-2654
▁clos	-2655
▁lawy	-2656
▁birth	-2657
▁saved	-2658
▁necess	-2659
▁nervous	-2660
▁welcome	-2661
▁Anything	-2662
ki	-2663
rot	-2664
Well	-2665
over	-2666
rill	-2667
▁hun	-2668
▁tax	-2669
▁thr	-2670
ached	-2671
ended	-2672
ently	-2673
▁Land	-2674
▁chair	-2675
▁gener	-2676
▁sense	-2677
▁delight	-2678
▁suddenly	-2679
▁expecting	-2680
kn	-2681
ann	-2682
igg	-2683
mit	-2684
▁Gu	-2685
▁spl	-2686
ision	-2687
itten	-2688
oleon	-2689
▁Duke	-2690
▁Ivan	-2691
▁draw	-2692
▁angry	-2693
▁crowd	-2694
▁tough	-2695
▁works	-2696
▁Another	-2697
▁Forgive	-2698
▁dollars	-2699
▁factory	-2700
▁stopped	-2701
▁American	-2702
▁apartment	-2703
sh	-2704
ics	-2705
mann	-2706
▁tor	-2707
ement	-2708
▁flat	-2709
▁jump	-2710
▁pity	-2711
▁unha	-2712
▁warm	-2713
urally	-2714
▁prove	-2715
▁store	-2716
▁ashamed	-2717
▁discuss	-2718
▁Napoleon	-2719
▁supposed	-2720
AL	-2721
If	-2722
sc	-2723
ray	-2724
▁$1	-2725
:00.	-2726
akes	-2727
iced	-2728
▁jew	-2729
iding	-2730
under	-2731
▁Alex	-2732
▁bath	-2733
▁spot	-2734
▁Watch	-2735
▁appro	-2736
▁dying	-2737
▁mount	-2738
▁Master	-2739
▁engine	-2740
▁disturb	-2741
▁keeping	-2742
▁staying	-2743
▁anywhere	-2744
▁consider	-2745
aze	-2746
omb	-2747
pin	-2748
ails	-2749
wood	-2750
▁fol	-2751
ousin	-2752
▁drug	-2753
▁requ	-2754
▁Today	-2755
▁price	-2756
▁share	-2757
▁third	-2758
▁advice	-2759
▁asleep	-2760
▁herself	-2761
▁Countess	-2762
▁mistress	-2763
ilt	-2764
ume	-2765
▁Ev	-2766
aced	-2767
bles	-2768
ieve	-2769
urch	-2770
▁Cap	-2771
▁Dor	-2772
▁Nor	-2773
▁Red	-2774
▁cat	-2775
▁egg	-2776
▁mir	-2777
▁ste	-2778
▁Five	-2779
▁nose	-2780
▁rent	-2781
▁wake	-2782
father	-2783
▁admit	-2784
▁chief	-2785
▁guard	-2786
▁round	-2787
olutely	-2788
▁places	-2789
▁forever	-2790
▁message	-2791
▁parents	-2792
▁drinking	-2793
▁laughing	-2794
ety	-2795
gue	-2796
ues	-2797
▁et	-2798
oman	-2799
▁Lie	-2800
elebr	-2801
ulous	-2802
▁army	-2803
▁kick	-2804
iously	-2805
▁Albert	-2806
▁double	-2807
▁Philipp	-2808
▁account	-2809
▁awfully	-2810
▁accident	-2811
▁questions	-2812
'.	-2813
avy	-2814
ral	-2815
urg	-2816
▁er	-2817
amed	-2818
omed	-2819
rade	-2820
▁Van	-2821
▁rad	-2822
dered	-2823
▁Anna	-2824
▁earl	-2825
▁fresh	-2826
▁river	-2827
▁shame	-2828
▁Joseph	-2829
▁Martin	-2830
▁during	-2831
▁Germany	-2832
▁divorce	-2833
▁patient	-2834
▁private	-2835
▁attention	-2836
▁completely	-2837
fa	-2838
ARD	-2839
iol	-2840
▁Tw	-2841
isha	-2842
ners	-2843
olen	-2844
▁Bea	-2845
▁Ben	-2846
▁Mon	-2847
▁Top	-2848
▁mid	-2849
▁von	-2850
▁WHAT	-2851
▁gang	-2852
▁House	-2853
▁shoes	-2854
▁Parker	-2855
▁broken	-2856
▁defend	-2857
▁demand	-2858
▁remind	-2859
▁seemed	-2860
▁letters	-2861
zz	-2862
isf	-2863
ram	-2864
ror	-2865
ses	-2866
▁CH	-2867
▁IS	-2868
aken	-2869
ians	-2870
ires	-2871
olly	-2872
▁ALL	-2873
▁sol	-2874
ility	-2875
stood	-2876
▁Such	-2877
▁bill	-2878
▁fill	-2879
▁nine	-2880
▁stre	-2881
ishing	-2882
▁idiot	-2883
▁willing	-2884
▁nonsense	-2885
▁telephone	-2886
ENT	-2887
but	-2888
oved	-2889
wise	-2890
▁Nic	-2891
acket	-2892
▁Supp	-2893
▁mark	-2894
▁prec	-2895
▁Before	-2896
▁celebr	-2897
▁decent	-2898
▁lawyer	-2899
▁spirit	-2900
▁collect	-2901
▁dancing	-2902
▁whether	-2903
▁speaking	-2904
▁listening	-2905
uts	-2906
▁SH	-2907
ache	-2908
cted	-2909
ered	-2910
▁FOR	-2911
▁gra	-2912
Where	-2913
ndler	-2914
▁Once	-2915
▁pray	-2916
▁rain	-2917
ateful	-2918
▁Becky	-2919
▁Quite	-2920
▁stock	-2921
▁Tonight	-2922
▁respons	-2923
▁fighting	-2924
▁beginning	-2925
AM	-2926
aff	-2927
aly	-2928
▁40	-2929
▁Ju	-2930
▁oh	-2931
▁Ask	-2932
▁Hmm	-2933
▁Lad	-2934
▁gas	-2935
▁joy	-2936
▁nor	-2937
▁Roth	-2938
▁flag	-2939
schild	-2940
velous	-2941
▁Larry	-2942
▁empty	-2943
▁field	-2944
▁large	-2945
▁island	-2946
▁forward	-2947
▁Whatever	-2948
▁necessary	-2949
▁Rothschild	-2950
da	-2951
arl	-2952
ism	-2953
oma	-2954
▁Up	-2955
hang	-2956
▁Doc	-2957
▁Rod	-2958
▁Sel	-2959
▁pop	-2960
eared	-2961
▁Head	-2962
▁anim	-2963
▁beer	-2964
▁okay	-2965
▁wood	-2966
▁board	-2967
▁smell	-2968
▁youth	-2969
▁guests	-2970
▁pounds	-2971
▁unhappy	-2972
▁newspaper	-2973
UR	-2974
cha	-2975
ips	-2976
ris	-2977
▁Lo	-2978
ager	-2979
nday	-2980
omes	-2981
rant	-2982
rupt	-2983
▁Cle	-2984
▁Mum	-2985
▁Dire	-2986
▁Drac	-2987
▁Over	-2988
▁THIS	-2989
▁club	-2990
▁Peter	-2991
▁Still	-2992
▁brave	-2993
▁champ	-2994
▁knife	-2995
▁raise	-2996
▁whose	-2997
▁object	-2998
▁Exactly	-2999
▁learned	-3000
▁greatest	-3001
▁secretary	-3002
gy	-3003
oni	-3004
phe	-3005
ply	-3006
▁Mm	-3007
▁la	-3008
Come	-3009
abor	-3010
tern	-3011
▁Kid	-3012
▁Pal	-3013
▁cas	-3014
▁cow	-3015
Thank	-3016
ances	-3017
ative	-3018
fered	-3019
▁Baby	-3020
▁blow	-3021
▁feed	-3022
▁lies	-3023
▁risk	-3024
▁Harry	-3025
▁blind	-3026
▁produ	-3027
▁proof	-3028
▁shirt	-3029
▁simple	-3030
▁Dracula	-3031
▁standing	-3032
▁government	-3033
Don	-3034
bey	-3035
▁SE	-3036
▁Dav	-3037
▁Hit	-3038
▁ide	-3039
There	-3040
inite	-3041
uthor	-3042
▁Fire	-3043
▁Must	-3044
▁Next	-3045
▁burn	-3046
▁camp	-3047
▁film	-3048
▁phot	-3049
▁pract	-3050
▁People	-3051
▁bottle	-3052
▁indeed	-3053
▁kidding	-3054
▁Everyone	-3055
▁Lieutenant	-3056
▁experience	-3057
OL	-3058
lo	-3059
aim	-3060
hin	-3061
mes	-3062
▁--	-3063
▁18	-3064
agne	-3065
andy	-3066
oned	-3067
▁Dam	-3068
▁Lep	-3069
▁dev	-3070
acher	-3071
andal	-3072
endid	-3073
inary	-3074
itude	-3075
▁cook	-3076
▁cops	-3077
▁mate	-3078
▁Black	-3079
▁reach	-3080
▁spent	-3081
▁trans	-3082
▁wrote	-3083
▁battle	-3084
▁handle	-3085
▁insist	-3086
▁pocket	-3087
▁regret	-3088
▁streng	-3089
▁Chandler	-3090
▁Philippe	-3091
▁upstairs	-3092
▁Everybody	-3093
▁introduce	-3094
▁particular	-3095
hop	-3096
▁OH	-3097
▁ho	-3098
ploy	-3099
▁Joe	-3100
▁Que	-3101
▁loc	-3102
▁pot	-3103
asure	-3104
ovich	-3105
place	-3106
▁forb	-3107
▁hors	-3108
▁note	-3109
▁prov	-3110
achman	-3111
uation	-3112
▁folks	-3113
▁lover	-3114
▁serve	-3115
ination	-3116
▁Horace	-3117
▁figure	-3118
▁honour	-3119
▁record	-3120
▁stolen	-3121
▁officer	-3122
▁returned	-3123
▁terribly	-3124
▁detective	-3125
▁following	-3126
▁surprised	-3127
ongratulations	-3128
ACE	-3129
cul	-3130
lon	-3131
now	-3132
oss	-3133
pic	-3134
zra	-3135
ighb	-3136
▁Min	-3137
▁cup	-3138
light	-3139
▁evil	-3140
▁lots	-3141
▁resc	-3142
▁seat	-3143
▁self	-3144
▁whis	-3145
▁yeah	-3146
▁cards	-3147
▁chick	-3148
▁cover	-3149
▁seven	-3150
▁usual	-3151
▁Coming	-3152
▁Ladies	-3153
▁Little	-3154
▁Police	-3155
▁Sunday	-3156
▁neighb	-3157
▁satisf	-3158
▁single	-3159
▁arrested	-3160
▁soldiers	-3161
▁ourselves	-3162
oe	-3163
▁17	-3164
Your	-3165
ancy	-3166
eral	-3167
ifty	-3168
ined	-3169
ises	-3170
oard	-3171
ship	-3172
▁Fil	-3173
▁tie	-3174
▁und	-3175
▁wis	-3176
orter	-3177
▁crim	-3178
▁shad	-3179
ounded	-3180
▁extra	-3181
▁force	-3182
▁marks	-3183
▁smoke	-3184
▁aboard	-3185
▁refuse	-3186
▁cigaret	-3187
▁Princess	-3188
urs	-3189
▁25	-3190
▁NO	-3191
▁Act	-3192
▁Dan	-3193
▁cre	-3194
▁Ezra	-3195
▁HAVE	-3196
▁WELL	-3197
▁bull	-3198
▁quit	-3199
▁Hotel	-3200
▁Serge	-3201
▁above	-3202
▁smile	-3203
ression	-3204
▁corner	-3205
▁famous	-3206
▁remain	-3207
▁victim	-3208
▁singing	-3209
▁walking	-3210
ée	-3211
iam	-3212
▁RE	-3213
▁hy	-3214
ends	-3215
etch	-3216
pens	-3217
ural	-3218
▁Mom	-3219
▁Six	-3220
▁Ste	-3221
▁Zou	-3222
aking	-3223
hange	-3224
▁West	-3225
▁James	-3226
▁Major	-3227
▁beauty	-3228
▁dreams	-3229
▁eating	-3230
▁leaves	-3231
▁missed	-3232
▁simply	-3233
▁threat	-3234
▁courage	-3235
▁finally	-3236
▁journey	-3237
▁horrible	-3238
▁recognize	-3239
ino	-3240
mon	-3241
str	-3242
▁Tr	-3243
ands	-3244
ices	-3245
▁Sec	-3246
▁den	-3247
▁org	-3248
▁top	-3249
ality	-3250
▁Turn	-3251
▁test	-3252
▁Louis	-3253
▁While	-3254
▁White	-3255
▁badly	-3256
▁Better	-3257
▁horses	-3258
▁manage	-3259
▁needed	-3260
▁allowed	-3261
▁control	-3262
▁machine	-3263
▁missing	-3264
▁problem	-3265
▁suspect	-3266
ts	-3267
▁Sl	-3268
▁END	-3269
▁Fin	-3270
▁Ren	-3271
▁bas	-3272
▁mix	-3273
▁odd	-3274
▁rum	-3275
ellow	-3276
ounce	-3277
▁Glad	-3278
▁Lucy	-3279
▁opin	-3280
▁accom	-3281
▁bread	-3282
▁fired	-3283
▁sacri	-3284
▁stole	-3285
▁charac	-3286
▁insane	-3287
▁intell	-3288
▁passed	-3289
▁strang	-3290
▁appoint	-3291
▁holding	-3292
▁grateful	-3293
▁strength	-3294
▁unfortun	-3295
cri	-3296
ify	-3297
▁KN	-3298
ites	-3299
▁Ang	-3300
▁Pin	-3301
▁aut	-3302
▁gall	-3303
▁hall	-3304
▁joke	-3305
anisse	-3306
▁Blond	-3307
▁cents	-3308
▁revol	-3309
▁shout	-3310
▁trees	-3311
▁twice	-3312
iculous	-3313
▁Street	-3314
▁ground	-3315
▁talked	-3316
▁unless	-3317
▁Panisse	-3318
▁foolish	-3319
▁marvelous	-3320
go	-3321
ION	-3322
asy	-3323
die	-3324
gar	-3325
lie	-3326
top	-3327
▁AR	-3328
▁Wyn	-3329
▁sum	-3330
itive	-3331
ricia	-3332
▁Show	-3333
▁aunt	-3334
▁pair	-3335
▁warn	-3336
▁weak	-3337
▁Lepic	-3338
▁bless	-3339
▁arrive	-3340
▁cousin	-3341
▁settle	-3342
▁ticket	-3343
▁noticed	-3344
▁scandal	-3345
▁pictures	-3346
▁everywhere	-3347
CK	-3348
ux	-3349
za	-3350
ari	-3351
ays	-3352
▁Ly	-3353
aunt	-3354
cher	-3355
kins	-3356
onds	-3357
orth	-3358
uses	-3359
▁Big	-3360
▁Ver	-3361
▁fir	-3362
▁ice	-3363
ffect	-3364
idden	-3365
ising	-3366
ument	-3367
▁Want	-3368
▁Queen	-3369
▁Stand	-3370
▁Young	-3371
▁stage	-3372
▁tight	-3373
mission	-3374
▁Forget	-3375
▁Silver	-3376
▁Wynant	-3377
▁became	-3378
▁church	-3379
▁Blondie	-3380
▁written	-3381
",	-3382
uf	-3383
bit	-3384
imb	-3385
iny	-3386
ugg	-3387
acle	-3388
iest	-3389
port	-3390
▁Bra	-3391
▁Rep	-3392
▁nic	-3393
board	-3394
stant	-3395
▁blue	-3396
▁held	-3397
▁rock	-3398
▁tree	-3399
overed	-3400
▁David	-3401
▁fella	-3402
▁Barbar	-3403
▁appear	-3404
▁assure	-3405
▁garden	-3406
▁spring	-3407
▁handsome	-3408
▁condition	-3409
She	-3410
VER	-3411
eat	-3412
eth	-3413
iff	-3414
lan	-3415
zen	-3416
▁AN	-3417
▁es	-3418
This	-3419
eech	-3420
iano	-3421
omen	-3422
quis	-3423
▁Pop	-3424
▁fat	-3425
▁god	-3426
▁psy	-3427
▁ver	-3428
,000.	-3429
agger	-3430
▁Year	-3431
▁educ	-3432
▁cheap	-3433
▁Berlin	-3434
▁excell	-3435
▁middle	-3436
▁within	-3437
▁subject	-3438
▁stranger	-3439
▁perfectly	-3440
▁frightened	-3441
▁themselves	-3442
een	-3443
ils	-3444
isc	-3445
ita	-3446
▁ve	-3447
alle	-3448
lock	-3449
road	-3450
wana	-3451
▁Ric	-3452
▁mer	-3453
stein	-3454
▁Hard	-3455
▁Myra	-3456
▁hist	-3457
▁lone	-3458
▁view	-3459
▁wash	-3460
ically	-3461
ograph	-3462
omeday	-3463
▁cabin	-3464
▁likes	-3465
▁waste	-3466
▁choose	-3467
▁easily	-3468
▁opinion	-3469
▁Patricia	-3470
▁Sometimes	-3471
▁downstairs	-3472
TH	-3473
ns	-3474
00.	-3475
Let	-3476
▁24	-3477
bury	-3478
guer	-3479
hard	-3480
▁ARE	-3481
▁Run	-3482
▁doc	-3483
▁gar	-3484
▁low	-3485
iling	-3486
known	-3487
▁Four	-3488
▁Vict	-3489
▁chap	-3490
▁date	-3491
ending	-3492
▁Green	-3493
▁brain	-3494
▁magic	-3495
▁miles	-3496
▁press	-3497
▁stars	-3498
▁Holmes	-3499
▁Topaze	-3500
▁hearts	-3501
▁nature	-3502
▁scient	-3503
▁command	-3504
▁engaged	-3505
▁example	-3506
▁soldier	-3507
▁streets	-3508
▁information	-3509
ob	-3510
alt	-3511
oms	-3512
und	-3513
ddie	-3514
▁dad	-3515
▁sky	-3516
Hello	-3517
ified	-3518
▁KNOW	-3519
▁Pret	-3520
▁acqu	-3521
▁dame	-3522
▁vamp	-3523
▁Chief	-3524
▁Maria	-3525
guerite	-3526
▁Anyway	-3527
▁Armand	-3528
▁choice	-3529
▁clever	-3530
▁common	-3531
▁memory	-3532
▁writing	-3533
▁evidence	-3534
UP	-3535
fit	-3536
inda	-3537
resp	-3538
▁Jee	-3539
▁MAN	-3540
▁WAS	-3541
▁WIT	-3542
▁est	-3543
▁rub	-3544
otion	-3545
▁HERE	-3546
▁Mont	-3547
▁Most	-3548
▁Move	-3549
▁card	-3550
▁coun	-3551
▁pers	-3552
▁Judge	-3553
▁South	-3554
▁appre	-3555
▁cause	-3556
▁claim	-3557
▁liked	-3558
▁Carrot	-3559
▁bridge	-3560
▁effect	-3561
▁search	-3562
▁fellows	-3563
▁general	-3564
▁neither	-3565
▁feelings	-3566
▁midnight	-3567
▁pleasant	-3568
▁watching	-3569
▁situation	-3570
:3	-3571
ILL	-3572
ere	-3573
gel	-3574
mas	-3575
yal	-3576
▁Es	-3577
▁GU	-3578
nect	-3579
pper	-3580
time	-3581
vent	-3582
▁BUT	-3583
▁COU	-3584
▁Cal	-3585
▁Dry	-3586
▁Huh	-3587
▁Mab	-3588
▁pin	-3589
ortun	-3590
using	-3591
▁Back	-3592
▁Comp	-3593
▁Scot	-3594
▁ears	-3595
▁wise	-3596
ording	-3597
▁Drink	-3598
▁Looks	-3599
▁judge	-3600
▁teach	-3601
▁tells	-3602
▁Claire	-3603
▁Jeeves	-3604
▁nearly	-3605
▁suffer	-3606
▁supper	-3607
▁suspic	-3608
▁dropped	-3609
▁profess	-3610
▁contract	-3611
▁telegram	-3612
▁champagne	-3613
▁seriously	-3614
▁ridiculous	-3615
.'	-3616
OK	-3617
eel	-3618
ese	-3619
▁Pa	-3620
itty	-3621
roll	-3622
▁Aye	-3623
▁Wal	-3624
hered	-3625
iving	-3626
ograp	-3627
oming	-3628
▁Arch	-3629
▁Rosa	-3630
▁Toni	-3631
▁cars	-3632
▁damn	-3633
▁disp	-3634
▁gift	-3635
▁guns	-3636
▁Court	-3637
▁annoy	-3638
▁artic	-3639
▁fixed	-3640
▁Govern	-3641
▁author	-3642
▁closed	-3643
▁commun	-3644
▁decide	-3645
▁employ	-3646
▁favour	-3647
▁picked	-3648
▁scound	-3649
▁sounds	-3650
atherine	-3651
▁excited	-3652
▁pleased	-3653
▁comrades	-3654
▁Marguerite	-3655
▁experiment	-3656
Is	-3657
het	-3658
ias	-3659
par	-3660
vey	-3661
▁AT	-3662
▁FR	-3663
▁Im	-3664
aker	-3665
ging	-3666
▁Gab	-3667
▁Hav	-3668
▁Mme	-3669
▁Ven	-3670
▁ban	-3671
▁bid	-3672
▁oil	-3673
▁rat	-3674
▁unc	-3675
ciety	-3676
orney	-3677
▁Damn	-3678
▁Pass	-3679
▁Pier	-3680
▁begg	-3681
▁cock	-3682
▁lift	-3683
asting	-3684
erable	-3685
▁Honor	-3686
▁calls	-3687
▁chest	-3688
▁match	-3689
▁rooms	-3690
▁threw	-3691
arewell	-3692
▁breath	-3693
▁finger	-3694
▁joking	-3695
▁prince	-3696
▁result	-3697
▁Barbara	-3698
▁Russian	-3699
▁matters	-3700
▁Somebody	-3701
▁intellig	-3702
▁comfortable	-3703
5.	-3704
IL	-3705
ium	-3706
nce	-3707
▁OK	-3708
They	-3709
asse	-3710
ibly	-3711
▁Cut	-3712
▁Old	-3713
▁Wor	-3714
▁bow	-3715
▁glo	-3716
▁pig	-3717
▁sin	-3718
nific	-3719
▁Down	-3720
▁Read	-3721
▁band	-3722
▁cell	-3723
urious	-3724
▁bride	-3725
▁joint	-3726
▁needn	-3727
▁plant	-3728
▁tears	-3729
▁Enough	-3730
▁Russia	-3731
▁Wouldn	-3732
▁desert	-3733
▁scream	-3734
▁slight	-3735
▁waited	-3736
▁appreci	-3737
▁theater	-3738
▁wounded	-3739
▁marrying	-3740
▁millions	-3741
▁personal	-3742
▁Allenbury	-3743
▁character	-3744
▁commander	-3745
▁absolutely	-3746
▁especially	-3747
▁sweetheart	-3748
▁yourselves	-3749
ec	-3750
tin	-3751
ued	-3752
▁Bu	-3753
bers	-3754
burg	-3755
hood	-3756
oine	-3757
rect	-3758
rief	-3759
roup	-3760
▁Bye	-3761
▁COM	-3762
▁Law	-3763
▁Mus	-3764
▁civ	-3765
▁due	-3766
asper	-3767
ption	-3768
razia	-3769
▁bets	-3770
▁debt	-3771
▁desp	-3772
▁lend	-3773
▁mere	-3774
▁robb	-3775
cience	-3776
itions	-3777
neberg	-3778
▁Haven	-3779
▁Speak	-3780
▁beast	-3781
▁began	-3782
▁somet	-3783
▁study	-3784
▁witch	-3785
▁Manuel	-3786
▁insult	-3787
▁invest	-3788
▁mister	-3789
▁moving	-3790
▁nerves	-3791
nificent	-3792
▁Dearest	-3793
▁Welcome	-3794
▁arrange	-3795
▁birthday	-3796
▁brothers	-3797
▁mistaken	-3798
▁received	-3799
▁Pinneberg	-3800
TER	-3801
bel	-3802
hib	-3803
sby	-3804
unn	-3805
▁NE	-3806
acks	-3807
cing	-3808
form	-3809
ills	-3810
look	-3811
▁ACT	-3812
▁DON	-3813
▁NOT	-3814
▁fle	-3815
▁hol	-3816
▁kit	-3817
▁sep	-3818
▁Juan	-3819
▁Stan	-3820
▁bast	-3821
▁bene	-3822
▁cute	-3823
▁earn	-3824
▁infl	-3825
▁mail	-3826
▁main	-3827
▁shar	-3828
iments	-3829
▁Eddie	-3830
▁Other	-3831
▁Shang	-3832
▁keeps	-3833
▁assist	-3834
▁betray	-3835
▁lights	-3836
▁myster	-3837
▁strike	-3838
▁thirst	-3839
▁expected	-3840
LY	-3841
RO	-3842
Are	-3843
arm	-3844
edo	-3845
hys	-3846
icy	-3847
nal	-3848
oop	-3849
ser	-3850
▁14	-3851
▁DE	-3852
asha	-3853
atic	-3854
onel	-3855
onia	-3856
yond	-3857
▁Fer	-3858
▁Fun	-3859
▁Mal	-3860
▁Raw	-3861
▁obl	-3862
antic	-3863
avier	-3864
eward	-3865
▁Bour	-3866
▁None	-3867
▁WITH	-3868
▁slow	-3869
▁viol	-3870
▁wire	-3871
ctions	-3872
resent	-3873
▁Durin	-3874
▁Georg	-3875
▁books	-3876
▁bucks	-3877
▁etern	-3878
▁grave	-3879
▁heavy	-3880
▁moved	-3881
▁noise	-3882
▁radio	-3883
▁scene	-3884
▁spoke	-3885
▁stone	-3886
agement	-3887
▁Hitler	-3888
▁lesson	-3889
▁locked	-3890
▁lonely	-3891
▁nights	-3892
▁played	-3893
▁wishes	-3894
▁Suppose	-3895
▁connect	-3896
▁manager	-3897
▁usually	-3898
▁criminal	-3899
▁definite	-3900
▁director	-3901
▁followed	-3902
▁Goodnight	-3903
▁responsible	-3904
So	-3905
ANT	-3906
Who	-3907
hai	-3908
hal	-3909
rap	-3910
▁pa	-3911
aked	-3912
ford	-3913
istr	-3914
rass	-3915
ucky	-3916
▁Eve	-3917
▁HIM	-3918
▁Jew	-3919
▁Mur	-3920
▁Sam	-3921
▁Sim	-3922
▁Sus	-3923
▁Ten	-3924
▁Ter	-3925
▁maj	-3926
▁mug	-3927
▁neg	-3928
▁rom	-3929
asant	-3930
elein	-3931
eline	-3932
ender	-3933
▁copy	-3934
▁mama	-3935
reedom	-3936
urning	-3937
▁Anton	-3938
▁Ellen	-3939
▁Fried	-3940
▁Kring	-3941
▁THERE	-3942
▁enter	-3943
▁named	-3944
ammchen	-3945
▁Grazia	-3946
▁Indeed	-3947
▁hiding	-3948
▁itself	-3949
▁chicken	-3950
▁driving	-3951
▁elephan	-3952
▁foreign	-3953
▁support	-3954
▁actually	-3955
▁continue	-3956
▁delighted	-3957
▁interrupt	-3958
▁Kringelein	-3959
ev	-3960
hm	-3961
ym	-3962
bes	-3963
erk	-3964
ota	-3965
chan	-3966
ianc	-3967
inct	-3968
reme	-3969
umst	-3970
▁thy	-3971
abeth	-3972
atory	-3973
icate	-3974
▁Dead	-3975
▁Eliz	-3976
▁Span	-3977
▁dumb	-3978
▁wild	-3979
vation	-3980
▁Money	-3981
▁Reich	-3982
▁Selma	-3983
▁cheat	-3984
▁contr	-3985
▁disgr	-3986
▁embar	-3987
▁matey	-3988
▁Connie	-3989
▁afford	-3990
▁invite	-3991
▁opened	-3992
▁beloved	-3993
▁carried	-3994
▁deserve	-3995
▁possess	-3996
▁Shanghai	-3997
▁understood	-3998
zy	-3999
AKE	-4000
aur	-4001
▁LO	-4002
▁SA	-4003
amps	-4004
rons	-4005
▁Mag	-4006
▁Pre	-4007
▁bes	-4008
▁sle	-4009
▁tru	-4010
emois	-4011
field	-4012
leroy	-4013
▁Care	-4014
▁Mata	-4015
▁agre	-4016
▁deli	-4017
▁loud	-4018
▁rare	-4019
▁sand	-4020
▁soup	-4021
aching	-4022
▁Again	-4023
▁Smith	-4024
▁fetch	-4025
▁ideas	-4026
▁paint	-4027
▁separ	-4028
▁storm	-4029
▁suitc	-4030
▁taste	-4031
▁trave	-4032
▁value	-4033
pensive	-4034
▁affair	-4035
▁beyond	-4036
▁closer	-4037
▁lately	-4038
▁paying	-4039
▁rescue	-4040
▁Jachman	-4041
▁affairs	-4042
▁kitchen	-4043
▁meaning	-4044
▁request	-4045
▁society	-4046
auntleroy	-4047
emoiselle	-4048
▁sleeping	-4049
▁Christmas	-4050
▁Elizabeth	-4051
▁Naturally	-4052
▁discovered	-4053
50	-4054
St	-4055
To	-4056
yr	-4057
All	-4058
IND	-4059
ato	-4060
you	-4061
▁Te	-4062
back	-4063
reak	-4064
▁Bad	-4065
▁End	-4066
▁Him	-4067
▁avo	-4068
▁lau	-4069
▁rou	-4070
ature	-4071
enger	-4072
illes	-4073
ilson	-4074
usion	-4075
▁Bark	-4076
▁Comm	-4077
▁Gold	-4078
▁Hall	-4079
▁Thom	-4080
▁hunt	-4081
▁legs	-4082
▁load	-4083
▁myst	-4084
▁repe	-4085
▁Franz	-4086
▁Going	-4087
▁fianc	-4088
▁reput	-4089
▁sever	-4090
▁Ellman	-4091
▁action	-4092
▁behave	-4093
▁bright	-4094
▁brings	-4095
▁failed	-4096
▁temper	-4097
▁travel	-4098
▁history	-4099
▁invited	-4100
▁servant	-4101
▁weather	-4102
▁murdered	-4103
▁shooting	-4104
▁conscience	-4105
▁profession	-4106
▁Congratulations	-4107
"!	-4108
SS	-4109
yl	-4110
ém	-4111
asa	-4112
omm	-4113
rin	-4114
appy	-4115
rage	-4116
ruit	-4117
▁Ain	-4118
▁Bob	-4119
▁CAN	-4120
▁Gra	-4121
▁Kay	-4122
▁rul	-4123
▁saf	-4124
▁van	-4125
itary	-4126
osing	-4127
▁Carl	-4128
▁Mina	-4129
▁Sing	-4130
▁Were	-4131
▁deck	-4132
▁jury	-4133
▁stom	-4134
uments	-4135
▁Doesn	-4136
▁cheer	-4137
▁civil	-4138
▁level	-4139
▁owner	-4140
▁slave	-4141
▁spell	-4142
▁Dryden	-4143
▁advent	-4144
▁attend	-4145
▁forced	-4146
▁monkey	-4147
▁reward	-4148
▁speech	-4149
▁Antoine	-4150
▁Without	-4151
▁heavens	-4152
▁justice	-4153
▁ordered	-4154
▁putting	-4155
▁reached	-4156
▁tickets	-4157
▁Nonsense	-4158
▁believed	-4159
▁building	-4160
▁entirely	-4161
▁prepared	-4162
▁cigarette	-4163
▁mountains	-4164
▁Fauntleroy	-4165
▁z	-4166
ago	-4167
ham	-4168
rid	-4169
sed	-4170
arch	-4171
hold	-4172
hope	-4173
ntil	-4174
oted	-4175
▁200	-4176
▁Int	-4177
▁LUP	-4178
▁SIR	-4179
▁Sun	-4180
▁Yet	-4181
▁ast	-4182
▁equ	-4183
hings	-4184
olved	-4185
range	-4186
sters	-4187
▁Fred	-4188
▁Last	-4189
▁Lily	-4190
▁Mack	-4191
▁chat	-4192
▁dawn	-4193
▁fate	-4194
▁fond	-4195
▁gate	-4196
▁lips	-4197
▁obey	-4198
▁ours	-4199
▁race	-4200
▁taxi	-4201
▁team	-4202
urance	-4203
▁Blood	-4204
▁baron	-4205
▁bwana	-4206
▁dread	-4207
▁faint	-4208
▁grown	-4209
▁march	-4210
▁organ	-4211
▁scare	-4212
▁worst	-4213
itation	-4214
▁Edward	-4215
▁Nicole	-4216
▁palace	-4217
▁sooner	-4218
▁surely	-4219
▁freedom	-4220
▁killing	-4221
▁teacher	-4222
▁workers	-4223
▁Stanhope	-4224
▁bringing	-4225
▁complain	-4226
▁Ivanovich	-4227
▁disappoint	-4228
▁revolution	-4229
▁grandfather	-4230
OD	-4231
la	-4232
ALL	-4233
acy	-4234
eau	-4235
era	-4236
irk	-4237
▁Ok	-4238
hand	-4239
mber	-4240
vere	-4241
vert	-4242
▁Dro	-4243
▁Dub	-4244
▁Heh	-4245
▁Jan	-4246
▁OUT	-4247
▁Tre	-4248
▁ant	-4249
▁pan	-4250
▁une	-4251
▁wid	-4252
▁Hobb	-4253
▁Many	-4254
▁Swed	-4255
▁Vien	-4256
▁cake	-4257
▁fail	-4258
▁mood	-4259
▁purp	-4260
▁stru	-4261
▁tear	-4262
orence	-4263
▁LUPIN	-4264
▁RIGHT	-4265
▁Valle	-4266
▁await	-4267
▁drown	-4268
▁psych	-4269
▁Harvey	-4270
▁Javier	-4271
▁Nanine	-4272
▁descri	-4273
▁driver	-4274
▁flower	-4275
▁pieces	-4276
▁Perfect	-4277
▁Silence	-4278
▁funeral	-4279
▁hunting	-4280
▁Florence	-4281
▁Lammchen	-4282
▁goodness	-4283
▁presence	-4284
▁property	-4285
▁splendid	-4286
Cl	-4287
Not	-4288
Now	-4289
SEN	-4290
can	-4291
▁ur	-4292
Yeah	-4293
quar	-4294
▁Alf	-4295
▁Emp	-4296
▁Hal	-4297
▁bat	-4298
▁hig	-4299
asted	-4300
ental	-4301
imate	-4302
ivers	-4303
venge	-4304
▁Boys	-4305
▁Buck	-4306
▁City	-4307
▁Kent	-4308
▁Kill	-4309
▁Port	-4310
▁Sher	-4311
▁diam	-4312
▁orig	-4313
▁phys	-4314
▁thee	-4315
▁Bravo	-4316
▁Edith	-4317
▁Party	-4318
▁Polly	-4319
▁Until	-4320
▁liber	-4321
▁spare	-4322
▁sugar	-4323
▁truly	-4324
▁Harold	-4325
▁Honour	-4326
▁Pretty	-4327
▁Things	-4328
▁forbid	-4329
▁instru	-4330
▁served	-4331
▁twenty	-4332
▁attract	-4333
▁deliver	-4334
▁reading	-4335
▁several	-4336
▁someday	-4337
▁wearing	-4338
▁governor	-4339
▁investig	-4340
▁servants	-4341
▁embarrass	-4342
▁engagement	-4343
'?	-4344
AU	-4345
fl	-4346
vy	-4347
AIN	-4348
IVE	-4349
ige	-4350
osh	-4351
sar	-4352
▁13	-4353
▁22	-4354
▁ge	-4355
▁um	-4356
bass	-4357
fice	-4358
gest	-4359
iday	-4360
itiz	-4361
ltry	-4362
ples	-4363
riff	-4364
▁Daw	-4365
▁Dri	-4366
▁ble	-4367
▁bor	-4368
▁cam	-4369
▁hey	-4370
▁lim	-4371
▁mot	-4372
▁vol	-4373
aging	-4374
atest	-4375
house	-4376
ients	-4377
urnin	-4378
▁Cast	-4379
▁Lott	-4380
▁Prom	-4381
▁Soon	-4382
▁eggs	-4383
▁roll	-4384
▁rope	-4385
▁soft	-4386
▁unif	-4387
▁Ching	-4388
▁March	-4389
▁Women	-4390
▁cigar	-4391
▁crack	-4392
▁grant	-4393
▁influ	-4394
▁noble	-4395
▁plane	-4396
▁polit	-4397
viously	-4398
▁Vienna	-4399
▁affect	-4400
▁market	-4401
▁shadow	-4402
▁stayed	-4403
▁strugg	-4404
▁Believe	-4405
▁William	-4406
▁doctors	-4407
▁interfe	-4408
▁Comrades	-4409
▁Governor	-4410
▁reporter	-4411
▁treasure	-4412
▁Attention	-4413
▁carefully	-4414
IA	-4415
ga	-4416
AND	-4417
ICE	-4418
don	-4419
loc	-4420
ura	-4421
gent	-4422
reck	-4423
rong	-4424
▁Ham	-4425
▁Squ	-4426
▁fed	-4427
aring	-4428
azing	-4429
venue	-4430
▁Chic	-4431
▁Gust	-4432
▁Know	-4433
▁Mind	-4434
▁Play	-4435
▁Ruth	-4436
▁Said	-4437
▁Star	-4438
▁bell	-4439
▁furn	-4440
▁goin	-4441
▁milk	-4442
▁norm	-4443
▁sock	-4444
▁type	-4445
andall	-4446
ressed	-4447
though	-4448
▁Death	-4449
▁Flint	-4450
▁Hobbs	-4451
▁sword	-4452
▁Surely	-4453
▁animal	-4454
▁desire	-4455
▁intend	-4456
▁punish	-4457
▁spoken	-4458
▁However	-4459
▁Manuela	-4460
▁earlier	-4461
▁natural	-4462
▁offered	-4463
▁sending	-4464
▁settled	-4465
▁treated	-4466
▁Director	-4467
▁Scotland	-4468
▁creature	-4469
▁happening	-4470
▁miserable	-4471
▁thousands	-4472
▁mysterious	-4473
▁appointment	-4474
▁unfortunate	-4475
KE	-4476
RY	-4477
oh	-4478
uj	-4479
ean	-4480
eng	-4481
ols	-4482
rim	-4483
émi	-4484
▁$2	-4485
...!	-4486
ERCH	-4487
ault	-4488
hest	-4489
just	-4490
oops	-4491
stit	-4492
▁Del	-4493
▁Leo	-4494
▁Mer	-4495
▁SEE	-4496
▁Sal	-4497
▁Sar	-4498
▁Vas	-4499
▁YES	-4500
▁bal	-4501
▁cal	-4502
▁mob	-4503
▁tal	-4504
aston	-4505
ening	-4506
ignor	-4507
ushed	-4508
utter	-4509
▁Boss	-4510
▁Dick	-4511
▁Grus	-4512
▁Life	-4513
▁Rémi	-4514
▁dies	-4515
▁pear	-4516
▁sees	-4517
▁thou	-4518
ingers	-4519
▁Devil	-4520
▁Franc	-4521
▁Grant	-4522
▁Happy	-4523
▁Henri	-4524
▁Their	-4525
▁avoid	-4526
▁final	-4527
▁finds	-4528
▁oblig	-4529
▁older	-4530
▁Couldn	-4531
▁Gaston	-4532
▁Helena	-4533
▁Helius	-4534
▁Jasper	-4535
▁Nathan	-4536
▁Pierre	-4537
▁Should	-4538
▁appeal	-4539
▁beside	-4540
▁borrow	-4541
▁helped	-4542
▁walked	-4543
quarters	-4544
▁Dawltry	-4545
▁advance	-4546
▁belongs	-4547
▁hanging	-4548
▁monster	-4549
▁victory	-4550
▁arranged	-4551
▁carriage	-4552
▁friendly	-4553
▁opportun	-4554
▁regiment	-4555
▁scoundrel	-4556
▁statement	-4557
▁lieutenant	-4558
▁reputation	-4559
gs	-4560
Did	-4561
For	-4562
cer	-4563
ode	-4564
oke	-4565
vin	-4566
▁Ir	-4567
▁SO	-4568
SENE	-4569
inza	-4570
like	-4571
stru	-4572
unce	-4573
▁Cam	-4574
▁GOT	-4575
▁Men	-4576
▁aud	-4577
▁bud	-4578
Ching	-4579
inese	-4580
ishop	-4581
▁Aust	-4582
▁Flow	-4583
▁Home	-4584
▁Prey	-4585
▁base	-4586
▁cove	-4587
▁gamb	-4588
▁heat	-4589
▁liar	-4590
▁wret	-4591
mother	-4592
▁Child	-4593
▁Eight	-4594
▁aband	-4595
▁below	-4596
▁crook	-4597
▁famil	-4598
▁labor	-4599
▁leads	-4600
▁rough	-4601
▁stood	-4602
ERCHARD	-4603
▁Shinza	-4604
▁amount	-4605
▁artist	-4606
▁client	-4607
▁filled	-4608
▁gotten	-4609
▁maiden	-4610
▁rotten	-4611
▁silver	-4612
▁taught	-4613
▁thrill	-4614
▁partner	-4615
▁stomach	-4616
▁warning	-4617
▁Probably	-4618
▁circumst	-4619
▁dressing	-4620
▁princess	-4621
▁thoughts	-4622
▁committed	-4623
▁expensive	-4624
▁sacrifice	-4625
▁witnesses	-4626
▁magnificent	-4627
Joe	-4628
▁-"	-4629
▁16	-4630
▁fe	-4631
"...	-4632
hore	-4633
hrer	-4634
iant	-4635
mist	-4636
teen	-4637
▁Div	-4638
▁Imp	-4639
▁Ned	-4640
▁anx	-4641
antee	-4642
cient	-4643
tered	-4644
▁Capt	-4645
▁Ever	-4646
▁Gott	-4647
▁Mean	-4648
▁cred	-4649
▁crew	-4650
▁dogs	-4651
▁duck	-4652
▁firm	-4653
▁sore	-4654
acious	-4655
▁Earth	-4656
▁Funny	-4657
▁Susan	-4658
▁block	-4659
▁dozen	-4660
▁fancy	-4661
▁fever	-4662
▁fruit	-4663
▁opera	-4664
▁penny	-4665
ibility	-4666
▁Droste	-4667
▁Friend	-4668
▁Josefa	-4669
▁Secret	-4670
▁Verloc	-4671
▁Whitey	-4672
▁agreed	-4673
▁buying	-4674
▁caused	-4675
▁direct	-4676
▁sailor	-4677
▁starts	-4678
▁summer	-4679
ordinary	-4680
▁Bourron	-4681
▁bastard	-4682
▁knowing	-4683
▁stories	-4684
▁student	-4685
▁Preysing	-4686
▁Sherlock	-4687
▁acquaint	-4688
▁disgrace	-4689
▁GUERCHARD	-4690
Go	-4691
Get	-4692
UST	-4693
ima	-4694
elve	-4695
empt	-4696
gust	-4697
iece	-4698
▁191	-4699
▁ANY	-4700
▁Ast	-4701
▁Cro	-4702
▁Fan	-4703
▁Lud	-4704
▁Med	-4705
▁flo	-4706
▁reb	-4707
▁wet	-4708
icide	-4709
urday	-4710
while	-4711
▁Bern	-4712
▁CHAR	-4713
▁arch	-4714
▁dece	-4715
▁decl	-4716
▁dish	-4717
▁fasc	-4718
▁page	-4719
▁rehe	-4720
▁rese	-4721
▁size	-4722
▁snow	-4723
▁suck	-4724
▁swim	-4725
▁tong	-4726
leased	-4727
▁awake	-4728
▁beard	-4729
▁cares	-4730
▁climb	-4731
▁impro	-4732
▁jewel	-4733
▁mixed	-4734
▁ARSENE	-4735
▁Follow	-4736
▁Landis	-4737
▁dearie	-4738
▁kissed	-4739
▁propos	-4740
▁signed	-4741
▁Brother	-4742
▁Calling	-4743
▁Chinese	-4744
▁Company	-4745
▁Comrade	-4746
▁outrage	-4747
▁quarter	-4748
▁realise	-4749
▁vampire	-4750
▁National	-4751
▁Saturday	-4752
▁Unfortun	-4753
▁misunder	-4754
▁concerned	-4755
▁destroyed	-4756
▁interfere	-4757
▁represent	-4758
▁Unfortunately	-4759
In	-4760
Mar	-4761
ili	-4762
kin	-4763
por	-4764
▁60	-4765
▁AS	-4766
ases	-4767
ella	-4768
iety	-4769
▁Jup	-4770
▁arg	-4771
▁bab	-4772
▁pet	-4773
▁typ	-4774
ained	-4775
asons	-4776
hmann	-4777
ining	-4778
ipped	-4779
ooray	-4780
stead	-4781
uable	-4782
ulein	-4783
▁Find	-4784
▁Kate	-4785
▁Prim	-4786
▁lied	-4787
▁path	-4788
▁pipe	-4789
▁rail	-4790
▁scar	-4791
▁Heini	-4792
▁Julie	-4793
▁Ounce	-4794
▁apart	-4795
▁green	-4796
▁greet	-4797
▁remem	-4798
▁sport	-4799
▁Anyone	-4800
▁Heaven	-4801
▁Honest	-4802
▁gloves	-4803
▁nation	-4804
▁normal	-4805
▁ruined	-4806
▁social	-4807
▁spread	-4808
▁purpose	-4809
▁regular	-4810
▁towards	-4811
▁uniform	-4812
▁wanting	-4813
▁carrying	-4814
▁engineer	-4815
▁customers	-4816
▁president	-4817
▁reasonable	-4818
AP	-4819
Be	-4820
Br	-4821
OB	-4822
enn	-4823
lor	-4824
oco	-4825
▁Ac	-4826
▁II	-4827
▁Ob	-4828
.000	-4829
Here	-4830
When	-4831
ague	-4832
cean	-4833
dles	-4834
iven	-4835
rier	-4836
▁DID	-4837
▁Day	-4838
▁Dis	-4839
▁Far	-4840
▁Mic	-4841
▁NOW	-4842
▁Sho	-4843
▁dry	-4844
▁iss	-4845
▁pir	-4846
▁row	-4847
▁tot	-4848
emies	-4849
icked	-4850
ights	-4851
ordon	-4852
▁Bomb	-4853
▁Brit	-4854
▁Cair	-4855
▁Clau	-4856
▁Holy	-4857
▁Matt	-4858
▁Wasn	-4859
▁Wolf	-4860
▁bite	-4861
▁roof	-4862
▁slip	-4863
▁ways	-4864
orious	-4865
rigger	-4866
ushing	-4867
▁Madge	-4868
▁Place	-4869
▁Saint	-4870
▁bound	-4871
▁broad	-4872
▁elect	-4873
▁frank	-4874
▁grace	-4875
▁group	-4876
▁ident	-4877
▁print	-4878
▁shock	-4879
▁swine	-4880
▁trade	-4881
Goodbye	-4882
ference	-4883
▁Almost	-4884
▁Fannie	-4885
▁Lottie	-4886
▁Sergei	-4887
▁Spring	-4888
▁brandy	-4889
▁compet	-4890
▁fellas	-4891
▁jewels	-4892
▁nothin	-4893
▁orphan	-4894
▁poison	-4895
▁racket	-4896
▁recomm	-4897
▁yellow	-4898
kenstein	-4899
▁Randall	-4900
▁Richard	-4901
▁comrade	-4902
▁correct	-4903
▁reasons	-4904
▁succeed	-4905
▁thirsty	-4906
▁unknown	-4907
▁Madeline	-4908
▁accepted	-4909
▁dreaming	-4910
▁prisoner	-4911
▁sometime	-4912
▁wherever	-4913
▁Understand	-4914
▁appreciate	-4915
▁Frankenstein	-4916
.,	-4917
IC	-4918
UN	-4919
bs	-4920
ais	-4921
ako	-4922
ask	-4923
eps	-4924
heh	-4925
ola	-4926
oux	-4927
reg	-4928
urd	-4929
▁Ap	-4930
▁IF	-4931
▁LI	-4932
▁ye	-4933
asty	-4934
book	-4935
kyll	-4936
lect	-4937
▁Abs	-4938
▁Acc	-4939
▁Arn	-4940
▁Bab	-4941
▁Eva	-4942
▁Fif	-4943
▁Fur	-4944
▁GET	-4945
▁Tur	-4946
▁bra	-4947
▁led	-4948
ading	-4949
anche	-4950
ented	-4951
erick	-4952
ipper	-4953
usual	-4954
▁Coco	-4955
▁Girl	-4956
▁Hope	-4957
▁Mill	-4958
▁Pars	-4959
▁Save	-4960
▁Talk	-4961
▁drag	-4962
▁park	-4963
▁weal	-4964
tering	-4965
▁Frank	-4966
▁Marse	-4967
▁Royal	-4968
▁Sleep	-4969
▁angel	-4970
▁birds	-4971
▁bored	-4972
▁citiz	-4973
▁cruel	-4974
▁hired	-4975
▁loose	-4976
▁major	-4977
▁south	-4978
▁stake	-4979
▁toast	-4980
▁using	-4981
▁Answer	-4982
▁Jekyll	-4983
▁buried	-4984
▁fought	-4985
▁modern	-4986
▁raised	-4987
▁regard	-4988
▁sorrow	-4989
▁studio	-4990
▁Trigger	-4991
▁accused	-4992
▁bedroom	-4993
▁curtain	-4994
▁finding	-4995
▁nowhere	-4996
▁pretend	-4997
▁Saturnin	-4998
▁announce	-4999
▁breaking	-5000
▁contrary	-5001
▁military	-5002
▁sentence	-5003
▁Christian	-5004
▁apologize	-5005
▁disappeared	-5006
▁opportunity	-5007
ELL	-5008
dom	-5009
huh	-5010
lla	-5011
met	-5012
▁AB	-5013
▁Sk	-5014
▁av	-5015
alph	-5016
gain	-5017
owns	-5018
raft	-5019
▁Bus	-5020
▁Had	-5021
▁Kat	-5022
▁Ken	-5023
▁Viv	-5024
▁deg	-5025
▁gal	-5026
▁gen	-5027
▁hyp	-5028
▁lic	-5029
▁map	-5030
▁vac	-5031
rantz	-5032
▁Army	-5033
▁Both	-5034
▁Clar	-5035
▁Cont	-5036
▁Danc	-5037
▁Half	-5038
▁Higg	-5039
▁McCl	-5040
▁Same	-5041
▁deny	-5042
▁desk	-5043
▁iron	-5044
▁rose	-5045
▁shan	-5046
▁tail	-5047
▁thro	-5048
asters	-5049
▁Allow	-5050
▁Italy	-5051
▁Julia	-5052
▁Ralph	-5053
▁Ready	-5054
▁Sweet	-5055
▁mater	-5056
▁merry	-5057
▁oppos	-5058
▁pants	-5059
▁shown	-5060
▁steam	-5061
▁thick	-5062
▁trial	-5063
▁Avenue	-5064
▁Barber	-5065
▁acting	-5066
▁advise	-5067
▁anyhow	-5068
▁ashore	-5069
▁perfor	-5070
▁priest	-5071
▁robbed	-5072
▁strict	-5073
▁Careful	-5074
▁Jupiter	-5075
▁Strange	-5076
▁disgust	-5077
▁medical	-5078
▁popular	-5079
▁decision	-5080
▁favorite	-5081
▁starting	-5082
▁stealing	-5083
▁worrying	-5084
▁education	-5085
▁excellent	-5086
▁circumstances	-5087
6.	-5088
af	-5089
of	-5090
col	-5091
con	-5092
dle	-5093
ems	-5094
erm	-5095
hmm	-5096
imi	-5097
lem	-5098
oul	-5099
ums	-5100
▁$5	-5101
apan	-5102
illi	-5103
itry	-5104
kmen	-5105
live	-5106
mail	-5107
mpat	-5108
phew	-5109
ubin	-5110
uffe	-5111
▁Jac	-5112
▁Mil	-5113
▁Reg	-5114
▁dig	-5115
▁fal	-5116
▁inn	-5117
▁sla	-5118
▁tip	-5119
▁var	-5120
astic	-5121
ieves	-5122
igned	-5123
itled	-5124
kmene	-5125
respi	-5126
riner	-5127
usted	-5128
velop	-5129
vious	-5130
▁Amph	-5131
▁Clay	-5132
▁Craw	-5133
▁Easy	-5134
▁Falk	-5135
▁Moon	-5136
▁Rome	-5137
▁Tour	-5138
▁alib	-5139
▁cash	-5140
▁hole	-5141
▁host	-5142
▁loan	-5143
▁lugg	-5144
▁merc	-5145
▁nuts	-5146
▁pawn	-5147
▁rasc	-5148
ashion	-5149
idered	-5150
itryon	-5151
ronsky	-5152
▁Afric	-5153
▁brill	-5154
▁cockt	-5155
▁exerc	-5156
▁homes	-5157
▁medic	-5158
▁model	-5159
ization	-5160
▁Crespi	-5161
▁Crosby	-5162
▁Rawdon	-5163
▁Thomas	-5164
▁Wilson	-5165
▁Wonder	-5166
▁desper	-5167
▁easier	-5168
▁editor	-5169
▁fallen	-5170
▁likely	-5171
▁member	-5172
▁nephew	-5173
▁sacred	-5174
▁thrown	-5175
▁tongue	-5176
▁Alkmene	-5177
▁Colonel	-5178
▁Promise	-5179
▁beating	-5180
▁besides	-5181
▁burning	-5182
▁enemies	-5183
▁fingers	-5184
▁glasses	-5185
▁knocked	-5186
▁showing	-5187
▁somehow	-5188
▁spirits	-5189
▁Children	-5190
▁Warriner	-5191
▁exchange	-5192
▁generous	-5193
▁involved	-5194
▁mountain	-5195
▁possibly	-5196
▁surround	-5197
▁Alexander	-5198
▁Otherwise	-5199
▁adventure	-5200
▁entertain	-5201
▁naturally	-5202
▁Amphitryon	-5203
▁permission	-5204
ERS	-5205
ERY	-5206
IST	-5207
lov	-5208
pse	-5209
win	-5210
▁1,	-5211
▁Ra	-5212
▁SP	-5213
ador	-5214
ased	-5215
boat	-5216
lord	-5217
mont	-5218
vest	-5219
▁500	-5220
▁Fri	-5221
▁Kar	-5222
▁Luc	-5223
▁Lyd	-5224
▁Rog	-5225
▁voy	-5226
ables	-5227
chief	-5228
emple	-5229
ittee	-5230
owder	-5231
ublic	-5232
ugust	-5233
▁Hari	-5234
▁Jeff	-5235
▁Maur	-5236
▁Mike	-5237
▁Roma	-5238
▁Wake	-5239
▁asks	-5240
▁seas	-5241
▁sink	-5242
▁sons	-5243
▁surv	-5244
▁teet	-5245
▁trap	-5246
▁west	-5247
▁wolf	-5248
antage	-5249
ooling	-5250
ooster	-5251
uffeur	-5252
▁CHARM	-5253
▁Lilli	-5254
▁Nolan	-5255
▁Water	-5256
▁apple	-5257
▁behav	-5258
▁brief	-5259
▁condu	-5260
▁faces	-5261
▁facts	-5262
▁piano	-5263
▁pride	-5264
▁purge	-5265
▁reser	-5266
▁spoil	-5267
▁talks	-5268
▁wives	-5269
looking	-5270
▁Victor	-5271
▁brains	-5272
▁commit	-5273
▁dining	-5274
▁forest	-5275
▁honeym	-5276
▁jacket	-5277
▁leader	-5278
▁mighty	-5279
▁permit	-5280
▁repeat	-5281
▁robber	-5282
▁troops	-5283
▁worthy	-5284
▁Herbert	-5285
▁Morning	-5286
▁biggest	-5287
▁breathe	-5288
▁depends	-5289
▁escaped	-5290
▁science	-5291
▁touched	-5292
▁unusual	-5293
▁Attorney	-5294
▁Charming	-5295
▁Renfield	-5296
▁dreadful	-5297
▁precious	-5298
▁according	-5299
▁defendant	-5300
▁definitely	-5301
1.	-5302
2.	-5303
4.	-5304
IG	-5305
AST	-5306
INK	-5307
ado	-5308
cho	-5309
cut	-5310
gen	-5311
ieu	-5312
▁Po	-5313
▁du	-5314
Then	-5315
inea	-5316
lieb	-5317
▁192	-5318
▁Ass	-5319
▁Atl	-5320
▁DAN	-5321
▁Ern	-5322
▁Ext	-5323
▁Oly	-5324
▁Shh	-5325
▁Tra	-5326
▁enc	-5327
▁fan	-5328
▁gat	-5329
▁gro	-5330
▁spy	-5331
bered	-5332
henka	-5333
ician	-5334
lsing	-5335
peror	-5336
ungle	-5337
▁Brid	-5338
▁Bull	-5339
▁COME	-5340
▁Chap	-5341
▁Hang	-5342
▁Hick	-5343
▁Joey	-5344
▁Karl	-5345
▁Mimi	-5346
▁Time	-5347
▁bags	-5348
▁dict	-5349
▁hire	-5350
▁lack	-5351
▁poet	-5352
▁raid	-5353
▁reve	-5354
▁rush	-5355
icated	-5356
▁Japan	-5357
▁Later	-5358
▁Mayor	-5359
▁Mummy	-5360
▁Offic	-5361
▁Petro	-5362
▁Throw	-5363
▁blond	-5364
▁boats	-5365
▁coinc	-5366
▁color	-5367
▁conce	-5368
▁doors	-5369
▁feels	-5370
▁fifty	-5371
▁gates	-5372
▁lines	-5373
▁occup	-5374
▁sandw	-5375
▁shape	-5376
▁sharp	-5377
▁slept	-5378
▁spill	-5379
▁trunk	-5380
▁whist	-5381
▁wreck	-5382
▁Arnold	-5383
▁August	-5384
▁Bishop	-5385
▁Claude	-5386
▁Except	-5387
▁Shubin	-5388
▁Strong	-5389
▁Thebes	-5390
▁Thirty	-5391
▁Twenty	-5392
▁bigger	-5393
▁bullet	-5394
▁cattle	-5395
▁filthy	-5396
▁hidden	-5397
▁loving	-5398
▁silent	-5399
▁stands	-5400
▁tender	-5401
▁Helsing	-5402
▁Neville	-5403
▁Parsons	-5404
▁animals	-5405
▁counter	-5406
▁figured	-5407
▁leading	-5408
▁manners	-5409
▁miracle	-5410
▁mystery	-5411
▁passing	-5412
▁planned	-5413
▁proceed	-5414
▁quarrel	-5415
▁revenge	-5416
▁Gottlieb	-5417
▁Roderick	-5418
▁entitled	-5419
▁neighbor	-5420
▁opposite	-5421
▁agreement	-5422
▁complaint	-5423
▁disappear	-5424
▁satisfied	-5425
▁suffering	-5426
▁Especially	-5427
▁department	-5428
7.	-5429
8.	-5430
gl	-5431
rs	-5432
sp	-5433
ACK	-5434
ITT	-5435
ege	-5436
etr	-5437
fly	-5438
ocr	-5439
ubb	-5440
▁$3	-5441
▁Li	-5442
▁SU	-5443
▁Sa	-5444
Take	-5445
ange	-5446
away	-5447
dict	-5448
hips	-5449
lene	-5450
umps	-5451
vich	-5452
wing	-5453
▁193	-5454
▁Ced	-5455
▁Fry	-5456
▁Joy	-5457
▁eff	-5458
▁hel	-5459
▁nur	-5460
▁ord	-5461
▁sav	-5462
acing	-5463
actor	-5464
aries	-5465
asion	-5466
gress	-5467
isted	-5468
▁Room	-5469
▁TAKE	-5470
▁WANT	-5471
▁bump	-5472
▁cool	-5473
▁hill	-5474
▁liqu	-5475
▁meal	-5476
▁prof	-5477
▁push	-5478
▁wide	-5479
action	-5480
▁Filib	-5481
▁Whose	-5482
▁boots	-5483
▁clock	-5484
▁false	-5485
▁hated	-5486
▁nerve	-5487
▁notes	-5488
▁relig	-5489
▁shows	-5490
▁staff	-5491
▁track	-5492
▁walls	-5493
▁Carter	-5494
▁Elliss	-5495
▁Hooray	-5496
▁Jeanne	-5497
▁Palace	-5498
▁Temple	-5499
▁bottom	-5500
▁circus	-5501
▁credit	-5502
▁drinks	-5503
▁fields	-5504
▁killer	-5505
▁pearls	-5506
▁throne	-5507
▁British	-5508
▁Forward	-5509
▁Lohmann	-5510
▁Maurice	-5511
▁Vronsky	-5512
▁amazing	-5513
▁capital	-5514
▁clearly	-5515
▁covered	-5516
▁extreme	-5517
▁hearing	-5518
▁luggage	-5519
▁propose	-5520
▁roubles	-5521
▁original	-5522
▁painting	-5523
▁problems	-5524
▁valuable	-5525
▁Excellent	-5526
▁assistant	-5527
▁honeymoon	-5528
▁mentioned	-5529
▁professor	-5530
▁Impossible	-5531
▁newspapers	-5532
▁personally	-5533
▁headquarters	-5534
▁extraordinary	-5535
NE	-5536
ef	-5537
su	-5538
ART	-5539
ESS	-5540
OUR	-5541
OUT	-5542
OWN	-5543
awa	-5544
bor	-5545
cil	-5546
ees	-5547
elf	-5548
ept	-5549
gly	-5550
hel	-5551
iod	-5552
isa	-5553
mir	-5554
pan	-5555
vie	-5556
▁!"	-5557
▁23	-5558
▁Eh	-5559
▁PR	-5560
▁TR	-5561
aled	-5562
ckon	-5563
clud	-5564
ease	-5565
elia	-5566
elly	-5567
ingu	-5568
ived	-5569
tery	-5570
▁Buy	-5571
▁Eat	-5572
▁Els	-5573
▁Haw	-5574
▁Led	-5575
▁Lur	-5576
▁Mos	-5577
▁San	-5578
▁Spl	-5579
▁ate	-5580
▁blo	-5581
▁fog	-5582
▁kil	-5583
▁lif	-5584
itect	-5585
ooper	-5586
osity	-5587
▁Eric	-5588
▁Hiya	-5589
▁Hurd	-5590
▁Ital	-5591
▁Tele	-5592
▁WILL	-5593
▁bare	-5594
▁capt	-5595
▁cart	-5596
▁coal	-5597
▁exec	-5598
▁lang	-5599
▁loss	-5600
▁stir	-5601
▁weap	-5602
Please	-5603
merald	-5604
orable	-5605
pected	-5606
uction	-5607
▁Brand	-5608
▁Caird	-5609
▁Cheet	-5610
▁China	-5611
▁Clear	-5612
▁Elmer	-5613
▁Linda	-5614
▁Lydia	-5615
▁Macky	-5616
▁NIGHT	-5617
▁State	-5618
▁alibi	-5619
▁clerk	-5620
▁decor	-5621
▁eaten	-5622
▁loyal	-5623
▁mercy	-5624
▁names	-5625
▁persu	-5626
▁sneak	-5627
▁teeth	-5628
aggerty	-5629
fortune	-5630
▁Afraid	-5631
▁Grisha	-5632
▁burned	-5633
▁convin	-5634
▁coward	-5635
▁depart	-5636
▁farmer	-5637
▁fortun	-5638
▁golden	-5639
▁native	-5640
▁riding	-5641
▁stamps	-5642
▁useful	-5643
▁Babylon	-5644
▁Lurlene	-5645
▁Neither	-5646
▁Sheriff	-5647
▁Stephen	-5648
▁ancient	-5649
▁becomes	-5650
▁created	-5651
▁develop	-5652
▁dreamed	-5653
▁eternal	-5654
▁lessons	-5655
▁refused	-5656
▁sailing	-5657
▁selling	-5658
▁Haggerty	-5659
▁officers	-5660
▁struggle	-5661
▁insurance	-5662
▁wondering	-5663
0,	-5664
At	-5665
EP	-5666
On	-5667
ba	-5668
bl	-5669
jo	-5670
Can	-5671
May	-5672
One	-5673
bro	-5674
chn	-5675
eds	-5676
hod	-5677
oot	-5678
pet	-5679
rag	-5680
sky	-5681
ted	-5682
ulf	-5683
▁Ol	-5684
▁UP	-5685
▁Wr	-5686
acht	-5687
aine	-5688
card	-5689
emon	-5690
eson	-5691
gypt	-5692
hoda	-5693
host	-5694
ials	-5695
ique	-5696
onya	-5697
owed	-5698
ques	-5699
rous	-5700
utch	-5701
▁Cat	-5702
▁Des	-5703
▁HIS	-5704
▁Nik	-5705
▁Ron	-5706
▁Son	-5707
▁Win	-5708
▁bod	-5709
▁jud	-5710
▁ric	-5711
▁sap	-5712
▁scr	-5713
▁vic	-5714
0,000	-5715
iring	-5716
iture	-5717
ouill	-5718
▁Amen	-5719
▁Calm	-5720
▁Coun	-5721
▁Kiss	-5722
▁News	-5723
▁Nora	-5724
▁Ross	-5725
▁brat	-5726
▁guar	-5727
▁pals	-5728
▁rude	-5729
▁slap	-5730
▁thin	-5731
▁tort	-5732
atives	-5733
▁ABOUT	-5734
▁Egypt	-5735
▁Evans	-5736
▁Jones	-5737
▁Kitty	-5738
▁aside	-5739
▁built	-5740
▁plain	-5741
▁pound	-5742
▁punch	-5743
▁songs	-5744
▁steel	-5745
▁straw	-5746
▁stuck	-5747
▁tempt	-5748
▁Alfred	-5749
▁Mabuse	-5750
▁Number	-5751
▁Sweden	-5752
▁Unless	-5753
▁absurd	-5754
▁bucket	-5755
▁create	-5756
▁flying	-5757
▁manner	-5758
▁merely	-5759
▁orange	-5760
▁rascal	-5761
▁saving	-5762
▁season	-5763
▁square	-5764
▁struck	-5765
▁sucker	-5766
▁sympat	-5767
▁100,000	-5768
▁Cheetah	-5769
▁Hickory	-5770
▁accompl	-5771
▁bargain	-5772
▁bottles	-5773
▁chances	-5774
▁curious	-5775
▁fishing	-5776
▁license	-5777
▁forgiven	-5778
▁gracious	-5779
▁stronger	-5780
▁troubles	-5781
▁Catherine	-5782
▁Meanwhile	-5783
▁influence	-5784
▁moonlight	-5785
▁otherwise	-5786
▁relations	-5787
▁considered	-5788
▁misfortune	-5789
▁intelligent	-5790
5,	-5791
eg	-5792
ex	-5793
HER	-5794
arp	-5795
emm	-5796
iva	-5797
kel	-5798
rik	-5799
sit	-5800
ube	-5801
yle	-5802
yps	-5803
▁Ay	-5804
▁Co	-5805
▁Fe	-5806
▁Gi	-5807
Just	-5808
gged	-5809
imon	-5810
rank	-5811
▁App	-5812
▁Din	-5813
▁SHE	-5814
▁Sub	-5815
▁ach	-5816
▁cav	-5817
▁fem	-5818
▁fre	-5819
▁gee	-5820
▁ham	-5821
ashed	-5822
cious	-5823
itles	-5824
ously	-5825
umont	-5826
▁Chan	-5827
▁Gosh	-5828
▁Gunn	-5829
▁Meet	-5830
▁Mond	-5831
▁Oper	-5832
▁Sold	-5833
▁Tedo	-5834
▁corn	-5835
▁cuck	-5836
▁fuss	-5837
▁meas	-5838
▁pill	-5839
▁rabb	-5840
▁summ	-5841
▁unex	-5842
ission	-5843
▁Night	-5844
▁Rains	-5845
▁Rhoda	-5846
▁Seven	-5847
▁WHERE	-5848
▁autom	-5849
▁brand	-5850
▁cloud	-5851
▁hurts	-5852
▁olive	-5853
▁parts	-5854
▁plate	-5855
▁purse	-5856
▁space	-5857
▁spite	-5858
▁swing	-5859
▁terms	-5860
▁theat	-5861
arently	-5862
ception	-5863
redible	-5864
▁10,000	-5865
▁Africa	-5866
▁Amelia	-5867
▁Havana	-5868
▁Mister	-5869
▁Peters	-5870
▁Vivian	-5871
▁career	-5872
▁collar	-5873
▁faster	-5874
▁hoping	-5875
▁instit	-5876
▁jungle	-5877
▁placed	-5878
▁remark	-5879
▁throat	-5880
▁Chicago	-5881
▁Crawley	-5882
▁Italian	-5883
▁Spanish	-5884
▁Washing	-5885
▁attempt	-5886
▁dismiss	-5887
▁express	-5888
▁liberty	-5889
▁madness	-5890
▁mission	-5891
▁mothers	-5892
▁opening	-5893
▁prepare	-5894
▁rehears	-5895
▁reminds	-5896
▁returns	-5897
▁wasting	-5898
▁Beaumont	-5899
▁Ledrantz	-5900
▁Minister	-5901
▁becoming	-5902
▁delicate	-5903
▁distance	-5904
▁experien	-5905
▁familiar	-5906
▁farewell	-5907
▁realized	-5908
▁stopping	-5909
▁Rainsford	-5910
▁Secretary	-5911
▁Wonderful	-5912
▁brilliant	-5913
▁congratul	-5914
▁convinced	-5915
▁policeman	-5916
▁Absolutely	-5917
▁confidence	-5918
▁impression	-5919
▁scientific	-5920
▁coincidence	-5921
▁experiments	-5922
▁misunderstand	-5923
UL	-5924
PEN	-5925
ada	-5926
edd	-5927
fle	-5928
gin	-5929
iev	-5930
mar	-5931
onc	-5932
ora	-5933
▁AL	-5934
▁PL	-5935
▁iv	-5936
altz	-5937
anut	-5938
aren	-5939
ghed	-5940
holm	-5941
igan	-5942
keep	-5943
kind	-5944
pson	-5945
yard	-5946
▁Fla	-5947
▁POL	-5948
▁Rue	-5949
▁Use	-5950
▁ape	-5951
▁rap	-5952
▁unf	-5953
eless	-5954
emyon	-5955
etime	-5956
iette	-5957
isely	-5958
unior	-5959
urity	-5960
▁Bald	-5961
▁Cost	-5962
▁Hail	-5963
▁Hank	-5964
▁Mine	-5965
▁Mori	-5966
▁Wind	-5967
▁Work	-5968
▁bust	-5969
▁hook	-5970
▁hous	-5971
▁intr	-5972
▁lads	-5973
▁mass	-5974
▁pros	-5975
▁pure	-5976
▁redu	-5977
▁sack	-5978
▁tied	-5979
itable	-5980
udence	-5981
utiful	-5982
▁Alone	-5983
▁Andre	-5984
▁Clint	-5985
▁Close	-5986
▁Found	-5987
▁Garth	-5988
▁Mabel	-5989
▁THINK	-5990
▁argue	-5991
▁cases	-5992
▁costs	-5993
▁daily	-5994
▁distr	-5995
▁drugs	-5996
▁estab	-5997
▁ghost	-5998
▁glory	-5999
▁minds	-6000
▁ocean	-6001
▁prize	-6002
▁shell	-6003
▁suits	-6004
▁waltz	-6005
aughing	-6006
istence	-6007
onesome	-6008
stantin	-6009
▁Ceddie	-6010
▁Ernest	-6011
▁Philip	-6012
▁Semyon	-6013
▁advert	-6014
▁awaits	-6015
▁behalf	-6016
▁bitter	-6017
▁depend	-6018
▁forces	-6019
▁fourth	-6020
▁kicked	-6021
▁kindly	-6022
▁portra	-6023
▁potato	-6024
▁recall	-6025
▁voyage	-6026
▁Durdles	-6027
▁Finally	-6028
▁Hawkins	-6029
▁Kenichi	-6030
▁Mathild	-6031
▁Quickly	-6032
▁Wooster	-6033
▁anxious	-6034
▁article	-6035
▁figures	-6036
▁traitor	-6037
▁useless	-6038
▁audience	-6039
▁distingu	-6040
▁meantime	-6041
▁medicine	-6042
▁occasion	-6043
▁sensible	-6044
▁stations	-6045
▁suitcase	-6046
▁chauffeur	-6047
▁elephants	-6048
▁furniture	-6049
▁someplace	-6050
▁particularly	-6051
do	-6052
END	-6053
ams	-6054
bby	-6055
bed	-6056
cow	-6057
iat	-6058
ids	-6059
nel	-6060
oir	-6061
pes	-6062
tes	-6063
urt	-6064
utt	-6065
wor	-6066
▁AG	-6067
▁FP	-6068
▁Mo	-6069
Have	-6070
adys	-6071
gedy	-6072
hael	-6073
ores	-6074
rels	-6075
that	-6076
vell	-6077
▁300	-6078
▁Dep	-6079
▁Ele	-6080
▁Fle	-6081
▁HOW	-6082
▁Haz	-6083
▁Jer	-6084
▁ONE	-6085
▁Pot	-6086
▁ans	-6087
▁cro	-6088
▁cru	-6089
▁gag	-6090
▁pit	-6091
Britt	-6092
about	-6093
agine	-6094
iforn	-6095
miral	-6096
olphe	-6097
stone	-6098
woman	-6099
▁Asta	-6100
▁Cons	-6101
▁Corb	-6102
▁Flag	-6103
▁Fool	-6104
▁Nasa	-6105
▁Pete	-6106
▁THAN	-6107
▁Yard	-6108
▁dump	-6109
▁fake	-6110
▁fant	-6111
▁laid	-6112
▁list	-6113
▁meat	-6114
▁runs	-6115
▁stat	-6116
▁ugly	-6117
▁vers	-6118
ounced	-6119
▁Anita	-6120
▁Bless	-6121
▁Bliss	-6122
▁Brown	-6123
▁Colet	-6124
▁Gabri	-6125
▁Hands	-6126
▁Innes	-6127
▁Might	-6128
▁Spain	-6129
▁alarm	-6130
▁bones	-6131
▁charm	-6132
▁habit	-6133
▁hoped	-6134
▁image	-6135
▁langu	-6136
▁naked	-6137
▁queen	-6138
▁shake	-6139
▁ships	-6140
▁split	-6141
▁stiff	-6142
▁wheat	-6143
▁woods	-6144
atitude	-6145
ifornia	-6146
▁Flaemm	-6147
▁Hammer	-6148
▁Seward	-6149
▁Walton	-6150
▁dancer	-6151
▁design	-6152
▁fascin	-6153
▁mirror	-6154
▁reform	-6155
▁resist	-6156
▁signal	-6157
▁stairs	-6158
▁tricks	-6159
▁warned	-6160
▁winter	-6161
kerchief	-6162
▁Anybody	-6163
▁Firefly	-6164
▁Victory	-6165
▁college	-6166
▁details	-6167
▁devoted	-6168
▁fooling	-6169
▁letting	-6170
▁pockets	-6171
▁staring	-6172
▁thieves	-6173
▁watched	-6174
▁windows	-6175
▁Business	-6176
▁Cocoanut	-6177
▁Splendid	-6178
▁argument	-6179
▁gathered	-6180
▁instance	-6181
▁lifetime	-6182
▁ordinary	-6183
▁progress	-6184
▁punished	-6185
▁students	-6186
▁Yesterday	-6187
▁advantage	-6188
▁recommend	-6189
▁suspicious	-6190
▁Mademoiselle	-6191
An	-6192
OP	-6193
Of	-6194
ipt	-6195
she	-6196
▁21	-6197
▁Cé	-6198
▁Ki	-6199
▁Sn	-6200
▁ah	-6201
▁ju	-6202
anni	-6203
ball	-6204
down	-6205
east	-6206
hall	-6207
illa	-6208
itsu	-6209
ival	-6210
line	-6211
llen	-6212
mind	-6213
rate	-6214
▁Alb	-6215
▁Ann	-6216
▁Bon	-6217
▁Cig	-6218
▁Lay	-6219
▁Mut	-6220
▁Ped	-6221
▁Pun	-6222
▁Rou	-6223
▁WOR	-6224
▁boo	-6225
▁fro	-6226
▁jam	-6227
▁lab	-6228
ITTLE	-6229
anity	-6230
imono	-6231
ralia	-6232
ussel	-6233
▁Cent	-6234
▁Fall	-6235
▁Flor	-6236
▁LOOK	-6237
▁Much	-6238
▁Pres	-6239
▁Schu	-6240
▁THEM	-6241
▁cage	-6242
▁crit	-6243
▁ends	-6244
▁horn	-6245
▁nest	-6246
▁pays	-6247
▁rats	-6248
▁repl	-6249
▁tall	-6250
▁trad	-6251
▁wand	-6252
▁whip	-6253
aurant	-6254
▁Charl	-6255
▁Drina	-6256
▁Fritz	-6257
▁Hazel	-6258
▁Joyce	-6259
▁Karen	-6260
▁Luisa	-6261
▁Marry	-6262
▁Start	-6263
▁actor	-6264
▁bunch	-6265
▁cream	-6266
▁infor	-6267
▁issue	-6268
▁ivory	-6269
▁nasty	-6270
▁obser	-6271
▁ranch	-6272
▁royal	-6273
▁techn	-6274
▁villa	-6275
▁widow	-6276
arpment	-6277
itement	-6278
ulation	-6279
▁20,000	-6280
▁Barker	-6281
▁Gladys	-6282
▁LITTLE	-6283
▁Moreno	-6284
▁Powers	-6285
▁Venice	-6286
▁Warren	-6287
▁admire	-6288
▁damned	-6289
▁effort	-6290
▁genius	-6291
▁kimono	-6292
▁latest	-6293
▁losing	-6294
▁lovers	-6295
▁method	-6296
▁rights	-6297
▁slowly	-6298
bassador	-6299
hibition	-6300
ouilloux	-6301
▁amusing	-6302
▁drawing	-6303
▁enjoyed	-6304
▁growing	-6305
▁members	-6306
▁parties	-6307
▁passion	-6308
▁perform	-6309
▁prevent	-6310
▁quietly	-6311
▁raining	-6312
▁remains	-6313
▁romance	-6314
▁secrets	-6315
▁verdict	-6316
▁Ellissen	-6317
▁Landless	-6318
▁articles	-6319
▁husbands	-6320
▁lonesome	-6321
▁solution	-6322
▁wondered	-6323
▁Katherine	-6324
▁celebrate	-6325
▁desperate	-6326
▁disturbed	-6327
▁extremely	-6328
▁traveling	-6329
▁Chouilloux	-6330
▁Washington	-6331
▁afterwards	-6332
▁delightful	-6333
▁invitation	-6334
▁laboratory	-6335
▁unexpected	-6336
▁imagination	-6337
▁respectable	-6338
FE	-6339
sk	-6340
uk	-6341
Hey	-6342
ONE	-6343
VEN	-6344
hoe	-6345
ida	-6346
omy	-6347
▁AF	-6348
▁Fé	-6349
▁Kn	-6350
▁OR	-6351
Look	-6352
Will	-6353
anks	-6354
anov	-6355
butt	-6356
ersa	-6357
esca	-6358
iley	-6359
jour	-6360
kaya	-6361
lyos	-6362
pare	-6363
▁Det	-6364
▁Dun	-6365
▁Est	-6366
▁Gar	-6367
▁Hof	-6368
▁Max	-6369
▁WHO	-6370
▁amb	-6371
▁lun	-6372
▁que	-6373
▁sam	-6374
▁wag	-6375
ences	-6376
isher	-6377
istic	-6378
uriel	-6379
▁BACK	-6380
▁Bank	-6381
▁Been	-6382
▁DOWN	-6383
▁Each	-6384
▁Nine	-6385
▁Rene	-6386
▁THEY	-6387
▁Tran	-6388
▁adop	-6389
▁area	-6390
▁cere	-6391
▁chee	-6392
▁comb	-6393
▁dirt	-6394
▁dull	-6395
▁libr	-6396
▁onto	-6397
▁pale	-6398
▁plat	-6399
▁publ	-6400
▁rise	-6401
▁shoe	-6402
▁skin	-6403
▁spec	-6404
▁virt	-6405
friend	-6406
ilbutt	-6407
▁Alyos	-6408
▁Berit	-6409
▁Cesca	-6410
▁César	-6411
▁Extra	-6412
▁Freed	-6413
▁Music	-6414
▁Pedro	-6415
▁Riano	-6416
▁Sarge	-6417
▁Versa	-6418
▁Yours	-6419
▁brace	-6420
▁coast	-6421
▁comin	-6422
▁crown	-6423
▁heads	-6424
▁refer	-6425
▁rules	-6426
▁sales	-6427
▁tooth	-6428
▁Dancer	-6429
▁Gordon	-6430
▁Moreau	-6431
▁Moscow	-6432
▁Muriel	-6433
▁POLICE	-6434
▁Second	-6435
▁horror	-6436
▁jumped	-6437
▁pulled	-6438
▁urgent	-6439
▁wicked	-6440
▁worker	-6441
mistress	-6442
▁Corbett	-6443
▁Higgins	-6444
▁achieve	-6445
▁arrives	-6446
▁changes	-6447
▁convers	-6448
▁exagger	-6449
▁however	-6450
▁moments	-6451
▁seconds	-6452
▁section	-6453
▁selfish	-6454
▁tragedy	-6455
▁whiskey	-6456
▁whoever	-6457
▁behavior	-6458
▁exercise	-6459
▁machines	-6460
▁material	-6461
▁movement	-6462
▁planning	-6463
▁Beautiful	-6464
▁Freedonia	-6465
▁Obviously	-6466
▁apologies	-6467
▁architect	-6468
▁blackmail	-6469
▁direction	-6470
▁forbidden	-6471
▁slightest	-6472
▁Versailles	-6473
▁friendship	-6474
▁importance	-6475
▁grandmother	-6476
▁practically	-6477
▁Headmistress	-6478
▁congratulate	-6479
▁disappointed	-6480
▁handkerchief	-6481
AB	-6482
EL	-6483
IE	-6484
RA	-6485
ez	-6486
gn	-6487
uo	-6488
zo	-6489
IRE	-6490
adu	-6491
aki	-6492
bac	-6493
boy	-6494
gic	-6495
ona	-6496
rib	-6497
sen	-6498
uce	-6499
uls	-6500
umn	-6501
ups	-6502
▁Hm	-6503
▁Id	-6504
▁MO	-6505
▁Ot	-6506
▁lt	-6507
ALLY	-6508
OULD	-6509
Sure	-6510
addy	-6511
amas	-6512
bast	-6513
bled	-6514
elli	-6515
fish	-6516
five	-6517
heim	-6518
ican	-6519
iron	-6520
ivid	-6521
izzy	-6522
mare	-6523
onte	-6524
oshi	-6525
othy	-6526
play	-6527
rich	-6528
umqu	-6529
▁10.	-6530
▁Cla	-6531
▁Jen	-6532
▁Pri	-6533
▁gob	-6534
▁mud	-6535
▁rag	-6536
▁tap	-6537
Cause	-6538
abbed	-6539
cross	-6540
ellie	-6541
gging	-6542
incip	-6543
owing	-6544
usive	-6545
▁Lota	-6546
▁Lots	-6547
▁Serv	-6548
▁cure	-6549
▁exha	-6550
▁mile	-6551
▁mort	-6552
▁papa	-6553
▁phon	-6554
▁rate	-6555
▁rout	-6556
▁soda	-6557
Thanks	-6558
arlett	-6559
ivered	-6560
ovanni	-6561
ubborn	-6562
▁Allan	-6563
▁Break	-6564
▁GOING	-6565
▁Saidi	-6566
▁aware	-6567
▁bonds	-6568
▁brute	-6569
▁concl	-6570
▁falls	-6571
▁grass	-6572
▁guide	-6573
▁hopes	-6574
▁inher	-6575
▁local	-6576
▁occur	-6577
▁photo	-6578
▁roses	-6579
▁screw	-6580
▁squad	-6581
▁turns	-6582
hearted	-6583
istrict	-6584
meralda	-6585
ography	-6586
umquats	-6587
▁Fellow	-6588
▁Leeson	-6589
▁Manche	-6590
▁Sebast	-6591
▁Turner	-6592
▁begins	-6593
▁bodies	-6594
▁border	-6595
▁driven	-6596
▁guards	-6597
▁liquor	-6598
▁missus	-6599
▁powder	-6600
▁resign	-6601
▁rising	-6602
▁salary	-6603
pleasant	-6604
▁Antonio	-6605
▁Camonte	-6606
▁Charlie	-6607
▁Emperor	-6608
▁Evening	-6609
▁Georgia	-6610
▁Germans	-6611
▁Officer	-6612
▁abandon	-6613
▁convict	-6614
▁defense	-6615
▁dresses	-6616
▁happier	-6617
▁helping	-6618
▁holiday	-6619
▁journal	-6620
▁laughed	-6621
▁leaders	-6622
▁results	-6623
▁smoking	-6624
▁Farewell	-6625
▁Lordship	-6626
▁Scarlett	-6627
▁Schubert	-6628
▁faithful	-6629
▁partners	-6630
▁peaceful	-6631
▁practice	-6632
▁sacrific	-6633
▁searched	-6634
▁Australia	-6635
▁Brandmore	-6636
▁Gabrielle	-6637
▁documents	-6638
▁existence	-6639
▁interests	-6640
▁California	-6641
▁Manchester	-6642
▁connection	-6643
▁excitement	-6644
▁restaurant	-6645
▁surrounded	-6646
▁competition	-6647
▁proposition	-6648
▁distinguished	-6649
▁unfortunately	-6650
-1	-6651
.!	-6652
GE	-6653
Mr	-6654
Sh	-6655
US	-6656
ei	-6657
cel	-6658
ico	-6659
iro	-6660
izz	-6661
ket	-6662
lev	-6663
org	-6664
ulu	-6665
▁BY	-6666
▁wa	-6667
Caul	-6668
anco	-6669
hant	-6670
holz	-6671
icks	-6672
ilar	-6673
itle	-6674
lace	-6675
lein	-6676
mond	-6677
rors	-6678
sequ	-6679
view	-6680
voir	-6681
▁Bou	-6682
▁Fir	-6683
▁Gil	-6684
▁Mel	-6685
▁ROB	-6686
▁Set	-6687
▁WHY	-6688
▁Whe	-6689
▁aim	-6690
▁bot	-6691
▁ded	-6692
▁imm	-6693
▁sna	-6694
ERACE	-6695
THING	-6696
chest	-6697
craft	-6698
eable	-6699
herry	-6700
izing	-6701
▁Anne	-6702
▁Beat	-6703
▁Brun	-6704
▁Fore	-6705
▁Hear	-6706
▁JUST	-6707
▁Merc	-6708
▁Wall	-6709
▁barn	-6710
▁bicy	-6711
▁cann	-6712
▁cult	-6713
▁dine	-6714
▁dope	-6715
▁elev	-6716
▁fred	-6717
▁grab	-6718
▁heir	-6719
▁junk	-6720
▁poem	-6721
▁rule	-6722
▁seek	-6723
▁thor	-6724
▁toss	-6725
Caulay	-6726
azette	-6727
colate	-6728
mitted	-6729
perial	-6730
ursday	-6731
▁Hardy	-6732
▁Johan	-6733
▁Order	-6734
▁Seems	-6735
▁Woman	-6736
▁agent	-6737
▁bloss	-6738
▁dames	-6739
▁event	-6740
▁feast	-6741
▁fence	-6742
▁flies	-6743
▁relax	-6744
▁sails	-6745
▁sends	-6746
▁steak	-6747
▁steps	-6748
▁stove	-6749
▁sweep	-6750
▁tobac	-6751
▁yacht	-6752
▁Carlos	-6753
▁Dubois	-6754
▁Harker	-6755
▁Junior	-6756
▁Nellie	-6757
▁Waiter	-6758
▁abroad	-6759
▁agents	-6760
▁butter	-6761
▁collea	-6762
▁former	-6763
▁geisha	-6764
▁higher	-6765
▁mechan	-6766
▁nickel	-6767
▁period	-6768
▁profit	-6769
▁safari	-6770
▁showed	-6771
▁starve	-6772
▁supply	-6773
iversity	-6774
leinholz	-6775
ographer	-6776
▁Bridges	-6777
▁Commiss	-6778
▁Empress	-6779
▁Florida	-6780
▁Instead	-6781
▁Jacques	-6782
▁Marquis	-6783
▁Simpson	-6784
▁Through	-6785
▁Waiting	-6786
▁Whoever	-6787
▁actions	-6788
▁despair	-6789
▁falling	-6790
▁greater	-6791
▁illness	-6792
▁kissing	-6793
▁library	-6794
▁obliged	-6795
▁program	-6796
▁reality	-6797
▁superst	-6798
▁thunder	-6799
▁victims	-6800
▁wealthy	-6801
▁Although	-6802
▁District	-6803
▁Giovanni	-6804
▁Prudence	-6805
▁bathroom	-6806
▁betrayed	-6807
▁cheerful	-6808
▁convince	-6809
▁district	-6810
▁elephant	-6811
▁frighten	-6812
▁instinct	-6813
▁offended	-6814
▁powerful	-6815
▁security	-6816
▁stubborn	-6817
▁thorough	-6818
▁Grushenka	-6819
▁MacCaulay	-6820
▁Underwood	-6821
▁committee	-6822
▁neighbour	-6823
▁recognise	-6824
▁returning	-6825
▁strangers	-6826
▁suspicion	-6827
▁therefore	-6828
▁cigarettes	-6829
▁confession	-6830
▁exhibition	-6831
▁expression	-6832
▁remembered	-6833
▁unpleasant	-6834
EST	-6835
dam	-6836
eaf	-6837
edy	-6838
ero	-6839
esh	-6840
iry	-6841
ria	-6842
▁GR	-6843
▁UH	-6844
▁UN	-6845
▁pu	-6846
Dear	-6847
hazz	-6848
lers	-6849
mith	-6850
rial	-6851
what	-6852
wick	-6853
yrus	-6854
▁Bag	-6855
▁Ban	-6856
▁Bau	-6857
▁Hom	-6858
▁Lev	-6859
▁Ooh	-6860
▁Pay	-6861
▁Rio	-6862
▁Rob	-6863
▁SOM	-6864
▁SON	-6865
▁Tax	-6866
▁Var	-6867
▁Wee	-6868
▁gor	-6869
▁gym	-6870
▁pip	-6871
▁ple	-6872
▁suf	-6873
▁yen	-6874
ATION	-6875
acles	-6876
aming	-6877
grand	-6878
ledge	-6879
olves	-6880
parri	-6881
plete	-6882
ureau	-6883
usawa	-6884
▁Alas	-6885
▁Bast	-6886
▁Bedd	-6887
▁Burn	-6888
▁Dirk	-6889
▁Drop	-6890
▁GIVE	-6891
▁GOOD	-6892
▁Park	-6893
▁Pull	-6894
▁Side	-6895
▁Tues	-6896
▁argu	-6897
▁bits	-6898
▁blew	-6899
▁boot	-6900
▁dust	-6901
▁fold	-6902
▁fulf	-6903
▁goss	-6904
▁grew	-6905
▁lets	-6906
▁mour	-6907
▁phil	-6908
▁sale	-6909
▁sour	-6910
▁tune	-6911
▁worn	-6912
▁yard	-6913
ashing	-6914
ential	-6915
ession	-6916
hazzar	-6917
velope	-6918
▁Ayako	-6919
▁Berry	-6920
▁COULD	-6921
▁Cross	-6922
▁Cyrus	-6923
▁Drood	-6924
▁Roelf	-6925
▁Stick	-6926
▁Stiva	-6927
▁Youth	-6928
▁avail	-6929
▁based	-6930
▁buddy	-6931
▁exist	-6932
▁flesh	-6933
▁intol	-6934
▁mayor	-6935
▁motor	-6936
▁roast	-6937
▁spark	-6938
▁toler	-6939
▁trace	-6940
▁tries	-6941
ication	-6942
▁Andrew	-6943
▁Commun	-6944
▁Firmin	-6945
▁Frieda	-6946
▁Lovely	-6947
▁Marian	-6948
▁Signor	-6949
▁Though	-6950
▁accuse	-6951
▁cellar	-6952
▁dishon	-6953
▁dispos	-6954
▁expert	-6955
▁gather	-6956
▁heroes	-6957
▁powers	-6958
▁squeal	-6959
▁waiter	-6960
assparri	-6961
▁Alyosha	-6962
▁Imagine	-6963
▁Tuesday	-6964
▁capable	-6965
▁conduct	-6966
▁destiny	-6967
▁diamond	-6968
▁drunken	-6969
▁entered	-6970
▁follows	-6971
▁hurting	-6972
▁impress	-6973
▁individ	-6974
▁managed	-6975
▁release	-6976
▁suicide	-6977
▁younger	-6978
▁Directed	-6979
▁Thursday	-6980
▁attorney	-6981
▁citizens	-6982
▁constant	-6983
▁counting	-6984
▁document	-6985
▁electric	-6986
▁exciting	-6987
▁gambling	-6988
▁offering	-6989
▁passport	-6990
▁According	-6991
▁affection	-6992
▁boyfriend	-6993
▁creatures	-6994
▁delivered	-6995
▁scientist	-6996
▁sentiment	-6997
▁signature	-6998
▁CHARMERACE	-6999
▁Marseilles	-7000
▁attractive	-7001
▁incredible	-7002
▁possession	-7003
▁production	-7004
▁protection	-7005
▁remarkable	-7006
▁acquaintance	-7007
▁instructions	-7008
▁intelligence	-7009
▁mademoiselle	-7010
▁congratulations	-7011
:1	-7012
Al	-7013
aa	-7014
va	-7015
ys	-7016
:30	-7017
WAY	-7018
bow	-7019
olo	-7020
ped	-7021
▁Hy	-7022
▁Um	-7023
▁Vi	-7024
▁ce	-7025
▁fi	-7026
▁ru	-7027
:00,	-7028
bing	-7029
cast	-7030
emet	-7031
fall	-7032
gage	-7033
ints	-7034
iots	-7035
orus	-7036
osis	-7037
oust	-7038
rees	-7039
rows	-7040
shal	-7041
ypsy	-7042
▁Esc	-7043
▁Fed	-7044
▁Its	-7045
▁Las	-7046
▁Lee	-7047
▁Mau	-7048
▁Met	-7049
▁Mmm	-7050
▁Mug	-7051
▁Sur	-7052
▁aye	-7053
▁bon	-7054
▁caf	-7055
▁env	-7056
▁fif	-7057
▁gay	-7058
▁gir	-7059
▁ren	-7060
▁sed	-7061
▁unl	-7062
AUGHT	-7063
aches	-7064
alill	-7065
alley	-7066
arson	-7067
cence	-7068
cohol	-7069
culus	-7070
eller	-7071
iable	-7072
inder	-7073
isham	-7074
▁Bels	-7075
▁Boze	-7076
▁EVER	-7077
▁Foll	-7078
▁Hand	-7079
▁Kirk	-7080
▁LIKE	-7081
▁Lead	-7082
▁Pick	-7083
▁Road	-7084
▁Sire	-7085
▁batt	-7086
▁beds	-7087
▁bore	-7088
▁cabb	-7089
▁cris	-7090
▁dock	-7091
▁ease	-7092
▁fund	-7093
▁hers	-7094
▁holy	-7095
▁silk	-7096
▁snap	-7097
▁stor	-7098
▁thus	-7099
▁tone	-7100
elling	-7101
ensive	-7102
esting	-7103
ington	-7104
uckles	-7105
ulting	-7106
▁Adolf	-7107
▁Bomba	-7108
▁Chang	-7109
▁Dutch	-7110
▁Fifty	-7111
▁Front	-7112
▁Honey	-7113
▁Light	-7114
▁Manor	-7115
▁Masha	-7116
▁North	-7117
▁Shoot	-7118
▁Spani	-7119
▁Third	-7120
▁admir	-7121
▁adore	-7122
▁appet	-7123
▁begun	-7124
▁bills	-7125
▁blank	-7126
▁cried	-7127
▁delay	-7128
▁drove	-7129
▁exact	-7130
▁forth	-7131
▁glove	-7132
▁kinds	-7133
▁moral	-7134
▁north	-7135
▁plays	-7136
▁shave	-7137
▁sober	-7138
▁speed	-7139
▁stall	-7140
▁vicar	-7141
idently	-7142
incourt	-7143
▁50,000	-7144
▁Francs	-7145
▁Heming	-7146
▁Hurdes	-7147
▁Trying	-7148
▁caviar	-7149
▁center	-7150
▁cheese	-7151
▁devils	-7152
▁encour	-7153
▁finest	-7154
▁gobble	-7155
▁gossip	-7156
▁houses	-7157
▁mental	-7158
▁metres	-7159
▁misery	-7160
▁phoned	-7161
▁preser	-7162
▁weapon	-7163
▁weight	-7164
▁Admiral	-7165
▁Beddini	-7166
▁Cigaret	-7167
▁Dorothy	-7168
▁Georges	-7169
▁Leaving	-7170
▁Masters	-7171
▁auction	-7172
▁charity	-7173
▁contact	-7174
▁cuckold	-7175
▁current	-7176
▁feather	-7177
▁fiancée	-7178
▁fulfill	-7179
▁gallant	-7180
▁healthy	-7181
▁improve	-7182
▁inspect	-7183
▁natives	-7184
▁orchest	-7185
▁packing	-7186
▁privile	-7187
▁project	-7188
▁refuses	-7189
▁regards	-7190
▁silence	-7191
▁slipped	-7192
▁whistle	-7193
▁worries	-7194
▁Barberin	-7195
▁Furusawa	-7196
▁Havisham	-7197
▁Kirkwood	-7198
▁appeared	-7199
▁attitude	-7200
▁deserves	-7201
▁diamonds	-7202
▁discover	-7203
▁division	-7204
▁envelope	-7205
▁honestly	-7206
▁potatoes	-7207
▁properly	-7208
▁romantic	-7209
▁suffered	-7210
▁Christina	-7211
▁Lassparri	-7212
▁bothering	-7213
▁guarantee	-7214
▁intention	-7215
▁operation	-7216
▁suitcases	-7217
▁Belshazzar	-7218
▁commission	-7219
▁conditions	-7220
▁successful	-7221
▁celebration	-7222
).	-7223
EA	-7224
mo	-7225
pa	-7226
po	-7227
éd	-7228
INE	-7229
ara	-7230
bus	-7231
car	-7232
dad	-7233
lix	-7234
moc	-7235
oto	-7236
sey	-7237
▁37	-7238
▁DR	-7239
▁Hu	-7240
▁Ms	-7241
▁Ze	-7242
▁ls	-7243
▁ow	-7244
▁ox	-7245
Tell	-7246
cipl	-7247
eake	-7248
hern	-7249
ilac	-7250
mbre	-7251
otte	-7252
quer	-7253
quet	-7254
rado	-7255
rive	-7256
thur	-7257
uous	-7258
wers	-7259
work	-7260
édée	-7261
▁150	-7262
▁Boe	-7263
▁Ded	-7264
▁Jur	-7265
▁Kan	-7266
▁LET	-7267
▁Pav	-7268
▁Pen	-7269
▁Yul	-7270
▁bew	-7271
▁cin	-7272
▁eld	-7273
▁mut	-7274
▁rot	-7275
anyon	-7276
atson	-7277
class	-7278
earer	-7279
gency	-7280
hetic	-7281
ially	-7282
inals	-7283
inate	-7284
irgin	-7285
itzer	-7286
mance	-7287
ology	-7288
ooble	-7289
oured	-7290
plain	-7291
urtin	-7292
useum	-7293
▁Alan	-7294
▁Dale	-7295
▁East	-7296
▁Face	-7297
▁Film	-7298
▁Fitz	-7299
▁Lulu	-7300
▁Marg	-7301
▁Pitt	-7302
▁Prin	-7303
▁Sant	-7304
▁Stud	-7305
▁Tima	-7306
▁VERY	-7307
▁bold	-7308
▁cert	-7309
▁craw	-7310
▁deaf	-7311
▁east	-7312
▁emer	-7313
▁envy	-7314
▁gain	-7315
▁huge	-7316
▁knee	-7317
▁oath	-7318
▁pige	-7319
▁pink	-7320
▁prin	-7321
▁spin	-7322
▁syst	-7323
▁tent	-7324
▁terr	-7325
▁tomb	-7326
▁tons	-7327
▁wore	-7328
culiar	-7329
inelli	-7330
ionary	-7331
itsuko	-7332
orters	-7333
▁Attab	-7334
▁Bates	-7335
▁Dolly	-7336
▁Friis	-7337
▁Félix	-7338
▁Homun	-7339
▁Janet	-7340
▁Lucky	-7341
▁Monac	-7342
▁Produ	-7343
▁Romeo	-7344
▁Short	-7345
▁Vasya	-7346
▁Vital	-7347
▁WOULD	-7348
▁alike	-7349
▁chain	-7350
▁cured	-7351
▁drank	-7352
▁girlf	-7353
▁helps	-7354
▁incre	-7355
▁niece	-7356
▁poker	-7357
▁seats	-7358
▁solve	-7359
▁stays	-7360
▁suppl	-7361
▁thumb	-7362
▁tramp	-7363
▁trump	-7364
▁umbre	-7365
▁veget	-7366
emetery	-7367
inskaya	-7368
stitute	-7369
▁Golder	-7370
▁Gustav	-7371
▁Lanyon	-7372
▁Shemet	-7373
▁Watson	-7374
▁button	-7375
▁dollar	-7376
▁hanged	-7377
▁hunger	-7378
▁nicely	-7379
▁pirate	-7380
▁points	-7381
▁polite	-7382
▁reckon	-7383
▁reveal	-7384
▁switch	-7385
▁twelve	-7386
▁wallet	-7387
▁wished	-7388
aughters	-7389
▁Already	-7390
▁Balduin	-7391
▁Clarius	-7392
▁Command	-7393
▁Filibus	-7394
▁Heurtin	-7395
▁Pleased	-7396
▁Prepare	-7397
▁Thought	-7398
▁artists	-7399
▁bicycle	-7400
▁century	-7401
▁chamber	-7402
▁contain	-7403
▁crowded	-7404
▁deliber	-7405
▁highest	-7406
▁princip	-7407
▁reports	-7408
▁skipper	-7409
▁theatre	-7410
▁tobacco	-7411
▁tractor	-7412
▁turning	-7413
▁variety	-7414
struction	-7415
▁Heilbutt	-7416
▁Morhange	-7417
▁humanity	-7418
▁kindness	-7419
▁language	-7420
▁patients	-7421
▁peculiar	-7422
▁psychiat	-7423
▁quarters	-7424
▁separate	-7425
▁shoulder	-7426
▁visitors	-7427
▁Hemingway	-7428
▁Kleinholz	-7429
▁cocktails	-7430
▁factories	-7431
▁fantastic	-7432
▁innocence	-7433
▁inspector	-7434
▁nightmare	-7435
▁political	-7436
▁Dorincourt	-7437
▁Everywhere	-7438
▁Homunculus	-7439
▁Wellington	-7440
▁conference	-7441
▁fatherland	-7442
▁girlfriend	-7443
▁suggestion	-7444
▁performance	-7445
▁superstition	-7446
',	-7447
3.	-7448
9.	-7449
II	-7450
KS	-7451
Qu	-7452
cr	-7453
EAR	-7454
OSE	-7455
asp	-7456
ena	-7457
inu	-7458
mel	-7459
nat	-7460
oro	-7461
rab	-7462
vus	-7463
▁?"	-7464
▁Cr	-7465
▁Da	-7466
▁Kr	-7467
OUND	-7468
aign	-7469
akov	-7470
ales	-7471
elix	-7472
erez	-7473
gant	-7474
omol	-7475
pool	-7476
ssag	-7477
ummy	-7478
urat	-7479
ynam	-7480
▁Ach	-7481
▁Art	-7482
▁CON	-7483
▁HEL	-7484
▁HER	-7485
▁Jud	-7486
▁Laz	-7487
▁Naz	-7488
▁Rad	-7489
▁Rec	-7490
▁Rub	-7491
▁Tan	-7492
▁WON	-7493
▁bye	-7494
▁dee	-7495
▁gum	-7496
▁lip	-7497
▁mel	-7498
▁nut	-7499
▁pup	-7500
▁shy	-7501
▁unp	-7502
adays	-7503
ament	-7504
ators	-7505
elled	-7506
enced	-7507
esare	-7508
iches	-7509
inema	-7510
insky	-7511
maker	-7512
omers	-7513
opard	-7514
oster	-7515
ppers	-7516
rance	-7517
umble	-7518
uries	-7519
vania	-7520
▁BEEN	-7521
▁Club	-7522
▁Cora	-7523
▁Deau	-7524
▁Fort	-7525
▁Holt	-7526
▁Into	-7527
▁Jong	-7528
▁Kind	-7529
▁Mull	-7530
▁Roll	-7531
▁Sand	-7532
▁Shaw	-7533
▁Taxi	-7534
▁Them	-7535
▁Unno	-7536
▁Whom	-7537
▁acts	-7538
▁brig	-7539
▁clin	-7540
▁curi	-7541
▁defe	-7542
▁dign	-7543
▁fert	-7544
▁init	-7545
▁jobs	-7546
▁lamb	-7547
▁navy	-7548
▁puts	-7549
▁sche	-7550
▁tire	-7551
▁tour	-7552
▁tunn	-7553
▁vain	-7554
ection	-7555
ground	-7556
icient	-7557
itched	-7558
master	-7559
ovitch	-7560
▁Check	-7561
▁Costa	-7562
▁Drift	-7563
▁Edwin	-7564
▁Emile	-7565
▁Ferez	-7566
▁Guess	-7567
▁Heart	-7568
▁Ludow	-7569
▁Monic	-7570
▁Moroc	-7571
▁Roman	-7572
▁Teruo	-7573
▁World	-7574
▁amate	-7575
▁games	-7576
▁gover	-7577
▁hills	-7578
▁humor	-7579
▁ignor	-7580
▁monst	-7581
▁sweat	-7582
cluding	-7583
ilities	-7584
omsomol	-7585
ssagnes	-7586
▁Arthur	-7587
▁Bagdad	-7588
▁Chapay	-7589
▁Cooper	-7590
▁Cousin	-7591
▁Dinner	-7592
▁Engine	-7593
▁Faster	-7594
▁Friday	-7595
▁Potter	-7596
▁assume	-7597
▁belief	-7598
▁carpet	-7599
▁casino	-7600
▁compan	-7601
▁danced	-7602
▁earned	-7603
▁explan	-7604
▁flight	-7605
▁humble	-7606
▁hunter	-7607
▁intern	-7608
▁modest	-7609
▁patron	-7610
▁retire	-7611
▁revoir	-7612
▁seated	-7613
▁stream	-7614
▁system	-7615
▁theory	-7616
▁thirty	-7617
▁wretch	-7618
▁writer	-7619
▁Belinda	-7620
▁Corrado	-7621
▁Delight	-7622
▁Gilbert	-7623
▁Mercury	-7624
▁Mitsuko	-7625
▁absence	-7626
▁annoyed	-7627
▁arrival	-7628
▁chasing	-7629
▁declare	-7630
▁dischar	-7631
▁gallows	-7632
▁instant	-7633
▁jewelry	-7634
▁kingdom	-7635
▁monkeys	-7636
▁process	-7637
▁shadows	-7638
▁sincere	-7639
▁stabbed	-7640
▁visitor	-7641
▁Bernburg	-7642
▁Elsalill	-7643
▁Hardwick	-7644
▁Marianne	-7645
▁annoying	-7646
▁believes	-7647
▁bothered	-7648
▁campaign	-7649
▁customer	-7650
▁directly	-7651
▁educated	-7652
▁harmless	-7653
▁headache	-7654
▁hundreds	-7655
▁informed	-7656
▁necklace	-7657
▁patience	-7658
▁persuade	-7659
▁positive	-7660
▁provided	-7661
▁throwing	-7662
▁umbrella	-7663
▁Charlotte	-7664
▁Deauville	-7665
▁Esmeralda	-7666
▁President	-7667
▁authority	-7668
▁childhood	-7669
▁chocolate	-7670
▁establish	-7671
▁fortunate	-7672
▁invention	-7673
▁relatives	-7674
▁religious	-7675
▁screaming	-7676
▁suspected	-7677
▁Commission	-7678
▁excellency	-7679
▁individual	-7680
▁pretending	-7681
▁punishment	-7682
▁recognized	-7683
▁compliments	-7684
:4	-7685
Ar	-7686
EW	-7687
IF	-7688
VI	-7689
wa	-7690
AIL	-7691
Any	-7692
DER	-7693
Dun	-7694
ROW	-7695
See	-7696
ani	-7697
apt	-7698
arc	-7699
gor	-7700
hem	-7701
hev	-7702
hus	-7703
iel	-7704
ito	-7705
lli	-7706
oli	-7707
pir	-7708
ril	-7709
ulp	-7710
vet	-7711
war	-7712
▁AM	-7713
▁FO	-7714
▁Ou	-7715
▁Wa	-7716
▁ep	-7717
With	-7718
aded	-7719
aley	-7720
avel	-7721
bird	-7722
cest	-7723
eted	-7724
face	-7725
lady	-7726
leck	-7727
remy	-7728
sers	-7729
sson	-7730
ultz	-7731
▁Ana	-7732
▁Bul	-7733
▁Def	-7734
▁Dix	-7735
▁Fro	-7736
▁HAP	-7737
▁Low	-7738
▁MEN	-7739
▁MIN	-7740
▁Map	-7741
▁OFF	-7742
▁Rel	-7743
▁Sop	-7744
▁dow	-7745
▁inj	-7746
▁lit	-7747
▁lou	-7748
▁mam	-7749
▁sen	-7750
▁tab	-7751
▁uns	-7752
Marie	-7753
anoff	-7754
armed	-7755
asing	-7756
eding	-7757
inald	-7758
overy	-7759
razil	-7760
▁-...	-7761
▁Ange	-7762
▁Bert	-7763
▁Cook	-7764
▁Gone	-7765
▁Hamm	-7766
▁Horn	-7767
▁Isab	-7768
▁Jaul	-7769
▁Nani	-7770
▁Pack	-7771
▁Push	-7772
▁Quit	-7773
▁ROBB	-7774
▁Rock	-7775
▁Schm	-7776
▁Thus	-7777
▁True	-7778
▁bury	-7779
▁café	-7780
▁code	-7781
▁cott	-7782
▁dipl	-7783
▁fest	-7784
▁hast	-7785
▁hats	-7786
▁mock	-7787
▁numb	-7788
▁scen	-7789
▁shel	-7790
▁text	-7791
▁tiny	-7792
▁tiry	-7793
▁vent	-7794
▁wins	-7795
00,000	-7796
ifully	-7797
inated	-7798
keeper	-7799
titles	-7800
unning	-7801
▁Broad	-7802
▁Cheer	-7803
▁Girls	-7804
▁Haley	-7805
▁Hanna	-7806
▁Herod	-7807
▁India	-7808
▁Lower	-7809
▁Lucie	-7810
▁Orlov	-7811
▁SONIA	-7812
▁Sirki	-7813
▁adopt	-7814
▁arist	-7815
▁corps	-7816
▁cough	-7817
▁explo	-7818
▁fools	-7819
▁grief	-7820
▁groom	-7821
▁hesit	-7822
▁jokes	-7823
▁laund	-7824
▁legal	-7825
▁nurse	-7826
▁panic	-7827
▁reply	-7828
▁robot	-7829
▁scram	-7830
▁shots	-7831
▁stret	-7832
▁style	-7833
▁suite	-7834
▁swall	-7835
▁trail	-7836
▁wagon	-7837
iggurat	-7838
ressing	-7839
ruction	-7840
ynamite	-7841
▁Alexei	-7842
▁Amédée	-7843
▁Brazil	-7844
▁Bridge	-7845
▁Cheers	-7846
▁Contin	-7847
▁During	-7848
▁Indian	-7849
▁Jeremy	-7850
▁McClos	-7851
▁Morris	-7852
▁Person	-7853
▁Plenty	-7854
▁Polish	-7855
▁Reichs	-7856
▁astron	-7857
▁begged	-7858
▁camera	-7859
▁chorus	-7860
▁condem	-7861
▁consum	-7862
▁crisis	-7863
▁deeply	-7864
▁formal	-7865
▁garage	-7866
▁gladly	-7867
▁harder	-7868
▁idiots	-7869
▁lookin	-7870
▁marked	-7871
▁meters	-7872
▁pillow	-7873
▁remove	-7874
▁safety	-7875
▁secure	-7876
▁shares	-7877
▁spades	-7878
▁writes	-7879
▁Attaboy	-7880
▁Fleming	-7881
▁Section	-7882
▁Switzer	-7883
▁Westley	-7884
▁appears	-7885
▁consult	-7886
▁degrees	-7887
▁demands	-7888
▁emotion	-7889
▁examine	-7890
▁granted	-7891
▁heading	-7892
▁nearest	-7893
▁offense	-7894
▁passage	-7895
▁percent	-7896
▁picking	-7897
▁pulling	-7898
▁respond	-7899
▁similar	-7900
▁studied	-7901
▁washing	-7902
▁whisper	-7903
▁Actually	-7904
▁Baroness	-7905
▁Falkland	-7906
▁Imperial	-7907
▁cemetery	-7908
▁deserted	-7909
▁shopping	-7910
▁vacation	-7911
▁wretched	-7912
▁Cigarette	-7913
▁Driftwood	-7914
▁Monicourt	-7915
▁available	-7916
▁continued	-7917
▁daughters	-7918
▁dismissed	-7919
▁exception	-7920
▁gratitude	-7921
▁permitted	-7922
▁reception	-7923
▁stockings	-7924
▁Chassagnes	-7925
▁Christiane	-7926
▁Petersburg	-7927
▁Understood	-7928
▁apparently	-7929
▁appearance	-7930
▁disturbing	-7931
▁forgetting	-7932
▁photograph	-7933
▁sandwiches	-7934
▁threatened	-7935
▁throughout	-7936
▁Grusinskaya	-7937
▁Switzerland	-7938
▁embarrassed	-7939
▁conversation	-7940
▁investigation	-7941
▁understanding	-7942
Ex	-7943
IZ	-7944
NT	-7945
OS	-7946
UM	-7947
ATE	-7948
His	-7949
Say	-7950
afa	-7951
aud	-7952
azy	-7953
elp	-7954
jud	-7955
leg	-7956
low	-7957
mpe	-7958
och	-7959
ovo	-7960
uan	-7961
vis	-7962
▁3,	-7963
▁BR	-7964
▁QU	-7965
▁je	-7966
:30.	-7967
MART	-7968
NDER	-7969
imen	-7970
kers	-7971
kish	-7972
ooey	-7973
plex	-7974
ront	-7975
▁Bur	-7976
▁Dou	-7977
▁Fra	-7978
▁HAS	-7979
▁Hau	-7980
▁Ill	-7981
▁McD	-7982
▁Mex	-7983
▁Poo	-7984
▁Vol	-7985
▁Von	-7986
▁fox	-7987
▁ing	-7988
▁lux	-7989
▁pee	-7990
▁sex	-7991
▁tim	-7992
▁tin	-7993
Right	-7994
adise	-7995
alion	-7996
cardo	-7997
isson	-7998
istol	-7999
istry	-8000
mocha	-8001
oping	-8002
ottle	-8003
pense	-8004
rying	-8005
udrey	-8006
▁Baum	-8007
▁Coll	-8008
▁Dave	-8009
▁FIND	-8010
▁FROM	-8011
▁Hide	-8012
▁Kiri	-8013
▁Lenn	-8014
▁Lock	-8015
▁Need	-8016
▁Tore	-8017
▁Vill	-8018
▁Viol	-8019
▁WERE	-8020
▁appl	-8021
▁asyl	-8022
▁bike	-8023
▁bomb	-8024
▁bree	-8025
▁darn	-8026
▁embr	-8027
▁flee	-8028
▁gent	-8029
▁inqu	-8030
▁lean	-8031
▁lect	-8032
▁salt	-8033
▁sins	-8034
▁soil	-8035
▁stra	-8036
▁subt	-8037
▁toil	-8038
▁unto	-8039
▁woke	-8040
Duncan	-8041
aughty	-8042
autier	-8043
believ	-8044
ciples	-8045
estern	-8046
icious	-8047
ieleck	-8048
▁5,000	-8049
▁Billy	-8050
▁Cover	-8051
▁Duval	-8052
▁Ernie	-8053
▁Felix	-8054
▁Ferri	-8055
▁Mount	-8056
▁Phill	-8057
▁Stach	-8058
▁Stock	-8059
▁Swell	-8060
▁Tolly	-8061
▁alert	-8062
▁bache	-8063
▁boxes	-8064
▁burgl	-8065
▁cries	-8066
▁daddy	-8067
▁dared	-8068
▁drawn	-8069
▁enorm	-8070
▁flash	-8071
▁flood	-8072
▁hates	-8073
▁kidna	-8074
▁minor	-8075
▁novel	-8076
▁phony	-8077
▁ruins	-8078
▁scold	-8079
▁score	-8080
▁sheep	-8081
▁smack	-8082
▁souls	-8083
▁stink	-8084
▁tremb	-8085
▁trout	-8086
▁wheel	-8087
▁wings	-8088
achment	-8089
fashion	-8090
ificate	-8091
olution	-8092
▁Alexis	-8093
▁Bisson	-8094
▁Church	-8095
▁Graham	-8096
▁Intern	-8097
▁Omocha	-8098
▁Pervus	-8099
▁Poland	-8100
▁REALLY	-8101
▁Twelve	-8102
▁barely	-8103
▁basket	-8104
▁breaks	-8105
▁cinema	-8106
▁corpse	-8107
▁crimes	-8108
▁cursed	-8109
▁divine	-8110
▁escort	-8111
▁female	-8112
▁hypocr	-8113
▁joined	-8114
▁ladder	-8115
▁liable	-8116
▁milady	-8117
▁obtain	-8118
▁oldest	-8119
▁plague	-8120
▁savage	-8121
▁senses	-8122
▁smells	-8123
▁submar	-8124
▁talent	-8125
▁terror	-8126
▁tragic	-8127
▁wolves	-8128
▁Alberto	-8129
▁Antinea	-8130
▁Beussel	-8131
▁Friends	-8132
▁Georgie	-8133
▁Hornsby	-8134
▁Kanichi	-8135
▁Morocco	-8136
▁Vitalis	-8137
▁approve	-8138
▁baggage	-8139
▁chapter	-8140
▁closing	-8141
▁comprom	-8142
▁cutting	-8143
▁dearest	-8144
▁harvest	-8145
▁inherit	-8146
▁islands	-8147
▁measure	-8148
▁peasant	-8149
▁pushing	-8150
▁records	-8151
▁robbery	-8152
▁smiling	-8153
▁unlucky	-8154
▁winning	-8155
▁Atlantic	-8156
▁Claypool	-8157
▁Milligan	-8158
▁Riccardo	-8159
▁Spinelli	-8160
▁Straight	-8161
▁Telegram	-8162
▁although	-8163
▁bracelet	-8164
▁delivery	-8165
▁hopeless	-8166
▁intended	-8167
▁kumquats	-8168
▁landlord	-8169
▁marching	-8170
▁memories	-8171
▁minister	-8172
▁mistakes	-8173
▁national	-8174
▁operator	-8175
▁physical	-8176
▁portrait	-8177
▁released	-8178
▁sympathy	-8179
▁vampires	-8180
▁Josephson	-8181
▁McCloskey	-8182
▁explained	-8183
▁generally	-8184
▁honorable	-8185
▁household	-8186
▁privilege	-8187
▁searching	-8188
▁treatment	-8189
▁complaints	-8190
▁escarpment	-8191
▁pocketbook	-8192
▁authorities	-8193
▁certificate	-8194
▁compartment	-8195
▁institution	-8196
▁neighborhood	-8197
▁international	-8198
▁responsibility	-8199
8,	-8200
As	-8201
LF	-8202
TO	-8203
ai	-8204
ih	-8205
rd	-8206
▁)	-8207
ASE	-8208
Com	-8209
IME	-8210
Sit	-8211
URE	-8212
atu	-8213
gan	-8214
ica	-8215
icc	-8216
mie	-8217
oak	-8218
omn	-8219
orf	-8220
pps	-8221
rah	-8222
syl	-8223
tar	-8224
ths	-8225
two	-8226
wig	-8227
▁Ca	-8228
▁LA	-8229
▁SS	-8230
▁Ty	-8231
▁Us	-8232
▁nu	-8233
arin	-8234
call	-8235
gnac	-8236
icip	-8237
iles	-8238
ixir	-8239
izes	-8240
lden	-8241
mony	-8242
mosp	-8243
oise	-8244
onzo	-8245
oser	-8246
otto	-8247
pedo	-8248
pher	-8249
ppel	-8250
pple	-8251
riet	-8252
soci	-8253
viet	-8254
▁Ace	-8255
▁Bol	-8256
▁Cho	-8257
▁Duc	-8258
▁Fit	-8259
▁Hug	-8260
▁Lem	-8261
▁MAR	-8262
▁Mit	-8263
▁PAR	-8264
▁Pra	-8265
▁Sad	-8266
▁Ted	-8267
▁WAY	-8268
▁Wid	-8269
▁aid	-8270
▁bou	-8271
▁cyl	-8272
▁hid	-8273
▁rod	-8274
▁wen	-8275
Would	-8276
arian	-8277
aughs	-8278
bbing	-8279
ensen	-8280
guard	-8281
press	-8282
ribut	-8283
three	-8284
ulate	-8285
ushes	-8286
▁AWAY	-8287
▁Babe	-8288
▁Capi	-8289
▁Eyes	-8290
▁Free	-8291
▁Greg	-8292
▁Hann	-8293
▁Jorg	-8294
▁LAST	-8295
▁Lovo	-8296
▁Magn	-8297
▁Mess	-8298
▁Prec	-8299
▁Prof	-8300
▁Rita	-8301
▁Sear	-8302
▁Slow	-8303
▁Upon	-8304
▁WHEN	-8305
▁Walk	-8306
▁bone	-8307
▁chin	-8308
▁desc	-8309
▁ener	-8310
▁entr	-8311
▁file	-8312
▁gest	-8313
▁gods	-8314
▁keys	-8315
▁link	-8316
▁peas	-8317
▁pool	-8318
▁rely	-8319
▁rice	-8320
▁robe	-8321
▁role	-8322
▁tank	-8323
▁weep	-8324
ivesey	-8325
minded	-8326
retion	-8327
stable	-8328
▁Boeld	-8329
▁Chall	-8330
▁Champ	-8331
▁Dance	-8332
▁Dirty	-8333
▁Drake	-8334
▁EVERY	-8335
▁Giron	-8336
▁Jules	-8337
▁Maple	-8338
▁Nikol	-8339
▁Paddy	-8340
▁Peace	-8341
▁Punic	-8342
▁Shame	-8343
▁Smart	-8344
▁Smile	-8345
▁Towns	-8346
▁UNDER	-8347
▁beans	-8348
▁booze	-8349
▁burst	-8350
▁candy	-8351
▁clown	-8352
▁debts	-8353
▁deter	-8354
▁divor	-8355
▁exped	-8356
▁goods	-8357
▁incom	-8358
▁liter	-8359
▁opens	-8360
▁prett	-8361
▁queer	-8362
▁repay	-8363
▁title	-8364
▁tools	-8365
▁uncom	-8366
▁wages	-8367
▁withd	-8368
Nothing	-8369
aughton	-8370
ielecki	-8371
initely	-8372
lection	-8373
meister	-8374
oration	-8375
▁$1,000	-8376
▁Alonzo	-8377
▁Arrest	-8378
▁Audrey	-8379
▁Author	-8380
▁Baring	-8381
▁Cesare	-8382
▁Friede	-8383
▁Ludwig	-8384
▁Mantee	-8385
▁Nickie	-8386
▁Olympe	-8387
▁Permit	-8388
▁School	-8389
▁Social	-8390
▁Soplic	-8391
▁Sounds	-8392
▁Soviet	-8393
▁ancest	-8394
▁atmosp	-8395
▁beaten	-8396
▁boring	-8397
▁circle	-8398
▁estate	-8399
▁indust	-8400
▁insinu	-8401
▁invent	-8402
▁laughs	-8403
▁oughta	-8404
▁passes	-8405
▁policy	-8406
▁porter	-8407
▁sealed	-8408
▁spying	-8409
▁throws	-8410
▁toward	-8411
▁trifle	-8412
sylvania	-8413
▁Annette	-8414
▁Explain	-8415
▁Hammond	-8416
▁Jeffrey	-8417
▁Livesey	-8418
▁McClune	-8419
▁Mustafa	-8420
▁Someday	-8421
▁beneath	-8422
▁cheated	-8423
▁checked	-8424
▁clients	-8425
▁colonel	-8426
▁dealing	-8427
▁dragged	-8428
▁effects	-8429
▁fainted	-8430
▁fashion	-8431
▁laundry	-8432
▁methods	-8433
▁numbers	-8434
▁obvious	-8435
▁persist	-8436
▁presume	-8437
▁replace	-8438
▁scratch	-8439
▁shaking	-8440
▁totally	-8441
▁trusted	-8442
▁European	-8443
▁Finished	-8444
▁Laughton	-8445
▁Mathilda	-8446
▁Rosanoff	-8447
▁Terrible	-8448
▁Varville	-8449
▁Ziggurat	-8450
▁attacked	-8451
▁basement	-8452
▁boarding	-8453
▁ceremony	-8454
▁cheating	-8455
▁confused	-8456
▁discreet	-8457
▁elevator	-8458
▁eternity	-8459
▁glorious	-8460
▁learning	-8461
▁monsters	-8462
▁occupied	-8463
▁official	-8464
▁somethin	-8465
▁sweetest	-8466
▁thrilled	-8467
▁trousers	-8468
▁Communist	-8469
▁Jorgensen	-8470
▁announced	-8471
▁colleague	-8472
▁execution	-8473
▁governess	-8474
▁knowledge	-8475
▁messenger	-8476
▁overboard	-8477
▁Bissonette	-8478
▁Challenger	-8479
▁Constantin	-8480
▁atmosphere	-8481
▁introduced	-8482
▁description	-8483
▁destruction	-8484
▁fascinating	-8485
▁forgiveness	-8486
6,	-8487
NY	-8488
sl	-8489
wr	-8490
ALK	-8491
AME	-8492
AMP	-8493
BER	-8494
ECT	-8495
NEY	-8496
OUS	-8497
bre	-8498
gom	-8499
lah	-8500
nik	-8501
ops	-8502
uct	-8503
von	-8504
▁2,	-8505
▁28	-8506
▁35	-8507
▁6.	-8508
▁7.	-8509
▁80	-8510
▁DA	-8511
▁Ep	-8512
▁US	-8513
▁ec	-8514
Give	-8515
arer	-8516
artz	-8517
chal	-8518
elic	-8519
eroy	-8520
ffic	-8521
fied	-8522
hess	-8523
ifer	-8524
inem	-8525
iscu	-8526
lain	-8527
ller	-8528
ours	-8529
pany	-8530
park	-8531
plic	-8532
rain	-8533
sfer	-8534
ulse	-8535
uman	-8536
umsy	-8537
unte	-8538
vies	-8539
▁Air	-8540
▁Bor	-8541
▁Dol	-8542
▁Gre	-8543
▁III	-8544
▁Inc	-8545
▁Jes	-8546
▁Kim	-8547
▁Kon	-8548
▁Lam	-8549
▁Mae	-8550
▁OLD	-8551
▁Pos	-8552
▁Res	-8553
▁Sac	-8554
▁Sto	-8555
▁Suz	-8556
▁Ton	-8557
▁Val	-8558
▁ace	-8559
▁bay	-8560
▁der	-8561
▁hen	-8562
▁log	-8563
▁mic	-8564
▁non	-8565
▁pil	-8566
▁san	-8567
▁sew	-8568
▁sid	-8569
▁vag	-8570
▁zoo	-8571
Maybe	-8572
bassy	-8573
endar	-8574
epend	-8575
igley	-8576
ipple	-8577
itone	-8578
itors	-8579
mical	-8580
pered	-8581
pherd	-8582
pless	-8583
secut	-8584
shine	-8585
ushin	-8586
uties	-8587
▁..."	-8588
▁Acad	-8589
▁Band	-8590
▁Bang	-8591
▁Chin	-8592
▁Cour	-8593
▁Dede	-8594
▁FIRE	-8595
▁Fill	-8596
▁Font	-8597
▁Gale	-8598
▁HAND	-8599
▁HELP	-8600
▁Hend	-8601
▁Hung	-8602
▁Jake	-8603
▁Kean	-8604
▁Maki	-8605
▁Morl	-8606
▁Nina	-8607
▁Nope	-8608
▁Pink	-8609
▁Ring	-8610
▁Spit	-8611
▁TELL	-8612
▁Tetr	-8613
▁Wald	-8614
▁Zeal	-8615
▁boil	-8616
▁bund	-8617
▁bung	-8618
▁cows	-8619
▁fits	-8620
▁glor	-8621
▁grou	-8622
▁hail	-8623
▁incl	-8624
▁jack	-8625
▁leng	-8626
▁mush	-8627
▁obst	-8628
▁perf	-8629
▁plot	-8630
▁qual	-8631
▁rust	-8632
▁scum	-8633
▁shed	-8634
▁sits	-8635
▁spit	-8636
▁ward	-8637
▁wars	-8638
▁wipe	-8639
Father	-8640
OURNEY	-8641
engers	-8642
estion	-8643
hedral	-8644
hoebus	-8645
inting	-8646
lahoma	-8647
lected	-8648
verend	-8649
▁AGAIN	-8650
▁Boudu	-8651
▁COUNT	-8652
▁GRACE	-8653
▁Idiot	-8654
▁Labor	-8655
▁Lilac	-8656
▁MINUT	-8657
▁Merry	-8658
▁Molly	-8659
▁Olymp	-8660
▁Poole	-8661
▁Salom	-8662
▁Scram	-8663
▁Silly	-8664
▁aston	-8665
▁biscu	-8666
▁cable	-8667
▁demon	-8668
▁drama	-8669
▁ended	-8670
▁equip	-8671
▁finan	-8672
▁haird	-8673
▁imper	-8674
▁instr	-8675
▁jolly	-8676
▁lands	-8677
▁lions	-8678
▁lords	-8679
▁manic	-8680
▁medal	-8681
▁outta	-8682
▁punct	-8683
▁shine	-8684
▁skill	-8685
▁skirt	-8686
▁sworn	-8687
▁total	-8688
▁tower	-8689
▁truck	-8690
▁vital	-8691
▁wound	-8692
▁wrist	-8693
umbling	-8694
▁Fortun	-8695
▁Julian	-8696
▁Lushin	-8697
▁Maudie	-8698
▁Monaco	-8699
▁Monday	-8700
▁Rather	-8701
▁Repeat	-8702
▁Report	-8703
▁Roguin	-8704
▁Selina	-8705
▁associ	-8706
▁blonde	-8707
▁bumped	-8708
▁burial	-8709
▁cheque	-8710
▁claims	-8711
▁damage	-8712
▁enthus	-8713
▁gulden	-8714
▁handed	-8715
▁hatred	-8716
▁humans	-8717
▁kisses	-8718
▁packed	-8719
▁scheme	-8720
▁speaks	-8721
▁squire	-8722
▁statue	-8723
▁stroll	-8724
▁tunnel	-8725
▁unfair	-8726
▁volcan	-8727
chuckles	-8728
▁Antonya	-8729
▁Bernard	-8730
▁Clayton	-8731
▁Dubarry	-8732
▁Follies	-8733
▁Michael	-8734
▁Quigley	-8735
▁Suzette	-8736
▁Turkish	-8737
▁Zealand	-8738
▁apology	-8739
▁arguing	-8740
▁automob	-8741
▁begging	-8742
▁blowing	-8743
▁butcher	-8744
▁charged	-8745
▁charges	-8746
▁cleared	-8747
▁concert	-8748
▁consent	-8749
▁consequ	-8750
▁costume	-8751
▁crossed	-8752
▁discipl	-8753
▁distant	-8754
▁failure	-8755
▁hitting	-8756
▁kilomet	-8757
▁matches	-8758
▁richest	-8759
▁ringing	-8760
▁risking	-8761
▁shortly	-8762
▁slapped	-8763
▁spoiled	-8764
▁torment	-8765
▁visited	-8766
▁watches	-8767
ification	-8768
istration	-8769
▁Bielecki	-8770
▁Boeldieu	-8771
▁Chapayev	-8772
▁Division	-8773
▁Lennartz	-8774
▁Oklahoma	-8775
▁Rodolphe	-8776
▁Spaniard	-8777
▁Townsend	-8778
▁adorable	-8779
▁appetite	-8780
▁approach	-8781
▁baritone	-8782
▁careless	-8783
▁compared	-8784
▁concerns	-8785
▁declared	-8786
▁disaster	-8787
▁disposal	-8788
▁fingerpr	-8789
▁helpless	-8790
▁incident	-8791
▁inviting	-8792
▁knocking	-8793
▁nowadays	-8794
▁research	-8795
▁shepherd	-8796
▁sunshine	-8797
▁teaching	-8798
▁youngest	-8799
believable	-8800
▁Henderson	-8801
▁Sebastian	-8802
▁accompany	-8803
▁curiosity	-8804
▁elsewhere	-8805
▁exhausted	-8806
▁neighbors	-8807
▁offensive	-8808
▁prisoners	-8809
▁rehearsal	-8810
▁sensitive	-8811
▁compliment	-8812
▁outrageous	-8813
▁beautifully	-8814
▁countryside	-8815
▁differently	-8816
▁Commissioner	-8817
▁arrangements	-8818
▁relationship	-8819
▁satisfaction	-8820
1,	-8821
2,	-8822
EM	-8823
Jo	-8824
Lt	-8825
RI	-8826
wh	-8827
▁,	-8828
ARY	-8829
Big	-8830
OND	-8831
PER	-8832
UKE	-8833
cat	-8834
cca	-8835
eap	-8836
iaz	-8837
iph	-8838
mez	-8839
onn	-8840
riz	-8841
ski	-8842
▁48	-8843
▁Kh	-8844
▁MR	-8845
▁ok	-8846
▁oy	-8847
From	-8848
OUSE	-8849
Very	-8850
agus	-8851
azed	-8852
bted	-8853
cles	-8854
emic	-8855
enac	-8856
foot	-8857
hole	-8858
iber	-8859
idal	-8860
imit	-8861
itan	-8862
lins	-8863
ocus	-8864
olis	-8865
onse	-8866
orpe	-8867
rand	-8868
roke	-8869
sper	-8870
then	-8871
umes	-8872
umph	-8873
year	-8874
▁20.	-8875
▁Ald	-8876
▁Bav	-8877
▁Box	-8878
▁Cab	-8879
▁Kol	-8880
▁Lat	-8881
▁Lod	-8882
▁Mir	-8883
▁Nov	-8884
▁Nun	-8885
▁SAY	-8886
▁Sen	-8887
▁Sud	-8888
▁Waq	-8889
▁Wer	-8890
▁Yas	-8891
▁fac	-8892
▁gig	-8893
▁lap	-8894
▁pra	-8895
▁pud	-8896
▁sym	-8897
▁una	-8898
▁unw	-8899
▁wax	-8900
ailed	-8901
allel	-8902
ambul	-8903
denly	-8904
gment	-8905
ieved	-8906
lling	-8907
othée	-8908
rakes	-8909
storm	-8910
uckle	-8911
water	-8912
wered	-8913
▁Bann	-8914
▁Bart	-8915
▁Batt	-8916
▁Bols	-8917
▁COUR	-8918
▁Diaz	-8919
▁Erik	-8920
▁Fair	-8921
▁Fate	-8922
▁Fern	-8923
▁Full	-8924
▁Gray	-8925
▁Guin	-8926
▁Hush	-8927
▁Jews	-8928
▁Lamp	-8929
▁Left	-8930
▁Ouch	-8931
▁Post	-8932
▁Rich	-8933
▁STAY	-8934
▁Spir	-8935
▁TIME	-8936
▁Vass	-8937
▁Wars	-8938
▁ange	-8939
▁bars	-8940
▁blaz	-8941
▁buzz	-8942
▁chim	-8943
▁clue	-8944
▁excl	-8945
▁fame	-8946
▁guts	-8947
▁inex	-8948
▁lazy	-8949
▁mart	-8950
▁penn	-8951
▁rear	-8952
▁stow	-8953
▁sunk	-8954
▁symb	-8955
▁task	-8956
▁term	-8957
▁ties	-8958
▁torn	-8959
▁trim	-8960
▁vice	-8961
▁vile	-8962
MARTIN	-8963
actory	-8964
leiter	-8965
reader	-8966
render	-8967
ternal	-8968
ulance	-8969
usions	-8970
▁1,000	-8971
▁Annie	-8972
▁Claes	-8973
▁Doing	-8974
▁Fight	-8975
▁Flagg	-8976
▁Forty	-8977
▁Grace	-8978
▁Guard	-8979
▁Knock	-8980
▁Milan	-8981
▁Opera	-8982
▁Paula	-8983
▁Pavel	-8984
▁Raise	-8985
▁Santa	-8986
▁Sound	-8987
▁Trust	-8988
▁Venus	-8989
▁Willy	-8990
▁Write	-8991
▁cloak	-8992
▁disgu	-8993
▁dizzy	-8994
▁fairy	-8995
▁fatal	-8996
▁fleet	-8997
▁fully	-8998
▁holds	-8999
▁impat	-9000
▁indul	-9001
▁juice	-9002
▁kills	-9003
▁lasts	-9004
▁lemon	-9005
▁limit	-9006
▁motto	-9007
▁nicer	-9008
▁penal	-9009
▁provo	-9010
▁regul	-9011
▁rescu	-9012
▁serge	-9013
▁shill	-9014
▁smash	-9015
▁squaw	-9016
▁tanks	-9017
▁theft	-9018
▁wears	-9019
▁weigh	-9020
casting	-9021
henomen	-9022
nothing	-9023
theless	-9024
▁Blanco	-9025
▁Bright	-9026
▁Bureau	-9027
▁Falken	-9028
▁Julien	-9029
▁Murder	-9030
▁Oliver	-9031
▁Record	-9032
▁Rinald	-9033
▁Search	-9034
▁Stevie	-9035
▁Werner	-9036
▁Willie	-9037
▁asylum	-9038
▁babies	-9039
▁causes	-9040
▁clinic	-9041
▁county	-9042
▁critic	-9043
▁dispat	-9044
▁doubts	-9045
▁drawer	-9046
▁explos	-9047
▁facing	-9048
▁gettin	-9049
▁hyster	-9050
▁income	-9051
▁indisc	-9052
▁movies	-9053
▁muscle	-9054
▁outfit	-9055
▁parted	-9056
▁perman	-9057
▁rabbit	-9058
▁repair	-9059
▁safely	-9060
▁scarce	-9061
▁scenes	-9062
▁severe	-9063
▁teleph	-9064
▁trains	-9065
▁wasted	-9066
▁winner	-9067
chedelic	-9068
▁Andrews	-9069
▁Bolshev	-9070
▁Fernand	-9071
▁Francis	-9072
▁Gazette	-9073
▁Phillip	-9074
▁Prosper	-9075
▁Rawlins	-9076
▁Tremont	-9077
▁advised	-9078
▁alcohol	-9079
▁attacks	-9080
▁benefit	-9081
▁ceiling	-9082
▁closely	-9083
▁commune	-9084
▁cottage	-9085
▁dignity	-9086
▁disease	-9087
▁drowned	-9088
▁edition	-9089
▁fighter	-9090
▁guessed	-9091
▁honored	-9092
▁joining	-9093
▁naughty	-9094
▁painful	-9095
▁protest	-9096
▁provide	-9097
▁receipt	-9098
▁shelter	-9099
▁steward	-9100
▁treason	-9101
▁weekend	-9102
fashioned	-9103
▁ANYTHING	-9104
▁Chancell	-9105
▁Complete	-9106
▁Dorothée	-9107
▁Engineer	-9108
▁Fontenac	-9109
▁Goodness	-9110
▁Mariette	-9111
▁Suddenly	-9112
▁attached	-9113
▁captured	-9114
▁changing	-9115
▁describe	-9116
▁devotion	-9117
▁imagined	-9118
▁insulted	-9119
▁landlady	-9120
▁location	-9121
▁measures	-9122
▁mustache	-9123
▁pressure	-9124
▁produced	-9125
▁railroad	-9126
▁required	-9127
▁restless	-9128
▁services	-9129
▁shouting	-9130
▁studying	-9131
▁tolerate	-9132
▁Bannister	-9133
▁Delighted	-9134
▁Precisely	-9135
▁Supposing	-9136
▁abandoned	-9137
▁appointed	-9138
▁community	-9139
▁departure	-9140
▁evidently	-9141
▁insulting	-9142
▁interview	-9143
▁monstrous	-9144
▁murderers	-9145
▁orchestra	-9146
▁physician	-9147
▁principle	-9148
▁receiving	-9149
▁trembling	-9150
▁Ambassador	-9151
▁Hofmeister	-9152
▁assistance	-9153
▁constantly	-9154
▁disgusting	-9155
▁expedition	-9156
▁management	-9157
▁passengers	-9158
▁scoundrels	-9159
▁straighten	-9160
▁thoroughly	-9161
▁university	-9162
▁witchcraft	-9163
▁experienced	-9164
60	-9165
CU	-9166
WN	-9167
di	-9168
ja	-9169
▁x	-9170
AIT	-9171
IRL	-9172
MEN	-9173
alo	-9174
arn	-9175
cke	-9176
ded	-9177
got	-9178
iks	-9179
ims	-9180
isy	-9181
loo	-9182
lyn	-9183
nis	-9184
olk	-9185
oom	-9186
sec	-9187
vit	-9188
zar	-9189
▁3.	-9190
▁Au	-9191
▁FL	-9192
▁Lt	-9193
▁Mu	-9194
▁Mé	-9195
▁hm	-9196
▁ry	-9197
..!"	-9198
Hans	-9199
ISON	-9200
Wait	-9201
acki	-9202
aday	-9203
agth	-9204
aman	-9205
arse	-9206
asim	-9207
bour	-9208
cony	-9209
esco	-9210
good	-9211
hast	-9212
have	-9213
hyth	-9214
iche	-9215
igue	-9216
iped	-9217
kana	-9218
oche	-9219
only	-9220
ping	-9221
rang	-9222
raph	-9223
riot	-9224
rise	-9225
roso	-9226
sias	-9227
urai	-9228
urry	-9229
utes	-9230
ymph	-9231
▁190	-9232
▁Bay	-9233
▁Cel	-9234
▁Fee	-9235
▁Gud	-9236
▁Jos	-9237
▁Los	-9238
▁MAT	-9239
▁PLE	-9240
▁PRO	-9241
▁Rum	-9242
▁Sea	-9243
▁Sum	-9244
▁Wed	-9245
▁Zer	-9246
▁bum	-9247
▁dom	-9248
▁fra	-9249
▁hay	-9250
▁ign	-9251
▁jaw	-9252
▁jur	-9253
▁obs	-9254
▁sul	-9255
▁sup	-9256
▁tow	-9257
▁unb	-9258
aline	-9259
anova	-9260
berry	-9261
egger	-9262
heard	-9263
holas	-9264
idays	-9265
itory	-9266
mined	-9267
mouth	-9268
napps	-9269
neath	-9270
offee	-9271
oring	-9272
plane	-9273
ridor	-9274
stick	-9275
uttle	-9276
verty	-9277
▁1000	-9278
▁2:00	-9279
▁Alek	-9280
▁Also	-9281
▁Bean	-9282
▁Berg	-9283
▁Fish	-9284
▁Hell	-9285
▁Holl	-9286
▁Igor	-9287
▁Liar	-9288
▁Luci	-9289
▁Luck	-9290
▁MEAN	-9291
▁Marc	-9292
▁Mard	-9293
▁Mark	-9294
▁Neil	-9295
▁OPEN	-9296
▁Orie	-9297
▁Pain	-9298
▁Pers	-9299
▁Pipe	-9300
▁Rose	-9301
▁ages	-9302
▁anch	-9303
▁anti	-9304
▁beef	-9305
▁butt	-9306
▁deed	-9307
▁duel	-9308
▁goal	-9309
▁goat	-9310
▁lake	-9311
▁lamp	-9312
▁laws	-9313
▁ment	-9314
▁mild	-9315
▁noon	-9316
▁owns	-9317
▁pose	-9318
▁ribb	-9319
▁sane	-9320
▁scat	-9321
▁sets	-9322
▁soap	-9323
▁sous	-9324
▁tact	-9325
▁tale	-9326
▁unim	-9327
▁wrap	-9328
boiled	-9329
brides	-9330
bridge	-9331
eaking	-9332
ermott	-9333
etsera	-9334
gomery	-9335
idents	-9336
inemat	-9337
ipping	-9338
kanaan	-9339
otions	-9340
rences	-9341
resses	-9342
▁11:00	-9343
▁7:00.	-9344
▁AFTER	-9345
▁Being	-9346
▁Bwana	-9347
▁Catch	-9348
▁DANNY	-9349
▁Fancy	-9350
▁HOUSE	-9351
▁Hagth	-9352
▁Holly	-9353
▁Khota	-9354
▁Kolka	-9355
▁Lasse	-9356
▁Mommy	-9357
▁NEVER	-9358
▁Nails	-9359
▁Rogen	-9360
▁Staff	-9361
▁Stegg	-9362
▁Super	-9363
▁Weren	-9364
▁Yacki	-9365
▁award	-9366
▁basis	-9367
▁beats	-9368
▁blown	-9369
▁brown	-9370
▁chose	-9371
▁cinch	-9372
▁coach	-9373
▁fifth	-9374
▁gorge	-9375
▁gradu	-9376
▁grows	-9377
▁gypsy	-9378
▁hears	-9379
▁hides	-9380
▁hunch	-9381
▁ideal	-9382
▁inval	-9383
▁knees	-9384
▁lower	-9385
▁madly	-9386
▁moves	-9387
▁movie	-9388
▁overw	-9389
▁reass	-9390
▁repro	-9391
▁revel	-9392
▁schol	-9393
▁shift	-9394
▁shore	-9395
▁spect	-9396
▁stops	-9397
▁swore	-9398
▁tires	-9399
▁utter	-9400
ellyman	-9401
outhern	-9402
quisite	-9403
sferatu	-9404
▁Anyhow	-9405
▁Archdu	-9406
▁Behind	-9407
▁COURSE	-9408
▁Caliph	-9409
▁Canada	-9410
▁Detect	-9411
▁Either	-9412
▁Gilson	-9413
▁Golden	-9414
▁Gunnar	-9415
▁HAPPEN	-9416
▁Hannay	-9417
▁Having	-9418
▁Island	-9419
▁Leader	-9420
▁Middle	-9421
▁Nothin	-9422
▁PRISON	-9423
▁Phroso	-9424
▁Scotch	-9425
▁Seeing	-9426
▁Sosias	-9427
▁Vander	-9428
▁Virgin	-9429
▁active	-9430
▁barber	-9431
▁bridal	-9432
▁clouds	-9433
▁colors	-9434
▁confir	-9435
▁conven	-9436
▁cruise	-9437
▁diving	-9438
▁dragon	-9439
▁duties	-9440
▁events	-9441
▁firing	-9442
▁fooled	-9443
▁frozen	-9444
▁harbor	-9445
▁headed	-9446
▁height	-9447
▁intrud	-9448
▁knives	-9449
▁laying	-9450
▁louder	-9451
▁luxury	-9452
▁morgue	-9453
▁nearer	-9454
▁photos	-9455
▁pistol	-9456
▁poetry	-9457
▁prices	-9458
▁pushed	-9459
▁quarre	-9460
▁raving	-9461
▁reject	-9462
▁resemb	-9463
▁screen	-9464
▁shower	-9465
▁sleepy	-9466
▁snappy	-9467
▁symbol	-9468
▁tennis	-9469
▁unable	-9470
▁united	-9471
▁waters	-9472
▁wounds	-9473
laughing	-9474
▁Barkley	-9475
▁Fifteen	-9476
▁Flowers	-9477
▁GOURNEY	-9478
▁Jenkins	-9479
▁Nunheim	-9480
▁Outside	-9481
▁Proceed	-9482
▁Service	-9483
▁Western	-9484
▁balcony	-9485
▁bothers	-9486
▁brigade	-9487
▁citizen	-9488
▁climate	-9489
▁content	-9490
▁excuses	-9491
▁flatter	-9492
▁furious	-9493
▁intoler	-9494
▁jumping	-9495
▁mankind	-9496
▁musical	-9497
▁neglect	-9498
▁organis	-9499
▁poverty	-9500
▁pudding	-9501
▁quality	-9502
▁recover	-9503
▁serving	-9504
▁sisters	-9505
▁sweetie	-9506
▁torpedo	-9507
▁torture	-9508
▁version	-9509
▁volunte	-9510
▁Nicholas	-9511
▁Republic	-9512
▁Sergeant	-9513
▁Speaking	-9514
▁Whenever	-9515
▁answered	-9516
▁bleeding	-9517
▁blessing	-9518
▁chemical	-9519
▁chickens	-9520
▁childish	-9521
▁clearing	-9522
▁cocktail	-9523
▁collabor	-9524
▁corridor	-9525
▁cupboard	-9526
▁daylight	-9527
▁dynamite	-9528
▁enjoying	-9529
▁enormous	-9530
▁hesitate	-9531
▁ignorant	-9532
▁insanity	-9533
▁listened	-9534
▁magician	-9535
▁parallel	-9536
▁particip	-9537
▁phenomen	-9538
▁promises	-9539
▁proposal	-9540
▁proposed	-9541
▁recently	-9542
▁sandwich	-9543
▁terrific	-9544
▁training	-9545
▁troubled	-9546
▁visiting	-9547
▁weakness	-9548
▁Francesco	-9549
▁Hagthorpe	-9550
▁McDermott	-9551
▁Nosferatu	-9552
▁Subtitles	-9553
▁Therefore	-9554
▁Windegger	-9555
▁ambulance	-9556
▁ancestors	-9557
▁autograph	-9558
▁broadcast	-9559
▁completed	-9560
▁conscious	-9561
▁countries	-9562
▁discovery	-9563
▁emergency	-9564
▁objection	-9565
▁obviously	-9566
▁organized	-9567
▁paintings	-9568
▁preparing	-9569
▁protected	-9570
▁spiritual	-9571
▁Chancellor	-9572
▁Montgomery	-9573
▁detectives	-9574
▁dictionary	-9575
▁phonograph	-9576
▁principles	-9577
▁separation	-9578
▁sufficient	-9579
▁Commissaire	-9580
▁celebrating	-9581
▁complaining	-9582
▁inheritance	-9583
▁psychedelic	-9584
▁Nevertheless	-9585
▁Transylvania	-9586
▁consequences	-9587
▁embarrassing	-9588
▁consideration	-9589
10	-9590
15	-9591
4,	-9592
OV	-9593
Re	-9594
li	-9595
oé	-9596
▁0	-9597
▁:	-9598
Mad	-9599
ORN	-9600
ads	-9601
aza	-9602
eem	-9603
lse	-9604
mun	-9605
oph	-9606
tel	-9607
uke	-9608
uzz	-9609
zed	-9610
▁CL	-9611
▁EN	-9612
▁Eg	-9613
▁KE	-9614
▁MA	-9615
▁Os	-9616
▁Ox	-9617
▁PE	-9618
▁PI	-9619
EARS	-9620
ENCE	-9621
HING	-9622
Maur	-9623
acon	-9624
bish	-9625
cery	-9626
eave	-9627
empl	-9628
ethe	-9629
fers	-9630
gard	-9631
gues	-9632
hier	-9633
hiko	-9634
iana	-9635
keys	-9636
long	-9637
noch	-9638
odka	-9639
orse	-9640
pent	-9641
pite	-9642
real	-9643
rete	-9644
rike	-9645
uana	-9646
ulty	-9647
unks	-9648
uted	-9649
vens	-9650
wald	-9651
ware	-9652
zing	-9653
▁000	-9654
▁Aha	-9655
▁Ayr	-9656
▁BED	-9657
▁Bro	-9658
▁Cin	-9659
▁Cur	-9660
▁Hum	-9661
▁Mik	-9662
▁OUR	-9663
▁Oui	-9664
▁PRE	-9665
▁Pau	-9666
▁Ret	-9667
▁Sol	-9668
▁Tab	-9669
▁Tou	-9670
▁Tru	-9671
▁WOM	-9672
▁Zoé	-9673
▁ack	-9674
▁cri	-9675
▁dat	-9676
▁juj	-9677
▁lod	-9678
▁mal	-9679
▁pad	-9680
▁pic	-9681
▁poo	-9682
▁sue	-9683
▁swe	-9684
▁tig	-9685
▁wra	-9686
Bring	-9687
almon	-9688
asses	-9689
estro	-9690
ettle	-9691
fifty	-9692
hythm	-9693
icted	-9694
igari	-9695
igern	-9696
ighty	-9697
ilker	-9698
ishes	-9699
ourge	-9700
raune	-9701
rison	-9702
table	-9703
udent	-9704
▁Ages	-9705
▁Ariz	-9706
▁Arne	-9707
▁Best	-9708
▁Book	-9709
▁Crim	-9710
▁Cris	-9711
▁DEAR	-9712
▁Emil	-9713
▁Evil	-9714
▁HEAD	-9715
▁Hasn	-9716
▁Hyde	-9717
▁Irma	-9718
▁Lake	-9719
▁Lane	-9720
▁Leon	-9721
▁Lith	-9722
▁Lost	-9723
▁Ming	-9724
▁Nove	-9725
▁Pool	-9726
▁Real	-9727
▁Rest	-9728
▁SOME	-9729
▁Schl	-9730
▁Seps	-9731
▁Sept	-9732
▁Song	-9733
▁Till	-9734
▁Trou	-9735
▁babe	-9736
▁bunk	-9737
▁carn	-9738
▁dice	-9739
▁doin	-9740
▁dram	-9741
▁econ	-9742
▁elim	-9743
▁flew	-9744
▁frag	-9745
▁glim	-9746
▁gymn	-9747
▁heck	-9748
▁hood	-9749
▁mand	-9750
▁mugs	-9751
▁mult	-9752
▁nuis	-9753
▁pian	-9754
▁pron	-9755
▁rank	-9756
▁sire	-9757
▁sole	-9758
▁trem	-9759
▁trop	-9760
▁turb	-9761
▁vote	-9762
▁vows	-9763
▁zero	-9764
Sister	-9765
apping	-9766
aution	-9767
broker	-9768
elcome	-9769
headed	-9770
ifying	-9771
issors	-9772
mighty	-9773
parkle	-9774
rakesh	-9775
▁Abram	-9776
▁Agnes	-9777
▁Bible	-9778
▁Burns	-9779
▁Carry	-9780
▁Chush	-9781
▁Clerk	-9782
▁Crazy	-9783
▁Dimit	-9784
▁Drive	-9785
▁Ellie	-9786
▁Enoch	-9787
▁Fetch	-9788
▁Golem	-9789
▁Guino	-9790
▁Leroy	-9791
▁Lords	-9792
▁Louba	-9793
▁Natal	-9794
▁PARIS	-9795
▁Petit	-9796
▁Poppy	-9797
▁Riley	-9798
▁Samos	-9799
▁Warne	-9800
▁activ	-9801
▁alley	-9802
▁amuse	-9803
▁analy	-9804
▁benef	-9805
▁blink	-9806
▁bliss	-9807
▁cargo	-9808
▁flirt	-9809
▁frequ	-9810
▁heels	-9811
▁hound	-9812
▁libel	-9813
▁lumps	-9814
▁mates	-9815
▁mouse	-9816
▁negot	-9817
▁recon	-9818
▁remar	-9819
▁saint	-9820
▁scarf	-9821
▁sheet	-9822
▁socks	-9823
aceship	-9824
eakeasy	-9825
ificial	-9826
natural	-9827
onsider	-9828
paragus	-9829
roupier	-9830
sterdam	-9831
strasse	-9832
▁Agreed	-9833
▁Alekse	-9834
▁Andria	-9835
▁Auntie	-9836
▁Ayrton	-9837
▁COULDN	-9838
▁Coffee	-9839
▁Donald	-9840
▁Gladly	-9841
▁Gudule	-9842
▁Guilty	-9843
▁Hannah	-9844
▁Lazare	-9845
▁Magnus	-9846
▁Muckle	-9847
▁Mutier	-9848
▁Novion	-9849
▁PLEASE	-9850
▁Public	-9851
▁Ripple	-9852
▁Tuttle	-9853
▁WANTED	-9854
▁Walter	-9855
▁Warsaw	-9856
▁Winter	-9857
▁accord	-9858
▁actual	-9859
▁breast	-9860
▁breeze	-9861
▁burden	-9862
▁cannon	-9863
▁checks	-9864
▁closet	-9865
▁clumsy	-9866
▁defeat	-9867
▁detest	-9868
▁enchan	-9869
▁graves	-9870
▁hotels	-9871
▁humili	-9872
▁locate	-9873
▁melody	-9874
▁notion	-9875
▁offers	-9876
▁prayer	-9877
▁prejud	-9878
▁purcha	-9879
▁resent	-9880
▁review	-9881
▁rubber	-9882
▁shield	-9883
▁singer	-9884
▁skates	-9885
▁smooth	-9886
▁stable	-9887
▁strain	-9888
▁talkin	-9889
▁typist	-9890
▁unkind	-9891
▁washed	-9892
▁wealth	-9893
▁wooden	-9894
munition	-9895
together	-9896
▁Alraune	-9897
▁Arizona	-9898
▁Blackie	-9899
▁Correct	-9900
▁Faraday	-9901
▁Frances	-9902
▁Geigern	-9903
▁Grandma	-9904
▁Lesting	-9905
▁Lithuan	-9906
▁Nikolay	-9907
▁Phoebus	-9908
▁Vetsera	-9909
▁Viilker	-9910
▁Waldman	-9911
▁answers	-9912
▁beggars	-9913
▁cabbage	-9914
▁counsel	-9915
▁culture	-9916
▁despise	-9917
▁embassy	-9918
▁endless	-9919
▁farmers	-9920
▁fathers	-9921
▁landing	-9922
▁lecture	-9923
▁loyalty	-9924
▁lunatic	-9925
▁mirrors	-9926
▁murders	-9927
▁nations	-9928
▁orderly	-9929
▁package	-9930
▁painter	-9931
▁pirates	-9932
▁prayers	-9933
▁prefers	-9934
▁related	-9935
▁settles	-9936
▁sheriff	-9937
▁shocked	-9938
▁strikes	-9939
▁studies	-9940
▁traffic	-9941
▁triumph	-9942
▁warrant	-9943
▁worship	-9944
▁Anderson	-9945
▁Archduke	-9946
▁Brighton	-9947
▁Caligari	-9948
▁Japanese	-9949
▁Jellyman	-9950
▁Jokanaan	-9951
▁Karenina	-9952
▁Margaret	-9953
▁Marriage	-9954
▁November	-9955
▁Operator	-9956
▁Positive	-9957
▁Russians	-9958
▁Schmitty	-9959
▁Together	-9960
▁accompan	-9961
▁accounts	-9962
▁admitted	-9963
▁bachelor	-9964
▁biscuits	-9965
▁blossoms	-9966
▁borrowed	-9967
▁cleaning	-9968
▁coachman	-9969
▁darkness	-9970
▁demonstr	-9971
▁deserved	-9972
▁holidays	-9973
▁homeland	-9974
▁homesick	-9975
▁occurred	-9976
▁paradise	-9977
▁previous	-9978
▁schnapps	-9979
▁sergeant	-9980
▁somewhat	-9981
▁strictly	-9982
▁subjects	-9983
▁Amsterdam	-9984
▁Chushichi	-9985
▁Detective	-9986
▁Marrakesh	-9987
▁attracted	-9988
▁collector	-9989
▁companion	-9990
▁equipment	-9991
▁frightful	-9992
▁goodnight	-9993
▁precisely	-9994
▁prettiest	-9995
▁reporters	-9996
▁speakeasy	-9997
▁thrilling	-9998
▁wandering	-9999
▁Crisparkle	-10000
▁Government	-10001
▁Ivanovitch	-10002
▁Lestingois	-10003
▁approached	-10004
▁collection	-10005
▁discipline	-10006
▁plantation	-10007
▁sacrifices	-10008
▁scandalous	-10009
▁underneath	-10010
▁Magnificent	-10011
▁advertising	-10012
▁circulation	-10013
▁explanation	-10014
▁possibility	-10015
▁sentimental	-10016
▁threatening	-10017
▁understands	-10018
▁civilization	-10019
▁construction	-10020
▁professional	-10021
▁psychiatrist	-10022
'!	-10023
-3	-10024
Am	-10025
Gu	-10026
OY	-10027
PH	-10028
Wh	-10029
lc	-10030
sé	-10031
tr	-10032
uw	-10033
zl	-10034
200	-10035
500	-10036
IES	-10037
MAN	-10038
Man	-10039
REE	-10040
UCH	-10041
agn	-10042
aks	-10043
din	-10044
gun	-10045
icz	-10046
igs	-10047
isk	-10048
kly	-10049
kov	-10050
mud	-10051
nic	-10052
pus	-10053
sha	-10054
tor	-10055
ugs	-10056
▁26	-10057
▁BL	-10058
▁ID	-10059
▁Ja	-10060
▁RO	-10061
▁VI	-10062
▁Yo	-10063
Hara	-10064
Shut	-10065
ahue	-10066
anda	-10067
atag	-10068
atti	-10069
bell	-10070
chet	-10071
chka	-10072
coat	-10073
dale	-10074
dies	-10075
eeze	-10076
elos	-10077
eluj	-10078
ente	-10079
eyne	-10080
idel	-10081
lemn	-10082
oner	-10083
robe	-10084
uary	-10085
ygen	-10086
▁Bud	-10087
▁Cav	-10088
▁Fat	-10089
▁Han	-10090
▁Hir	-10091
▁Hun	-10092
▁Kam	-10093
▁Kir	-10094
▁Koh	-10095
▁Lau	-10096
▁MON	-10097
▁McL	-10098
▁Nah	-10099
▁Oct	-10100
▁PER	-10101
▁Ray	-10102
▁Sav	-10103
▁Spe	-10104
▁TOO	-10105
▁Vis	-10106
▁bul	-10107
▁coc	-10108
▁cyn	-10109
▁deb	-10110
▁dem	-10111
▁ess	-10112
▁hem	-10113
▁ink	-10114
▁irr	-10115
▁mol	-10116
▁nag	-10117
▁nap	-10118
▁net	-10119
▁pas	-10120
▁sab	-10121
▁ski	-10122
▁spr	-10123
▁toe	-10124
...!"	-10125
ATHER	-10126
Every	-10127
Leave	-10128
Watch	-10129
agers	-10130
akoff	-10131
antry	-10132
arily	-10133
becca	-10134
cheon	-10135
ernuw	-10136
icing	-10137
icken	-10138
idate	-10139
iltas	-10140
imony	-10141
lying	-10142
nikov	-10143
oline	-10144
oting	-10145
otted	-10146
owned	-10147
poral	-10148
rooms	-10149
utoch	-10150
vette	-10151
worth	-10152
▁Chat	-10153
▁Chis	-10154
▁DOES	-10155
▁Dest	-10156
▁FRAN	-10157
▁Frau	-10158
▁Iris	-10159
▁Jana	-10160
▁Join	-10161
▁June	-10162
▁Kane	-10163
▁Lend	-10164
▁Near	-10165
▁Norm	-10166
▁Past	-10167
▁Prot	-10168
▁Prov	-10169
▁Sell	-10170
▁Sign	-10171
▁Slim	-10172
▁Spen	-10173
▁TALK	-10174
▁Whoa	-10175
▁Yash	-10176
▁Yeap	-10177
▁asse	-10178
▁bang	-10179
▁bowl	-10180
▁brun	-10181
▁bush	-10182
▁dash	-10183
▁edge	-10184
▁fare	-10185
▁feat	-10186
▁folk	-10187
▁fret	-10188
▁fuck	-10189
▁gard	-10190
▁godd	-10191
▁gout	-10192
▁gray	-10193
▁idle	-10194
▁inha	-10195
▁leaf	-10196
▁owes	-10197
▁pest	-10198
▁pony	-10199
▁prem	-10200
▁rack	-10201
▁rang	-10202
▁seed	-10203
▁skip	-10204
▁slee	-10205
▁unre	-10206
▁vest	-10207
▁vous	-10208
Listen	-10209
abouts	-10210
elujah	-10211
enders	-10212
essert	-10213
everal	-10214
hastly	-10215
iation	-10216
igning	-10217
imenov	-10218
iscoll	-10219
iverse	-10220
izelos	-10221
laughs	-10222
onglow	-10223
onsoir	-10224
ustody	-10225
▁5:00.	-10226
▁Ahmed	-10227
▁Allah	-10228
▁Angel	-10229
▁Beach	-10230
▁Boers	-10231
▁Carlo	-10232
▁Daily	-10233
▁Empty	-10234
▁Field	-10235
▁Friar	-10236
▁Hanka	-10237
▁Hauen	-10238
▁Healy	-10239
▁Levin	-10240
▁Mayer	-10241
▁Merci	-10242
▁Monte	-10243
▁Mutia	-10244
▁Notre	-10245
▁PLACE	-10246
▁Paper	-10247
▁Pruss	-10248
▁Putty	-10249
▁Sarah	-10250
▁Scott	-10251
▁Sonya	-10252
▁Swear	-10253
▁Tarak	-10254
▁Union	-10255
▁Vance	-10256
▁YEARS	-10257
▁Yatag	-10258
▁Yates	-10259
▁adult	-10260
▁ambit	-10261
▁bears	-10262
▁cease	-10263
▁cheek	-10264
▁crush	-10265
▁curse	-10266
▁draft	-10267
▁dwell	-10268
▁flock	-10269
▁forty	-10270
▁goose	-10271
▁guilt	-10272
▁harsh	-10273
▁haunt	-10274
▁holes	-10275
▁horiz	-10276
▁kings	-10277
▁legit	-10278
▁liver	-10279
▁lobby	-10280
▁magaz	-10281
▁moust	-10282
▁pages	-10283
▁plead	-10284
▁roads	-10285
▁sides	-10286
▁signs	-10287
▁simpl	-10288
▁sings	-10289
▁solic	-10290
▁spies	-10291
▁sting	-10292
▁swind	-10293
▁valet	-10294
▁walks	-10295
▁widdy	-10296
ernacle	-10297
ionaire	-10298
mentary	-10299
orcerer	-10300
ropolis	-10301
▁Around	-10302
▁Cernuw	-10303
▁Change	-10304
▁Jackie	-10305
▁Louise	-10306
▁MINUTE	-10307
▁Muller	-10308
▁States	-10309
▁Steady	-10310
▁Steyne	-10311
▁Taking	-10312
▁Vasili	-10313
▁accent	-10314
▁acknow	-10315
▁ballet	-10316
▁boiler	-10317
▁cherry	-10318
▁cigars	-10319
▁cognac	-10320
▁copper	-10321
▁counts	-10322
▁crowds	-10323
▁degree	-10324
▁denied	-10325
▁energy	-10326
▁fiancé	-10327
▁floors	-10328
▁hereby	-10329
▁heroic	-10330
▁histor	-10331
▁hunted	-10332
▁inquis	-10333
▁launch	-10334
▁legend	-10335
▁liking	-10336
▁mortal	-10337
▁mutual	-10338
▁nearby	-10339
▁negoti	-10340
▁notify	-10341
▁paraly	-10342
▁parlor	-10343
▁pencil	-10344
▁rebels	-10345
▁region	-10346
▁relief	-10347
▁rented	-10348
▁robots	-10349
▁rowing	-10350
▁salmon	-10351
▁smiled	-10352
▁source	-10353
▁spared	-10354
▁string	-10355
▁swords	-10356
▁toilet	-10357
▁tyrant	-10358
▁valley	-10359
▁wander	-10360
escaline	-10361
inations	-10362
intiltas	-10363
itations	-10364
onscious	-10365
utochkin	-10366
▁Belmont	-10367
▁Cinemat	-10368
▁Despite	-10369
▁Dimitri	-10370
▁Donahue	-10371
▁Estelle	-10372
▁Express	-10373
▁Further	-10374
▁Gautier	-10375
▁Getting	-10376
▁Gladdie	-10377
▁Grandpa	-10378
▁Gregory	-10379
▁Legrand	-10380
▁Pimenov	-10381
▁Rebecca	-10382
▁Roberts	-10383
▁Several	-10384
▁Station	-10385
▁Swedish	-10386
▁Vassily	-10387
▁alarmed	-10388
▁amongst	-10389
▁anytime	-10390
▁assault	-10391
▁assured	-10392
▁blanket	-10393
▁chimney	-10394
▁complex	-10395
▁concent	-10396
▁conquer	-10397
▁contrad	-10398
▁coppers	-10399
▁crooked	-10400
▁cunning	-10401
▁defence	-10402
▁dislike	-10403
▁efforts	-10404
▁elegant	-10405
▁frankly	-10406
▁glimpse	-10407
▁halfway	-10408
▁happily	-10409
▁located	-10410
▁mineral	-10411
▁payment	-10412
▁perfume	-10413
▁pinched	-10414
▁produce	-10415
▁prosper	-10416
▁railway	-10417
▁samurai	-10418
▁session	-10419
▁starved	-10420
▁trained	-10421
▁volcano	-10422
▁Driscoll	-10423
▁Komsomol	-10424
▁Lawrence	-10425
▁Ministry	-10426
▁Moonglow	-10427
▁Waterloo	-10428
▁Wherever	-10429
▁Yatagoro	-10430
▁bastards	-10431
▁behaving	-10432
▁belonged	-10433
▁countess	-10434
▁covering	-10435
▁cylinder	-10436
▁divorced	-10437
▁emotions	-10438
▁families	-10439
▁feathers	-10440
▁gangster	-10441
▁gorgeous	-10442
▁illusion	-10443
▁improved	-10444
▁industry	-10445
▁laughter	-10446
▁nuisance	-10447
▁overwhel	-10448
▁peasants	-10449
▁platform	-10450
▁punctual	-10451
▁relieved	-10452
▁religion	-10453
▁reported	-10454
▁response	-10455
▁specific	-10456
▁starving	-10457
▁strangle	-10458
▁suitable	-10459
▁survived	-10460
▁villages	-10461
▁villains	-10462
▁Americans	-10463
▁Cernuwicz	-10464
▁Champagne	-10465
▁Josephine	-10466
▁Marseille	-10467
▁Petrovich	-10468
▁September	-10469
▁Venizelos	-10470
▁centuries	-10471
▁connected	-10472
▁criminals	-10473
▁exquisite	-10474
▁immediate	-10475
▁performed	-10476
▁positions	-10477
▁publisher	-10478
▁residence	-10479
▁sensation	-10480
▁shoulders	-10481
▁submarine	-10482
▁surprises	-10483
▁surrender	-10484
▁technical	-10485
▁tradition	-10486
▁worthless	-10487
▁Foundation	-10488
▁accomplice	-10489
▁altogether	-10490
▁artificial	-10491
▁automobile	-10492
▁characters	-10493
▁inspection	-10494
▁pawnbroker	-10495
▁strangling	-10496
▁Fortunately	-10497
▁astronomers	-10498
▁interrupted	-10499
▁investigate	-10500
▁deliberately	-10501
▁revolutionary	-10502
▁Constantinople	-10503
-6	-10504
.3	-10505
20	-10506
AC	-10507
Ah	-10508
BC	-10509
Bl	-10510
HN	-10511
Le	-10512
Ma	-10513
OG	-10514
Or	-10515
UE	-10516
Un	-10517
ij	-10518
ji	-10519
lé	-10520
és	-10521
00,	-10522
20.	-10523
ACH	-10524
BOD	-10525
Che	-10526
ENS	-10527
IAN	-10528
Ins	-10529
NED	-10530
ONG	-10531
ORE	-10532
Tom	-10533
ULL	-10534
cup	-10535
esy	-10536
iko	-10537
ila	-10538
ios	-10539
kyo	-10540
mic	-10541
rav	-10542
rum	-10543
six	-10544
udo	-10545
uma	-10546
uta	-10547
▁$8	-10548
▁0.	-10549
▁2-	-10550
▁4,	-10551
▁Et	-10552
▁Od	-10553
▁SW	-10554
▁TE	-10555
▁cy	-10556
▁tu	-10557
▁ut	-10558
)...	-10559
BODY	-10560
LEEP	-10561
LING	-10562
RESS	-10563
ROWD	-10564
acha	-10565
alow	-10566
anch	-10567
arre	-10568
aves	-10569
bbed	-10570
bout	-10571
case	-10572
chel	-10573
chik	-10574
cile	-10575
dele	-10576
erge	-10577
este	-10578
etta	-10579
fold	-10580
igor	-10581
lysé	-10582
ober	-10583
oore	-10584
ords	-10585
oses	-10586
oths	-10587
scar	-10588
serv	-10589
stal	-10590
suit	-10591
wain	-10592
wear	-10593
will	-10594
with	-10595
▁18.	-10596
▁50.	-10597
▁BRE	-10598
▁Bas	-10599
▁CIA	-10600
▁Cou	-10601
▁Cry	-10602
▁Dec	-10603
▁Fuj	-10604
▁Gal	-10605
▁LAD	-10606
▁Leg	-10607
▁Ohh	-10608
▁Sev	-10609
▁Tor	-10610
▁Wea	-10611
▁chi	-10612
▁fab	-10613
▁gin	-10614
▁haw	-10615
▁hom	-10616
▁mos	-10617
▁opt	-10618
▁pes	-10619
▁rav	-10620
▁swo	-10621
▁toy	-10622
▁ult	-10623
OTHER	-10624
acker	-10625
aisie	-10626
amish	-10627
aning	-10628
anuts	-10629
ariat	-10630
ashes	-10631
bling	-10632
derer	-10633
holog	-10634
human	-10635
iance	-10636
iless	-10637
ingly	-10638
iters	-10639
ively	-10640
jamas	-10641
lings	-10642
merdi	-10643
ocrat	-10644
oisio	-10645
olini	-10646
power	-10647
prise	-10648
ribly	-10649
ropri	-10650
smith	-10651
ufact	-10652
venth	-10653
works	-10654
échal	-10655
▁Adam	-10656
▁Andr	-10657
▁Ball	-10658
▁Behn	-10659
▁Buff	-10660
▁Cleo	-10661
▁DUKE	-10662
▁Dame	-10663
▁Dora	-10664
▁Earl	-10665
▁FELL	-10666
▁Fifi	-10667
▁Fips	-10668
▁GIRL	-10669
▁Glen	-10670
▁Grab	-10671
▁Hamb	-10672
▁Hein	-10673
▁Kild	-10674
▁Krik	-10675
▁Line	-10676
▁Merr	-10677
▁Nose	-10678
▁Otto	-10679
▁Pour	-10680
▁Roze	-10681
▁STOP	-10682
▁SURE	-10683
▁Safe	-10684
▁Seas	-10685
▁Sent	-10686
▁THEN	-10687
▁Teas	-10688
▁Took	-10689
▁Tren	-10690
▁Vamp	-10691
▁WAIT	-10692
▁Wint	-10693
▁Wood	-10694
▁bail	-10695
▁bapt	-10696
▁bend	-10697
▁cave	-10698
▁cord	-10699
▁crad	-10700
▁crow	-10701
▁diet	-10702
▁ding	-10703
▁diss	-10704
▁drew	-10705
▁drum	-10706
▁eats	-10707
▁impl	-10708
▁juju	-10709
▁kron	-10710
▁lace	-10711
▁lion	-10712
▁mint	-10713
▁neat	-10714
▁prev	-10715
▁quay	-10716
▁rejo	-10717
▁ripe	-10718
▁seaf	-10719
▁seam	-10720
▁site	-10721
▁snat	-10722
▁somn	-10723
▁stab	-10724
▁stew	-10725
▁susp	-10726
▁tang	-10727
▁tips	-10728
▁trib	-10729
▁tube	-10730
▁vine	-10731
▁wave	-10732
▁worm	-10733
agonia	-10734
atesta	-10735
ellery	-10736
employ	-10737
ension	-10738
formed	-10739
ihuana	-10740
illery	-10741
ippers	-10742
isions	-10743
lysées	-10744
nesday	-10745
ooping	-10746
oughby	-10747
▁Adele	-10748
▁April	-10749
▁Benya	-10750
▁CROWD	-10751
▁Darny	-10752
▁Enjoy	-10753
▁Errol	-10754
▁Honzl	-10755
▁Horse	-10756
▁Irish	-10757
▁Jesus	-10758
▁Josef	-10759
▁Marce	-10760
▁Mikha	-10761
▁Nanon	-10762
▁Okoma	-10763
▁Oscar	-10764
▁Palau	-10765
▁Radio	-10766
▁Rouss	-10767
▁Tokyo	-10768
▁Worse	-10769
▁acted	-10770
▁anger	-10771
▁attic	-10772
▁beers	-10773
▁bells	-10774
▁belly	-10775
▁blast	-10776
▁bluff	-10777
▁bonus	-10778
▁cared	-10779
▁choke	-10780
▁chump	-10781
▁coins	-10782
▁dares	-10783
▁earls	-10784
▁elder	-10785
▁envoy	-10786
▁fiend	-10787
▁flown	-10788
▁handy	-10789
▁intim	-10790
▁lovel	-10791
▁meets	-10792
▁paras	-10793
▁peach	-10794
▁picks	-10795
▁poems	-10796
▁porce	-10797
▁postp	-10798
▁races	-10799
▁rally	-10800
▁ranks	-10801
▁rapid	-10802
▁rifle	-10803
▁rings	-10804
▁scrap	-10805
▁shack	-10806
▁solid	-10807
▁stare	-10808
▁stray	-10809
▁swamp	-10810
▁taxes	-10811
▁thres	-10812
▁unite	-10813
▁waits	-10814
▁yield	-10815
amasoff	-10816
chenson	-10817
dington	-10818
iaoping	-10819
idering	-10820
ourtois	-10821
ustomed	-10822
▁40,000	-10823
▁Abrams	-10824
▁Benbow	-10825
▁Bermud	-10826
▁Bolton	-10827
▁Brandy	-10828
▁Fallon	-10829
▁Ferney	-10830
▁Filiba	-10831
▁Finney	-10832
▁Freder	-10833
▁Ginger	-10834
▁Harper	-10835
▁Indies	-10836
▁Lights	-10837
▁Lucien	-10838
▁McLean	-10839
▁Minnie	-10840
▁Moisio	-10841
▁Norman	-10842
▁Pretor	-10843
▁ROBBED	-10844
▁Ronasa	-10845
▁Smerdi	-10846
▁Square	-10847
▁Strike	-10848
▁Violet	-10849
▁Yvette	-10850
▁barbar	-10851
▁butler	-10852
▁chosen	-10853
▁cities	-10854
▁coffin	-10855
▁consul	-10856
▁deadly	-10857
▁dealer	-10858
▁detail	-10859
▁drives	-10860
▁fertil	-10861
▁flyers	-10862
▁footst	-10863
▁ghosts	-10864
▁glance	-10865
▁gordon	-10866
▁gutter	-10867
▁judges	-10868
▁knight	-10869
▁length	-10870
▁loaded	-10871
▁madman	-10872
▁oxygen	-10873
▁penetr	-10874
▁philos	-10875
▁pigeon	-10876
▁plight	-10877
▁prepar	-10878
▁prolet	-10879
▁proved	-10880
▁rebell	-10881
▁rhythm	-10882
▁rocket	-10883
▁rushed	-10884
▁solemn	-10885
▁sports	-10886
▁steady	-10887
▁tailor	-10888
▁tickle	-10889
▁violin	-10890
▁vision	-10891
▁wisdom	-10892
▁$10,000	-10893
▁Against	-10894
▁Begging	-10895
▁Beloved	-10896
▁Blanche	-10897
▁Bonsoir	-10898
▁Brought	-10899
▁Carroll	-10900
▁Central	-10901
▁Cheerio	-10902
▁Francey	-10903
▁Gustave	-10904
▁Hamburg	-10905
▁Hiroshi	-10906
▁Introdu	-10907
▁Kildare	-10908
▁Maestro	-10909
▁Morlant	-10910
▁Natalie	-10911
▁Natasha	-10912
▁October	-10913
▁Spencer	-10914
▁Stevens	-10915
▁Stoppel	-10916
▁Talking	-10917
▁Tenente	-10918
▁Whether	-10919
▁bankers	-10920
▁banking	-10921
▁challen	-10922
▁contest	-10923
▁convent	-10924
▁delayed	-10925
▁desires	-10926
▁despite	-10927
▁earthly	-10928
▁embrace	-10929
▁engines	-10930
▁expects	-10931
▁feeding	-10932
▁foreman	-10933
▁forests	-10934
▁gesture	-10935
▁grounds	-10936
▁heroine	-10937
▁honesty	-10938
▁majesty	-10939
▁marshal	-10940
▁masters	-10941
▁needing	-10942
▁painted	-10943
▁priests	-10944
▁reaches	-10945
▁removed	-10946
▁restore	-10947
▁retreat	-10948
▁robbing	-10949
▁rubbish	-10950
▁satisfy	-10951
▁scholar	-10952
▁shining	-10953
▁sorrows	-10954
▁sounded	-10955
▁sunrise	-10956
▁surface	-10957
▁terrace	-10958
▁villain	-10959
▁violent	-10960
▁witches	-10961
▁yelling	-10962
ibilities	-10963
▁Anywhere	-10964
▁Brothers	-10965
▁Courtney	-10966
▁Daughter	-10967
▁Isabella	-10968
▁Landlord	-10969
▁Maréchal	-10970
▁Mathilde	-10971
▁Montreal	-10972
▁Reverend	-10973
▁Teasdale	-10974
▁Trenholm	-10975
▁anyplace	-10976
▁approved	-10977
▁aristocr	-10978
▁brunette	-10979
▁bungalow	-10980
▁champion	-10981
▁courtesy	-10982
▁crossing	-10983
▁curtains	-10984
▁distress	-10985
▁employer	-10986
▁entrance	-10987
▁evenings	-10988
▁guardian	-10989
▁jealousy	-10990
▁judgment	-10991
▁manicure	-10992
▁manufact	-10993
▁messages	-10994
▁negative	-10995
▁overcome	-10996
▁politics	-10997
▁presents	-10998
▁profound	-10999
▁quitting	-11000
▁relative	-11001
▁reliable	-11002
▁restored	-11003
▁secretly	-11004
▁shameful	-11005
▁shipyard	-11006
▁southern	-11007
▁spending	-11008
▁stowaway	-11009
▁tortured	-11010
▁touching	-11011
▁violence	-11012
▁whenever	-11013
▁wireless	-11014
▁Courtland	-11015
▁Francisco	-11016
▁Frenchman	-11017
▁Hollywood	-11018
▁Malatesta	-11019
▁Marvelous	-11020
▁Patagonia	-11021
▁Perfectly	-11022
▁confessed	-11023
▁confident	-11024
▁constable	-11025
▁defending	-11026
▁delicious	-11027
▁developed	-11028
▁directors	-11029
▁discussed	-11030
▁dishonest	-11031
▁employees	-11032
▁enthusias	-11033
▁exclusive	-11034
▁favourite	-11035
▁greetings	-11036
▁impatient	-11037
▁including	-11038
▁intellect	-11039
▁lightning	-11040
▁marihuana	-11041
▁overnight	-11042
▁porcelain	-11043
▁possessed	-11044
▁preferred	-11045
▁presently	-11046
▁preserved	-11047
▁promotion	-11048
▁qualities	-11049
▁referring	-11050
▁regarding	-11051
▁remembers	-11052
▁somnambul	-11053
▁spaceship	-11054
▁strangled	-11055
▁succeeded	-11056
▁telegrams	-11057
▁Chutochkin	-11058
▁Excellence	-11059
▁Karamasoff	-11060
▁Konstantin	-11061
▁Murchenson	-11062
▁Reddington	-11063
▁Willoughby	-11064
▁ambassador	-11065
▁ammunition	-11066
▁background	-11067
▁conclusion	-11068
▁determined	-11069
▁discharged	-11070
▁discussing	-11071
▁dispatches	-11072
▁hysterical	-11073
▁recognised	-11074
▁telephoned	-11075
▁vegetables	-11076
▁whispering	-11077
▁Medintiltas	-11078
▁Smerdiakoff	-11079
▁achievement	-11080
▁disgraceful	-11081
▁experiences	-11082
▁temperature	-11083
▁entertaining	-11084
▁unbelievable	-11085
-8	-11086
.-	-11087
Dr	-11088
FF	-11089
MM	-11090
Me	-11091
Sp	-11092
WH	-11093
WO	-11094
eh	-11095
oz	-11096
uz	-11097
ADE	-11098
ASS	-11099
ERT	-11100
Hit	-11101
IMP	-11102
OCK	-11103
Our	-11104
Put	-11105
STE	-11106
Two	-11107
acu	-11108
azz	-11109
bur	-11110
ext	-11111
fax	-11112
fts	-11113
fty	-11114
ggs	-11115
ggy	-11116
gow	-11117
gus	-11118
hew	-11119
hia	-11120
hoy	-11121
kir	-11122
mek	-11123
nut	-11124
orr	-11125
roc	-11126
rog	-11127
rov	-11128
sis	-11129
was	-11130
who	-11131
zer	-11132
▁"-	-11133
▁27	-11134
▁2:	-11135
▁8.	-11136
▁Di	-11137
▁Fo	-11138
▁HQ	-11139
▁HU	-11140
▁Vo	-11141
▁hi	-11142
'...	-11143
Conn	-11144
Does	-11145
IRST	-11146
John	-11147
Mary	-11148
Miss	-11149
More	-11150
RAID	-11151
Stop	-11152
WARD	-11153
adek	-11154
apse	-11155
aria	-11156
arta	-11157
bbin	-11158
enth	-11159
essa	-11160
eyed	-11161
hara	-11162
heit	-11163
hire	-11164
ieri	-11165
iffe	-11166
ikes	-11167
issy	-11168
itis	-11169
izer	-11170
jima	-11171
lict	-11172
lime	-11173
mate	-11174
ogue	-11175
omew	-11176
owes	-11177
pers	-11178
rake	-11179
rene	-11180
ript	-11181
sure	-11182
urin	-11183
your	-11184
▁10,	-11185
▁15.	-11186
▁BBC	-11187
▁Bal	-11188
▁Bew	-11189
▁Cow	-11190
▁DRO	-11191
▁Dem	-11192
▁Ear	-11193
▁Fam	-11194
▁Hoy	-11195
▁Hux	-11196
▁ISN	-11197
▁Kru	-11198
▁Mem	-11199
▁Mun	-11200
▁Ola	-11201
▁REM	-11202
▁SHO	-11203
▁SOR	-11204
▁Sak	-11205
▁Sid	-11206
▁TWO	-11207
▁Thy	-11208
▁Way	-11209
▁Wil	-11210
▁ank	-11211
▁ath	-11212
▁baw	-11213
▁ben	-11214
▁cra	-11215
▁duc	-11216
▁dug	-11217
▁enl	-11218
▁eve	-11219
▁hmm	-11220
▁jit	-11221
▁mas	-11222
▁nit	-11223
▁num	-11224
▁ray	-11225
▁ryo	-11226
▁sno	-11227
▁sow	-11228
▁whi	-11229
5,000	-11230
STAND	-11231
adelp	-11232
after	-11233
anced	-11234
arcot	-11235
arrow	-11236
bound	-11237
brows	-11238
chery	-11239
erman	-11240
essel	-11241
flies	-11242
groom	-11243
ifies	-11244
ilion	-11245
inted	-11246
itius	-11247
keyed	-11248
kward	-11249
leton	-11250
onder	-11251
oodle	-11252
order	-11253
pects	-11254
quito	-11255
rious	-11256
rophe	-11257
ursed	-11258
white	-11259
wrest	-11260
▁4:00	-11261
▁5:00	-11262
▁Apia	-11263
▁Bois	-11264
▁Card	-11265
▁Cond	-11266
▁DIDN	-11267
▁DOOR	-11268
▁Drag	-11269
▁EVEN	-11270
▁Echo	-11271
▁FLOR	-11272
▁GENT	-11273
▁Gabi	-11274
▁Grim	-11275
▁Hadn	-11276
▁Hemp	-11277
▁Hugu	-11278
▁Jove	-11279
▁July	-11280
▁KEEP	-11281
▁LOVE	-11282
▁Leib	-11283
▁Lola	-11284
▁Lynd	-11285
▁MAKE	-11286
▁Nazi	-11287
▁Note	-11288
▁ONLY	-11289
▁Pell	-11290
▁Pity	-11291
▁Rabb	-11292
▁Seen	-11293
▁Thou	-11294
▁Tsar	-11295
▁Umek	-11296
▁WORK	-11297
▁Yoko	-11298
▁afar	-11299
▁aged	-11300
▁bond	-11301
▁chis	-11302
▁crop	-11303
▁depl	-11304
▁fart	-11305
▁flop	-11306
▁gren	-11307
▁grey	-11308
▁hicc	-11309
▁hoof	-11310
▁inev	-11311
▁item	-11312
▁keen	-11313
▁magn	-11314
▁pile	-11315
▁plum	-11316
▁plus	-11317
▁pump	-11318
▁sang	-11319
▁sham	-11320
▁shit	-11321
▁sofa	-11322
▁sten	-11323
▁tart	-11324
▁tray	-11325
▁welc	-11326
Connor	-11327
ailing	-11328
aleska	-11329
bingen	-11330
btedly	-11331
enberg	-11332
icians	-11333
itaine	-11334
itches	-11335
lished	-11336
ooklyn	-11337
oshiki	-11338
penses	-11339
rimony	-11340
taking	-11341
ulture	-11342
▁Abbey	-11343
▁Adams	-11344
▁Belle	-11345
▁Betty	-11346
▁Blake	-11347
▁Chris	-11348
▁Clara	-11349
▁DOING	-11350
▁Dixon	-11351
▁Dolan	-11352
▁Doris	-11353
▁Dream	-11354
▁Dunya	-11355
▁FIRST	-11356
▁Fland	-11357
▁Fresh	-11358
▁Frost	-11359
▁Greet	-11360
▁Magic	-11361
▁Makes	-11362
▁Moore	-11363
▁Nicky	-11364
▁Palms	-11365
▁Pasha	-11366
▁Patty	-11367
▁Radek	-11368
▁Rolls	-11369
▁Simon	-11370
▁THESE	-11371
▁THOSE	-11372
▁Times	-11373
▁Tough	-11374
▁Trent	-11375
▁Turks	-11376
▁Twice	-11377
▁WOMAN	-11378
▁WORLD	-11379
▁Widdy	-11380
▁Yulka	-11381
▁advis	-11382
▁armed	-11383
▁ashes	-11384
▁beach	-11385
▁bitch	-11386
▁blush	-11387
▁bully	-11388
▁chase	-11389
▁chill	-11390
▁chips	-11391
▁craft	-11392
▁deals	-11393
▁disag	-11394
▁drops	-11395
▁drums	-11396
▁equal	-11397
▁fails	-11398
▁fears	-11399
▁freak	-11400
▁greed	-11401
▁incon	-11402
▁insol	-11403
▁micro	-11404
▁nails	-11405
▁overd	-11406
▁pinch	-11407
▁plumb	-11408
▁pupil	-11409
▁rains	-11410
▁range	-11411
▁react	-11412
▁rests	-11413
▁risks	-11414
▁rival	-11415
▁ropes	-11416
▁ruler	-11417
▁safer	-11418
▁scrat	-11419
▁sorts	-11420
▁stool	-11421
▁swept	-11422
▁tribe	-11423
▁unfor	-11424
▁vodka	-11425
▁wakes	-11426
▁waves	-11427
AUGHTER	-11428
ateroom	-11429
bershop	-11430
derback	-11431
earable	-11432
holomew	-11433
ignment	-11434
justice	-11435
lington	-11436
michael	-11437
ossibly	-11438
parable	-11439
portant	-11440
respond	-11441
▁10:00.	-11442
▁AFRAID	-11443
▁Accept	-11444
▁Archie	-11445
▁Assist	-11446
▁Beware	-11447
▁Carfax	-11448
▁Center	-11449
▁FATHER	-11450
▁FELLOW	-11451
▁Gooble	-11452
▁Hurrah	-11453
▁Huxley	-11454
▁Juliet	-11455
▁Kimura	-11456
▁Lowman	-11457
▁Marthe	-11458
▁Nikola	-11459
▁Office	-11460
▁Others	-11461
▁Priest	-11462
▁Rodney	-11463
▁Screen	-11464
▁Sparta	-11465
▁Strang	-11466
▁Stupid	-11467
▁Sunako	-11468
▁Tanner	-11469
▁Weekly	-11470
▁Winton	-11471
▁actors	-11472
▁anchor	-11473
▁announ	-11474
▁banker	-11475
▁barrel	-11476
▁beasts	-11477
▁calcul	-11478
▁caress	-11479
▁catast	-11480
▁chairs	-11481
▁cheeks	-11482
▁coloss	-11483
▁column	-11484
▁consol	-11485
▁cooked	-11486
▁creeps	-11487
▁crowns	-11488
▁diplom	-11489
▁dishes	-11490
▁doomed	-11491
▁exists	-11492
▁extent	-11493
▁fairly	-11494
▁firmly	-11495
▁flames	-11496
▁framed	-11497
▁ginger	-11498
▁gooble	-11499
▁highly	-11500
▁hollow	-11501
▁kidney	-11502
▁lasted	-11503
▁museum	-11504
▁nicest	-11505
▁offend	-11506
▁pepper	-11507
▁perish	-11508
▁picnic	-11509
▁player	-11510
▁polish	-11511
▁proven	-11512
▁quarry	-11513
▁regain	-11514
▁scares	-11515
▁sewing	-11516
▁sheets	-11517
▁sought	-11518
▁states	-11519
▁stones	-11520
▁stroke	-11521
▁sweets	-11522
▁troupe	-11523
▁unique	-11524
▁unwell	-11525
▁vanity	-11526
▁virtue	-11527
▁warmth	-11528
adelphia	-11529
cription	-11530
fortable	-11531
oubtedly	-11532
stitious	-11533
▁Alexand	-11534
▁Beamish	-11535
▁Bermuda	-11536
▁Between	-11537
▁Bonjour	-11538
▁Chapter	-11539
▁Council	-11540
▁Counsel	-11541
▁Feeling	-11542
▁Heavens	-11543
▁Higgens	-11544
▁Johnnie	-11545
▁Justice	-11546
▁Karenin	-11547
▁Lambert	-11548
▁Marshal	-11549
▁Mikhail	-11550
▁Morelli	-11551
▁Running	-11552
▁Sundays	-11553
▁Thomery	-11554
▁Travers	-11555
▁Yashvin	-11556
▁Zaleska	-11557
▁amateur	-11558
▁balance	-11559
▁behaved	-11560
▁carries	-11561
▁castles	-11562
▁channel	-11563
▁corpses	-11564
▁corrupt	-11565
▁custody	-11566
▁damages	-11567
▁dessert	-11568
▁distrib	-11569
▁elected	-11570
▁extract	-11571
▁formula	-11572
▁gambler	-11573
▁ghastly	-11574
▁injured	-11575
▁kicking	-11576
▁lawyers	-11577
▁leather	-11578
▁leopard	-11579
▁longing	-11580
▁marries	-11581
▁oysters	-11582
▁penalty	-11583
▁postman	-11584
▁printed	-11585
▁product	-11586
▁rabbits	-11587
▁raising	-11588
▁relieve	-11589
▁remarks	-11590
▁require	-11591
▁reserve	-11592
▁resting	-11593
▁shouted	-11594
▁slavery	-11595
▁smashed	-11596
▁stepped	-11597
▁sulking	-11598
▁supreme	-11599
▁testify	-11600
▁threats	-11601
▁twisted	-11602
Insurance	-11603
Mauritius	-11604
▁Brooklyn	-11605
▁Chisholm	-11606
▁DAUGHTER	-11607
▁Flanders	-11608
▁Malaisie	-11609
▁Mountain	-11610
▁Movement	-11611
▁Standish	-11612
▁Umekichi	-11613
▁absolute	-11614
▁accusing	-11615
▁attended	-11616
▁chairman	-11617
▁checking	-11618
▁deceased	-11619
▁deceived	-11620
▁eyebrows	-11621
▁forehead	-11622
▁generals	-11623
▁happiest	-11624
▁headline	-11625
▁imperson	-11626
▁impertin	-11627
▁instruct	-11628
▁interior	-11629
▁ladyship	-11630
▁lipstick	-11631
▁maintain	-11632
▁mechanic	-11633
▁pathetic	-11634
▁pointing	-11635
▁reaching	-11636
▁register	-11637
▁rehearse	-11638
▁requires	-11639
▁rescuers	-11640
▁revolver	-11641
▁scissors	-11642
▁slightly	-11643
▁spoiling	-11644
▁suspects	-11645
▁treating	-11646
▁unemploy	-11647
▁watchman	-11648
▁withdraw	-11649
▁Broughton	-11650
▁Commander	-11651
▁Committee	-11652
▁Lyndstone	-11653
▁Pretorius	-11654
▁Socialist	-11655
▁Telephone	-11656
▁Wednesday	-11657
▁answering	-11658
▁appealing	-11659
▁arguments	-11660
▁asparagus	-11661
▁believing	-11662
▁counterfe	-11663
▁effective	-11664
▁engineers	-11665
▁foreigner	-11666
▁hairdress	-11667
▁intruding	-11668
▁mescaline	-11669
▁policemen	-11670
▁portraits	-11671
▁presented	-11672
▁pretended	-11673
▁publicity	-11674
▁published	-11675
▁seafaring	-11676
▁sentenced	-11677
▁testimony	-11678
▁troubling	-11679
▁willingly	-11680
▁Carmichael	-11681
▁Production	-11682
▁Screenplay	-11683
▁Sweetheart	-11684
▁Tarakanova	-11685
▁UNDERSTAND	-11686
▁Vanderheit	-11687
▁barbershop	-11688
▁convention	-11689
▁enthusiasm	-11690
▁exaggerate	-11691
▁foreigners	-11692
▁positively	-11693
▁statements	-11694
▁tabernacle	-11695
▁volunteers	-11696
▁approaching	-11697
▁businessman	-11698
▁complicated	-11699
▁sensational	-11700
▁Philadelphia	-11701
▁somnambulist	-11702
▁misunderstood	-11703
19	-11704
21	-11705
77	-11706
Af	-11707
Ch	-11708
Es	-11709
IK	-11710
IV	-11711
PL	-11712
PT	-11713
SK	-11714
hr	-11715
jv	-11716
pm	-11717
rr	-11718
AIR	-11719
Bye	-11720
God	-11721
Has	-11722
IDE	-11723
ITE	-11724
LLO	-11725
ONT	-11726
Sir	-11727
aha	-11728
ava	-11729
bag	-11730
bon	-11731
box	-11732
enf	-11733
ewr	-11734
haj	-11735
mod	-11736
olt	-11737
oos	-11738
rep	-11739
til	-11740
vag	-11741
xas	-11742
yer	-11743
▁1:	-11744
▁2.	-11745
▁34	-11746
▁39	-11747
▁5.	-11748
▁8,	-11749
▁AH	-11750
▁CO	-11751
▁Cy	-11752
▁Gj	-11753
▁Lf	-11754
▁PO	-11755
▁Sy	-11756
▁Wu	-11757
▁ta	-11758
000.	-11759
Aren	-11760
ENER	-11761
Echo	-11762
Keep	-11763
OUGH	-11764
Ronc	-11765
SELF	-11766
Some	-11767
aiti	-11768
anos	-11769
ante	-11770
arte	-11771
atsy	-11772
bane	-11773
bley	-11774
cels	-11775
deal	-11776
dock	-11777
door	-11778
eaux	-11779
fire	-11780
four	-11781
geon	-11782
ggie	-11783
helm	-11784
iary	-11785
icky	-11786
icle	-11787
iggy	-11788
imme	-11789
iner	-11790
iour	-11791
load	-11792
mies	-11793
mile	-11794
must	-11795
nard	-11796
neum	-11797
odor	-11798
olph	-11799
olve	-11800
oons	-11801
opat	-11802
opin	-11803
peze	-11804
pick	-11805
rely	-11806
rice	-11807
rots	-11808
scri	-11809
sect	-11810
shop	-11811
shot	-11812
sion	-11813
ston	-11814
this	-11815
uals	-11816
ucki	-11817
uffy	-11818
ufus	-11819
uter	-11820
west	-11821
zens	-11822
zzle	-11823
▁$10	-11824
▁$50	-11825
▁12,	-11826
▁23,	-11827
▁3:4	-11828
▁400	-11829
▁60'	-11830
▁Aut	-11831
▁Bes	-11832
▁Cir	-11833
▁Clo	-11834
▁Dig	-11835
▁Dom	-11836
▁Dov	-11837
▁FRI	-11838
▁Fol	-11839
▁Gas	-11840
▁Gen	-11841
▁Gop	-11842
▁HOM	-11843
▁HUR	-11844
▁Hah	-11845
▁Kem	-11846
▁LEA	-11847
▁Lec	-11848
▁Len	-11849
▁Lew	-11850
▁MUR	-11851
▁Mam	-11852
▁McC	-11853
▁McG	-11854
▁Mia	-11855
▁OWN	-11856
▁Oka	-11857
▁Pac	-11858
▁Pag	-11859
▁Pir	-11860
▁Ram	-11861
▁Sed	-11862
▁TAK	-11863
▁Tim	-11864
▁Tri	-11865
▁Und	-11866
▁Vik	-11867
▁Wag	-11868
▁ail	-11869
▁cue	-11870
▁gri	-11871
▁hug	-11872
▁hym	-11873
▁jar	-11874
▁lam	-11875
▁mac	-11876
▁nin	-11877
▁ped	-11878
▁raw	-11879
▁rue	-11880
▁rug	-11881
▁tid	-11882
▁ton	-11883
▁tro	-11884
▁tur	-11885
▁tut	-11886
▁vul	-11887
CTURE	-11888
Could	-11889
First	-11890
OUGHT	-11891
Smith	-11892
Stand	-11893
ansom	-11894
aplan	-11895
apore	-11896
arter	-11897
askol	-11898
birds	-11899
break	-11900
child	-11901
estic	-11902
etier	-11903
hetto	-11904
ibald	-11905
iders	-11906
iller	-11907
inent	-11908
itate	-11909
jvind	-11910
ombee	-11911
opher	-11912
orous	-11913
orthy	-11914
othes	-11915
peley	-11916
piece	-11917
quest	-11918
usage	-11919
utile	-11920
verse	-11921
▁1917	-11922
▁200.	-11923
▁3:00	-11924
▁Aage	-11925
▁Asai	-11926
▁Banu	-11927
▁Beer	-11928
▁Bred	-11929
▁Bret	-11930
▁Cabb	-11931
▁Czar	-11932
▁Darn	-11933
▁Done	-11934
▁Egon	-11935
▁FOOL	-11936
▁Fear	-11937
▁Gods	-11938
▁Gris	-11939
▁Holm	-11940
▁Hosp	-11941
▁INTO	-11942
▁Jama	-11943
▁LIMP	-11944
▁Lear	-11945
▁Live	-11946
▁MORE	-11947
▁MUCH	-11948
▁MUST	-11949
▁Made	-11950
▁Mand	-11951
▁Mars	-11952
▁Midd	-11953
▁Mist	-11954
▁Name	-11955
▁Olga	-11956
▁Peri	-11957
▁Prop	-11958
▁ROOM	-11959
▁Reno	-11960
▁Ride	-11961
▁SAFE	-11962
▁Says	-11963
▁Shar	-11964
▁Ship	-11965
▁Tart	-11966
▁Tick	-11967
▁Trow	-11968
▁Tyra	-11969
▁Ulla	-11970
▁Wild	-11971
▁Wrap	-11972
▁acid	-11973
▁amer	-11974
▁belt	-11975
▁bien	-11976
▁boar	-11977
▁cups	-11978
▁fier	-11979
▁gown	-11980
▁graz	-11981
▁hath	-11982
▁haul	-11983
▁helm	-11984
▁insp	-11985
▁jest	-11986
▁lass	-11987
▁lick	-11988
▁limp	-11989
▁obed	-11990
▁odds	-11991
▁pour	-11992
▁prey	-11993
▁prow	-11994
▁puff	-11995
▁ratt	-11996
▁refe	-11997
▁root	-11998
▁sank	-11999
▁slug	-12000
▁spee	-12001
▁tast	-12002
▁wool	-12003
▁yarn	-12004
Master	-12005
Mother	-12006
Pardon	-12007
Really	-12008
Roncin	-12009
arling	-12010
asseur	-12011
emaker	-12012
fering	-12013
hajang	-12014
handed	-12015
igator	-12016
igging	-12017
letown	-12018
levard	-12019
ollett	-12020
outing	-12021
resist	-12022
stance	-12023
ullaby	-12024
yevich	-12025
▁10:00	-12026
▁Admit	-12027
▁Among	-12028
▁Arrow	-12029
▁BREAK	-12030
▁Barry	-12031
▁Board	-12032
▁Braun	-12033
▁Chair	-12034
▁Claus	-12035
▁Dying	-12036
▁GENER	-12037
▁Graph	-12038
▁Guild	-12039
▁HELLO	-12040
▁Haiti	-12041
▁Kramm	-12042
▁Liers	-12043
▁Loder	-12044
▁Medic	-12045
▁Nancy	-12046
▁Patsy	-12047
▁Point	-12048
▁River	-12049
▁Royce	-12050
▁Rufus	-12051
▁Sally	-12052
▁Shink	-12053
▁Sunny	-12054
▁Swiss	-12055
▁Texas	-12056
▁Toddy	-12057
▁Wrong	-12058
▁accus	-12059
▁admin	-12060
▁blues	-12061
▁broom	-12062
▁brush	-12063
▁cakes	-12064
▁cance	-12065
▁chart	-12066
▁deeds	-12067
▁deleg	-12068
▁dowry	-12069
▁evacu	-12070
▁faced	-12071
▁flame	-12072
▁float	-12073
▁flour	-12074
▁gifts	-12075
▁haste	-12076
▁hasty	-12077
▁hitch	-12078
▁hives	-12079
▁invis	-12080
▁items	-12081
▁juror	-12082
▁liken	-12083
▁lined	-12084
▁loses	-12085
▁manor	-12086
▁marqu	-12087
▁meals	-12088
▁noisy	-12089
▁oppon	-12090
▁pains	-12091
▁panel	-12092
▁piggy	-12093
▁pills	-12094
▁pneum	-12095
▁raids	-12096
▁rocks	-12097
▁route	-12098
▁scoop	-12099
▁slips	-12100
▁smugg	-12101
▁spots	-12102
▁stamp	-12103
▁steer	-12104
▁stunt	-12105
▁sunny	-12106
▁tenor	-12107
▁towns	-12108
▁twist	-12109
▁units	-12110
▁upper	-12111
▁veins	-12112
▁weary	-12113
▁yards	-12114
ancakes	-12115
centric	-12116
cession	-12117
hibited	-12118
idelity	-12119
ificant	-12120
istrate	-12121
renches	-12122
rentice	-12123
secutor	-12124
vereign	-12125
writing	-12126
▁11:00.	-12127
▁18,000	-12128
▁Albine	-12129
▁Allies	-12130
▁Atkins	-12131
▁Atlant	-12132
▁Bulger	-12133
▁CAUGHT	-12134
▁Clowes	-12135
▁Columb	-12136
▁DROSTE	-12137
▁Daniel	-12138
▁Easter	-12139
▁Editor	-12140
▁Elixir	-12141
▁GENTLE	-12142
▁Harlon	-12143
▁Hermin	-12144
▁Hobley	-12145
▁Hurray	-12146
▁Immedi	-12147
▁Kirile	-12148
▁Marduk	-12149
▁Raskol	-12150
▁Rosent	-12151
▁Sidney	-12152
▁Speech	-12153
▁Viktor	-12154
▁agency	-12155
▁angels	-12156
▁applic	-12157
▁attent	-12158
▁bandit	-12159
▁beings	-12160
▁blazes	-12161
▁boiled	-12162
▁branch	-12163
▁bundle	-12164
▁cancel	-12165
▁chains	-12166
▁chisel	-12167
▁contra	-12168
▁cradle	-12169
▁daring	-12170
▁deeper	-12171
▁depths	-12172
▁drugst	-12173
▁ending	-12174
▁ensure	-12175
▁favors	-12176
▁fixing	-12177
▁foster	-12178
▁freely	-12179
▁gigolo	-12180
▁hangar	-12181
▁horrid	-12182
▁ideals	-12183
▁ignore	-12184
▁illust	-12185
▁inches	-12186
▁intent	-12187
▁landed	-12188
▁legion	-12189
▁lifted	-12190
▁lively	-12191
▁masses	-12192
▁menace	-12193
▁mercen	-12194
▁merger	-12195
▁proves	-12196
▁purple	-12197
▁raging	-12198
▁ransom	-12199
▁reconc	-12200
▁replac	-12201
▁ribbon	-12202
▁rumors	-12203
▁serves	-12204
▁shared	-12205
▁shaved	-12206
▁sleeps	-12207
▁tempor	-12208
▁tenant	-12209
▁tracks	-12210
▁triump	-12211
▁waking	-12212
▁warden	-12213
▁whisky	-12214
ationale	-12215
daughter	-12216
iversary	-12217
mination	-12218
secution	-12219
standing	-12220
▁200,000	-12221
▁COUNTRY	-12222
▁Curious	-12223
▁Divorce	-12224
▁Greifer	-12225
▁Hermann	-12226
▁Indians	-12227
▁Looking	-12228
▁Meaning	-12229
▁Merritt	-12230
▁Mueller	-12231
▁Okajima	-12232
▁PICTURE	-12233
▁Pacific	-12234
▁Schultz	-12235
▁Soplica	-12236
▁actress	-12237
▁anticip	-12238
▁awkward	-12239
▁bandits	-12240
▁banquet	-12241
▁barrels	-12242
▁bathing	-12243
▁blasted	-12244
▁boombee	-12245
▁catches	-12246
▁chewing	-12247
▁cleaned	-12248
▁conceal	-12249
▁crosses	-12250
▁crystal	-12251
▁drawers	-12252
▁entrust	-12253
▁existed	-12254
▁explore	-12255
▁forgets	-12256
▁freight	-12257
▁hiccups	-12258
▁horizon	-12259
▁insists	-12260
▁install	-12261
▁intrude	-12262
▁largest	-12263
▁muscles	-12264
▁operate	-12265
▁orphans	-12266
▁pianist	-12267
▁pigeons	-12268
▁prolong	-12269
▁publish	-12270
▁reduced	-12271
▁rolling	-12272
▁ruining	-12273
▁rushing	-12274
▁savings	-12275
▁setting	-12276
▁strides	-12277
▁stuffed	-12278
▁trapped	-12279
▁tremend	-12280
▁upright	-12281
▁weapons	-12282
▁wonders	-12283
hological	-12284
▁Almighty	-12285
▁CHARMING	-12286
▁FLORENCE	-12287
▁Francois	-12288
▁Griswald	-12289
▁Herodias	-12290
▁Honestly	-12291
▁Hospital	-12292
▁Hurdanos	-12293
▁Marcelin	-12294
▁Montague	-12295
▁Murderer	-12296
▁Parisian	-12297
▁Patience	-12298
▁Philippa	-12299
▁Possibly	-12300
▁Rahajang	-12301
▁Smollett	-12302
▁Trentino	-12303
▁addition	-12304
▁affected	-12305
▁amateurs	-12306
▁arriving	-12307
▁bankrupt	-12308
▁catching	-12309
▁cheering	-12310
▁cockeyed	-12311
▁colossal	-12312
▁composer	-12313
▁creation	-12314
▁croupier	-12315
▁demanded	-12316
▁directed	-12317
▁distinct	-12318
▁dramatic	-12319
▁drunkard	-12320
▁elements	-12321
▁examined	-12322
▁executed	-12323
▁expenses	-12324
▁explains	-12325
▁festival	-12326
▁floating	-12327
▁football	-12328
▁gasoline	-12329
▁independ	-12330
▁mourning	-12331
▁musician	-12332
▁mystical	-12333
▁pounding	-12334
▁reserved	-12335
▁respects	-12336
▁salesman	-12337
▁sickness	-12338
▁slippers	-12339
▁snitched	-12340
▁speeches	-12341
▁stalling	-12342
▁sweating	-12343
▁swimming	-12344
▁universe	-12345
▁vanished	-12346
▁wardrobe	-12347
▁Breakfast	-12348
▁Greetings	-12349
▁Henrietta	-12350
▁Pelletier	-12351
▁Seriously	-12352
▁Singapore	-12353
▁admirable	-12354
▁allowance	-12355
▁breathing	-12356
▁buildings	-12357
▁correctly	-12358
▁customary	-12359
▁demanding	-12360
▁disgraced	-12361
▁emotional	-12362
▁footsteps	-12363
▁godfather	-12364
▁materials	-12365
▁moustache	-12366
▁murdering	-12367
▁necessity	-12368
▁notorious	-12369
▁operating	-12370
▁piggyback	-12371
▁pneumonia	-12372
▁recovered	-12373
▁shillings	-12374
▁shoemaker	-12375
▁solicitor	-12376
▁stateroom	-12377
▁subtitles	-12378
▁suggested	-12379
▁supposing	-12380
▁terrified	-12381
▁transport	-12382
▁uncertain	-12383
▁Apparently	-12384
▁Completely	-12385
▁Flaemmchen	-12386
▁Hallelujah	-12387
▁Lauderback	-12388
▁Lecourtois	-12389
▁Metropolis	-12390
▁Middletown	-12391
▁Trowbridge	-12392
▁adventures	-12393
▁blacksmith	-12394
▁bridegroom	-12395
▁collecting	-12396
▁depression	-12397
▁detachment	-12398
▁foundation	-12399
▁leadership	-12400
▁magistrate	-12401
▁occupation	-12402
▁reflection	-12403
▁scientists	-12404
▁unbearable	-12405
▁Grandfather	-12406
▁Immediately	-12407
▁Raskolnikov	-12408
▁anniversary	-12409
▁arrangement	-12410
▁catastrophe	-12411
▁compromised	-12412
▁connections	-12413
▁examination	-12414
▁insinuating	-12415
▁intolerance	-12416
▁personality	-12417
▁remembering	-12418
▁restoration	-12419
▁unimportant	-12420
▁fingerprints	-12421
▁newspaperman	-12422
▁satisfactory	-12423
▁acquaintances	-12424
▁communication	-12425
▁uncomfortable	-12426
▁Internationale	-12427
▁recommendation	-12428
-"	-12429
-2	-12430
-5	-12431
03	-12432
27	-12433
75	-12434
AG	-12435
AZ	-12436
Co	-12437
Ge	-12438
QU	-12439
TS	-12440
UB	-12441
uv	-12442
ét	-12443
CKL	-12444
Fil	-12445
IAL	-12446
IGG	-12447
INS	-12448
ITY	-12449
LER	-12450
Nor	-12451
Out	-12452
Per	-12453
RAN	-12454
Rem	-12455
Tis	-12456
UTH	-12457
agu	-12458
aka	-12459
anz	-12460
aws	-12461
bal	-12462
ban	-12463
bba	-12464
bet	-12465
chi	-12466
cod	-12467
dro	-12468
epr	-12469
gro	-12470
ido	-12471
loy	-12472
new	-12473
non	-12474
oft	-12475
sts	-12476
tim	-12477
tok	-12478
uez	-12479
wit	-12480
xes	-12481
yon	-12482
▁31	-12483
▁5,	-12484
▁6,	-12485
▁70	-12486
▁75	-12487
▁90	-12488
▁AD	-12489
▁AP	-12490
▁EL	-12491
▁FE	-12492
▁au	-12493
▁km	-12494
▁lf	-12495
▁na	-12496
▁py	-12497
:30,	-12498
AINT	-12499
ARCH	-12500
ATCH	-12501
FORE	-12502
LEAN	-12503
Okay	-12504
Only	-12505
Stay	-12506
Sulp	-12507
anne	-12508
anth	-12509
ares	-12510
asso	-12511
aten	-12512
avos	-12513
ayan	-12514
deck	-12515
erer	-12516
etho	-12517
feld	-12518
ffen	-12519
fles	-12520
from	-12521
hage	-12522
horn	-12523
iked	-12524
iors	-12525
iser	-12526
izzi	-12527
kete	-12528
kets	-12529
lete	-12530
liam	-12531
olas	-12532
opes	-12533
oria	-12534
orks	-12535
orts	-12536
outs	-12537
rily	-12538
rnes	-12539
rski	-12540
uepr	-12541
ught	-12542
uild	-12543
uzzy	-12544
vate	-12545
woll	-12546
word	-12547
▁$1,	-12548
▁12.	-12549
▁17.	-12550
▁196	-12551
▁Age	-12552
▁Ali	-12553
▁Alp	-12554
▁Ams	-12555
▁BAD	-12556
▁Bat	-12557
▁Bri	-12558
▁Cas	-12559
▁Cey	-12560
▁DAR	-12561
▁Die	-12562
▁Dot	-12563
▁Duv	-12564
▁Ent	-12565
▁FAM	-12566
▁Gau	-12567
▁HMM	-12568
▁INS	-12569
▁JEW	-12570
▁Kos	-12571
▁Lar	-12572
▁Pig	-12573
▁Rud	-12574
▁SER	-12575
▁Smo	-12576
▁TON	-12577
▁Tau	-12578
▁Tea	-12579
▁Tha	-12580
▁Tow	-12581
▁Uda	-12582
▁Wha	-12583
▁Yep	-12584
▁aft	-12585
▁bub	-12586
▁bug	-12587
▁cad	-12588
▁cos	-12589
▁dim	-12590
▁dre	-12591
▁fer	-12592
▁gam	-12593
▁ger	-12594
▁hip	-12595
▁hut	-12596
▁loo	-12597
▁lug	-12598
▁mox	-12599
▁ske	-12600
▁tar	-12601
▁tub	-12602
▁urg	-12603
▁wha	-12604
...?"	-12605
EMBER	-12606
Hurry	-12607
Never	-12608
adium	-12609
alker	-12610
arium	-12611
artef	-12612
asury	-12613
ayton	-12614
dling	-12615
endel	-12616
endor	-12617
enega	-12618
enton	-12619
fying	-12620
gello	-12621
graph	-12622
hagen	-12623
hette	-12624
inkle	-12625
iries	-12626
ishka	-12627
itals	-12628
lance	-12629
léans	-12630
melst	-12631
ntown	-12632
oning	-12633
orich	-12634
osure	-12635
otage	-12636
ships	-12637
shirt	-12638
speak	-12639
start	-12640
ugged	-12641
ussat	-12642
▁1...	-12643
▁Arab	-12644
▁COMM	-12645
▁Chee	-12646
▁Cock	-12647
▁Cong	-12648
▁Disc	-12649
▁Duck	-12650
▁Ebba	-12651
▁Evel	-12652
▁Exec	-12653
▁Feel	-12654
▁Flip	-12655
▁Food	-12656
▁Gaff	-12657
▁Glom	-12658
▁Gree	-12659
▁Guys	-12660
▁Hate	-12661
▁Hugh	-12662
▁Hurt	-12663
▁Judy	-12664
▁Late	-12665
▁Mafe	-12666
▁Mang	-12667
▁Mass	-12668
▁Moor	-12669
▁NICE	-12670
▁Ness	-12671
▁Nutt	-12672
▁Pavl	-12673
▁Pear	-12674
▁Phar	-12675
▁Phot	-12676
▁Pray	-12677
▁Puss	-12678
▁Sett	-12679
▁Thir	-12680
▁Toto	-12681
▁Weed	-12682
▁Whew	-12683
▁Wish	-12684
▁Zone	-12685
▁alas	-12686
▁arou	-12687
▁arts	-12688
▁brut	-12689
▁buff	-12690
▁cand	-12691
▁cane	-12692
▁cats	-12693
▁chic	-12694
▁clar	-12695
▁coop	-12696
▁daft	-12697
▁dang	-12698
▁dive	-12699
▁dorm	-12700
▁dose	-12701
▁exit	-12702
▁fled	-12703
▁foul	-12704
▁gear	-12705
▁golf	-12706
▁herd	-12707
▁hust	-12708
▁isol	-12709
▁menu	-12710
▁orch	-12711
▁palm	-12712
▁peac	-12713
▁pier	-12714
▁pigs	-12715
▁pots	-12716
▁pulp	-12717
▁puss	-12718
▁rein	-12719
▁rend	-12720
▁riff	-12721
▁riot	-12722
▁rode	-12723
▁sigh	-12724
▁spar	-12725
▁swap	-12726
▁tend	-12727
▁todd	-12728
▁unac	-12729
▁vase	-12730
▁whim	-12731
50,000	-12732
Excuse	-12733
abbath	-12734
atures	-12735
endent	-12736
ermund	-12737
haired	-12738
inette	-12739
inhard	-12740
ortion	-12741
piracy	-12742
regard	-12743
riages	-12744
ussels	-12745
utions	-12746
▁2,000	-12747
▁Alice	-12748
▁Build	-12749
▁Climb	-12750
▁DANCE	-12751
▁Fergy	-12752
▁Gerda	-12753
▁HAVEN	-12754
▁Halla	-12755
▁Latif	-12756
▁Madel	-12757
▁Marin	-12758
▁Nazis	-12759
▁Ocean	-12760
▁Passy	-12761
▁Pleas	-12762
▁Polit	-12763
▁Relax	-12764
▁SORRY	-12765
▁Smoke	-12766
▁Steps	-12767
▁Steve	-12768
▁Swine	-12769
▁THANK	-12770
▁THING	-12771
▁Villa	-12772
▁Wales	-12773
▁Wanna	-12774
▁Weeks	-12775
▁Works	-12776
▁Yakov	-12777
▁Yulik	-12778
▁abuse	-12779
▁agony	-12780
▁assum	-12781
▁bands	-12782
▁banks	-12783
▁barge	-12784
▁blows	-12785
▁chuck	-12786
▁claws	-12787
▁cling	-12788
▁colum	-12789
▁crash	-12790
▁daren	-12791
▁depos	-12792
▁deuce	-12793
▁diagn	-12794
▁diary	-12795
▁dried	-12796
▁drift	-12797
▁dummy	-12798
▁eager	-12799
▁error	-12800
▁exams	-12801
▁exter	-12802
▁films	-12803
▁filth	-12804
▁fires	-12805
▁fraud	-12806
▁funds	-12807
▁giant	-12808
▁grove	-12809
▁indig	-12810
▁indis	-12811
▁ingen	-12812
▁intox	-12813
▁kilos	-12814
▁kinda	-12815
▁loans	-12816
▁manif	-12817
▁memor	-12818
▁metal	-12819
▁mobil	-12820
▁overt	-12821
▁owned	-12822
▁pious	-12823
▁pipes	-12824
▁puppy	-12825
▁quart	-12826
▁rides	-12827
▁rogue	-12828
▁sacks	-12829
▁salad	-12830
▁sissy	-12831
▁sonny	-12832
▁stain	-12833
▁sympt	-12834
▁tales	-12835
▁tiger	-12836
▁tresp	-12837
▁trois	-12838
▁troth	-12839
▁tryin	-12840
▁tutor	-12841
▁verse	-12842
Comment	-12843
Darling	-12844
Norvell	-12845
Sulpice	-12846
Welcome	-12847
ability	-12848
inating	-12849
istered	-12850
liament	-12851
pecting	-12852
resents	-12853
umsteed	-12854
venteen	-12855
▁BEFORE	-12856
▁Baroni	-12857
▁Butter	-12858
▁Byrnes	-12859
▁Deputy	-12860
▁Disapp	-12861
▁Driver	-12862
▁FRIEND	-12863
▁Fedele	-12864
▁Folies	-12865
▁Goethe	-12866
▁Hanlon	-12867
▁Hanson	-12868
▁Inside	-12869
▁Jawoll	-12870
▁Kammer	-12871
▁Larson	-12872
▁Levine	-12873
▁Living	-12874
▁MURDER	-12875
▁Madani	-12876
▁Making	-12877
▁Marsch	-12878
▁Mattia	-12879
▁Mendel	-12880
▁Mexico	-12881
▁Museum	-12882
▁Oxford	-12883
▁Philom	-12884
▁Pierce	-12885
▁REWARD	-12886
▁Sahara	-12887
▁Scared	-12888
▁Squier	-12889
▁THANKS	-12890
▁Tabard	-12891
▁United	-12892
▁access	-12893
▁apiece	-12894
▁armies	-12895
▁assemb	-12896
▁attach	-12897
▁banana	-12898
▁bluepr	-12899
▁bounce	-12900
▁chival	-12901
▁comedy	-12902
▁cooper	-12903
▁copies	-12904
▁deaths	-12905
▁detain	-12906
▁divers	-12907
▁dozens	-12908
▁eleven	-12909
▁empire	-12910
▁fiddle	-12911
▁fierce	-12912
▁forged	-12913
▁ghetto	-12914
▁groups	-12915
▁halluc	-12916
▁interp	-12917
▁kettle	-12918
▁kronor	-12919
▁licked	-12920
▁limits	-12921
▁miners	-12922
▁motion	-12923
▁narrow	-12924
▁onions	-12925
▁oughtn	-12926
▁parade	-12927
▁partly	-12928
▁pitied	-12929
▁planes	-12930
▁prayed	-12931
▁rarest	-12932
▁recent	-12933
▁sailed	-12934
▁salute	-12935
▁sanity	-12936
▁screwy	-12937
▁sermon	-12938
▁shaken	-12939
▁shoots	-12940
▁sleeve	-12941
▁spells	-12942
▁squawk	-12943
▁stores	-12944
▁submit	-12945
▁superb	-12946
▁tables	-12947
▁traces	-12948
▁transl	-12949
▁transp	-12950
▁unhapp	-12951
▁unjust	-12952
▁vessel	-12953
▁voices	-12954
▁vulgar	-12955
atically	-12956
isterham	-12957
melstoss	-12958
ographed	-12959
ological	-12960
undering	-12961
volution	-12962
▁Achille	-12963
▁Amazing	-12964
▁Amschel	-12965
▁Caussat	-12966
▁Certain	-12967
▁Commies	-12968
▁Dancing	-12969
▁Destroy	-12970
▁Dismiss	-12971
▁Estella	-12972
▁Eternal	-12973
▁Evelina	-12974
▁Fitzroy	-12975
▁GENERAL	-12976
▁Gaffney	-12977
▁Graphic	-12978
▁Harriet	-12979
▁Hofmann	-12980
▁Jamaica	-12981
▁Johnson	-12982
▁Kirilov	-12983
▁Lazarev	-12984
▁Luckily	-12985
▁Mexican	-12986
▁Mondels	-12987
▁Muskete	-12988
▁Nuttall	-12989
▁Orléans	-12990
▁Rinaldi	-12991
▁Roorich	-12992
▁Sebasti	-12993
▁Steward	-12994
▁Trouble	-12995
▁Udaigor	-12996
▁Written	-12997
▁awarded	-12998
▁bandage	-12999
▁battles	-13000
▁blossom	-13001
▁bullets	-13002
▁butting	-13003
▁carpent	-13004
▁cashier	-13005
▁causing	-13006
▁chemist	-13007
▁circles	-13008
▁damaged	-13009
▁deprive	-13010
▁digging	-13011
▁diploma	-13012
▁duchess	-13013
▁earning	-13014
▁equally	-13015
▁exhaust	-13016
▁expense	-13017
▁filling	-13018
▁fireman	-13019
▁flights	-13020
▁gazette	-13021
▁goddess	-13022
▁grocery	-13023
▁guarant	-13024
▁helpful	-13025
▁inquire	-13026
▁jeopard	-13027
▁lacking	-13028
▁lighter	-13029
▁mansion	-13030
▁marbles	-13031
▁marvell	-13032
▁modesty	-13033
▁mustard	-13034
▁objects	-13035
▁offices	-13036
▁pajamas	-13037
▁patriot	-13038
▁pennies	-13039
▁pleases	-13040
▁psychic	-13041
▁quicker	-13042
▁refresh	-13043
▁sailors	-13044
▁seasick	-13045
▁signals	-13046
▁sinking	-13047
▁smaller	-13048
▁summons	-13049
▁survive	-13050
▁swallow	-13051
▁teasing	-13052
▁tenants	-13053
▁touches	-13054
▁trapeze	-13055
▁turbine	-13056
▁undress	-13057
▁wrecked	-13058
Certainly	-13059
artefigue	-13060
hattering	-13061
standarte	-13062
▁Atlantis	-13063
▁Broadway	-13064
▁Brussels	-13065
▁Crossing	-13066
▁Dovgello	-13067
▁Egyptian	-13068
▁Gjermund	-13069
▁Heinrich	-13070
▁Mafeking	-13071
▁Nichette	-13072
▁Prentice	-13073
▁Shapeley	-13074
▁Soldiers	-13075
▁Sorcerer	-13076
▁Springer	-13077
▁Terribly	-13078
▁Tetrarch	-13079
▁approval	-13080
▁artistic	-13081
▁awaiting	-13082
▁centavos	-13083
▁checkers	-13084
▁confront	-13085
▁contents	-13086
▁crawling	-13087
▁critical	-13088
▁distract	-13089
▁entering	-13090
▁escaping	-13091
▁feverish	-13092
▁fidelity	-13093
▁fortress	-13094
▁grandson	-13095
▁highness	-13096
▁identify	-13097
▁insisted	-13098
▁intimate	-13099
▁invented	-13100
▁irresist	-13101
▁likeness	-13102
▁luncheon	-13103
▁mosquito	-13104
▁opponent	-13105
▁overlook	-13106
▁postcard	-13107
▁precinct	-13108
▁purchase	-13109
▁realised	-13110
▁remained	-13111
▁reminded	-13112
▁requests	-13113
▁shipment	-13114
▁sneaking	-13115
▁sticking	-13116
▁supplies	-13117
▁talented	-13118
▁teachers	-13119
▁thankful	-13120
▁throttle	-13121
▁traitors	-13122
▁trenches	-13123
▁urgently	-13124
▁Archibald	-13125
▁Arlington	-13126
▁Assistant	-13127
▁Battalion	-13128
▁Castenega	-13129
▁Commissar	-13130
▁Direction	-13131
▁Levasseur	-13132
▁Plumsteed	-13133
▁Rosenthal	-13134
▁agreeable	-13135
▁battalion	-13136
▁behaviour	-13137
▁briefcase	-13138
▁cathedral	-13139
▁challenge	-13140
▁condemned	-13141
▁continent	-13142
▁continues	-13143
▁disregard	-13144
▁eccentric	-13145
▁essential	-13146
▁finishing	-13147
▁formality	-13148
▁frightens	-13149
▁heartless	-13150
▁injustice	-13151
▁jewellery	-13152
▁officials	-13153
▁overheard	-13154
▁passenger	-13155
▁premature	-13156
▁rebellion	-13157
▁specialty	-13158
▁strangely	-13159
▁swallowed	-13160
▁territory	-13161
▁underwear	-13162
▁upsetting	-13163
▁whistling	-13164
Commentator	-13165
▁EVERYTHING	-13166
▁Escarpment	-13167
▁University	-13168
▁acquainted	-13169
▁celebrated	-13170
▁communists	-13171
▁convenient	-13172
▁correspond	-13173
▁difficulty	-13174
▁discussion	-13175
▁employment	-13176
▁eventually	-13177
▁generation	-13178
▁generosity	-13179
▁gloriously	-13180
▁hypocrites	-13181
▁inevitable	-13182
▁kidnapping	-13183
▁legitimate	-13184
▁mechanical	-13185
▁prohibited	-13186
▁rehearsing	-13187
▁represents	-13188
▁sacrificed	-13189
▁settlement	-13190
▁specialist	-13191
▁surprising	-13192
▁travelling	-13193
▁victorious	-13194
▁Cloisterham	-13195
▁Continental	-13196
▁Furthermore	-13197
▁Himmelstoss	-13198
▁Rothschilds	-13199
▁considering	-13200
▁destination	-13201
▁development	-13202
▁engineering	-13203
▁established	-13204
▁hairdresser	-13205
▁hospitality	-13206
▁instruments	-13207
▁interfering	-13208
▁intolerable	-13209
▁manufacture	-13210
▁proletariat	-13211
▁recommended	-13212
▁regulations	-13213
▁resemblance	-13214
▁Escartefigue	-13215
▁Headquarters	-13216
▁Reichsleiter	-13217
▁announcement	-13218
▁indiscretion	-13219
▁introduction	-13220
▁organisation	-13221
▁photographer	-13222
▁straightened	-13223
▁supernatural	-13224
▁Extraordinary	-13225
▁Leibstandarte	-13226
▁collaboration	-13227
▁establishment	-13228
▁superstitious	-13229
▁Cinematography	-13230
▁representative	-13231
55	-13232
6?	-13233
AV	-13234
BR	-13235
EK	-13236
En	-13237
Hi	-13238
IB	-13239
IP	-13240
MY	-13241
Pe	-13242
ca	-13243
je	-13244
ju	-13245
tu	-13246
yo	-13247
--?	-13248
-0.	-13249
800	-13250
ACT	-13251
ARE	-13252
AUT	-13253
EAH	-13254
Her	-13255
IED	-13256
ILD	-13257
ISS	-13258
Law	-13259
MOR	-13260
URA	-13261
War	-13262
ape	-13263
arz	-13264
aug	-13265
bod	-13266
enc	-13267
eny	-13268
equ	-13269
eur	-13270
gal	-13271
hot	-13272
hoz	-13273
iac	-13274
imp	-13275
ité	-13276
lad	-13277
lap	-13278
lim	-13279
may	-13280
mma	-13281
mps	-13282
net	-13283
ngr	-13284
nyj	-13285
oly	-13286
ooh	-13287
opf	-13288
sto	-13289
uds	-13290
vol	-13291
zes	-13292
▁"'	-13293
▁3:	-13294
▁41	-13295
▁65	-13296
▁Av	-13297
▁IV	-13298
▁JO	-13299
▁JU	-13300
▁mm	-13301
▁mr	-13302
▁od	-13303
▁op	-13304
▁ou	-13305
▁vi	-13306
▁wo	-13307
Fine	-13308
Help	-13309
Jean	-13310
Kill	-13311
Like	-13312
MENT	-13313
VING	-13314
acts	-13315
alry	-13316
amel	-13317
arms	-13318
chay	-13319
dens	-13320
dorf	-13321
ells	-13322
emar	-13323
escu	-13324
free	-13325
furt	-13326
ggle	-13327
hama	-13328
htar	-13329
iami	-13330
ieth	-13331
igge	-13332
illo	-13333
inen	-13334
inka	-13335
ione	-13336
isse	-13337
itzi	-13338
iuta	-13339
kela	-13340
lich	-13341
life	-13342
lona	-13343
lors	-13344
lsea	-13345
mart	-13346
mert	-13347
mons	-13348
mous	-13349
nuts	-13350
ocks	-13351
omer	-13352
omic	-13353
opol	-13354
orge	-13355
osia	-13356
raff	-13357
rase	-13358
rien	-13359
stan	-13360
they	-13361
ucha	-13362
ucks	-13363
uine	-13364
ullo	-13365
urse	-13366
weet	-13367
▁11,	-13368
▁22.	-13369
▁30.	-13370
▁Amy	-13371
▁Arc	-13372
▁Bac	-13373
▁Beg	-13374
▁Bre	-13375
▁CHE	-13376
▁CRO	-13377
▁Chr	-13378
▁Cop	-13379
▁DAY	-13380
▁Fon	-13381
▁HAD	-13382
▁HUH	-13383
▁Hat	-13384
▁Hob	-13385
▁Lot	-13386
▁Lum	-13387
▁Mid	-13388
▁Mod	-13389
▁Mou	-13390
▁Occ	-13391
▁Pas	-13392
▁SEC	-13393
▁Tol	-13394
▁Wey	-13395
▁Zin	-13396
▁auf	-13397
▁byg	-13398
▁cul	-13399
▁dun	-13400
▁fou	-13401
▁fru	-13402
▁jug	-13403
▁mig	-13404
▁mum	-13405
▁ram	-13406
▁rib	-13407
▁sip	-13408
▁tan	-13409
▁ted	-13410
ARDON	-13411
After	-13412
Quiet	-13413
acity	-13414
agirl	-13415
ainey	-13416
aiser	-13417
akudo	-13418
anges	-13419
ashka	-13420
atism	-13421
bread	-13422
ceive	-13423
chard	-13424
chior	-13425
choly	-13426
eered	-13427
erton	-13428
ether	-13429
faith	-13430
fatti	-13431
found	-13432
ggers	-13433
hibit	-13434
iator	-13435
iceps	-13436
ichee	-13437
igher	-13438
imely	-13439
imoto	-13440
inine	-13441
iress	-13442
irner	-13443
itano	-13444
itent	-13445
itsch	-13446
ivity	-13447
kerel	-13448
nered	-13449
nings	-13450
occup	-13451
ochek	-13452
oisin	-13453
onger	-13454
osaur	-13455
ossom	-13456
oston	-13457
proof	-13458
ranny	-13459
rants	-13460
rease	-13461
selmo	-13462
seven	-13463
stage	-13464
stery	-13465
tress	-13466
ultan	-13467
vonne	-13468
wreck	-13469
▁$100	-13470
▁....	-13471
▁2...	-13472
▁500.	-13473
▁7:00	-13474
▁9:00	-13475
▁Ahoy	-13476
▁Alda	-13477
▁Avon	-13478
▁Away	-13479
▁Bear	-13480
▁Belg	-13481
▁Bess	-13482
▁Boat	-13483
▁Bous	-13484
▁Bran	-13485
▁CAME	-13486
▁CERT	-13487
▁Cind	-13488
▁Cold	-13489
▁Cool	-13490
▁Coss	-13491
▁DEAD	-13492
▁Dean	-13493
▁Diam	-13494
▁Draw	-13495
▁Dunk	-13496
▁Emmy	-13497
▁Flat	-13498
▁Gall	-13499
▁HOUR	-13500
▁Hess	-13501
▁Jiro	-13502
▁Laus	-13503
▁Mord	-13504
▁OVER	-13505
▁Ours	-13506
▁Pant	-13507
▁Rail	-13508
▁Rasp	-13509
▁SEND	-13510
▁Shot	-13511
▁Sick	-13512
▁Snap	-13513
▁Sort	-13514
▁Swim	-13515
▁Told	-13516
▁Vald	-13517
▁Whoo	-13518
▁YEAH	-13519
▁abom	-13520
▁acad	-13521
▁cafe	-13522
▁cler	-13523
▁deer	-13524
▁dise	-13525
▁dove	-13526
▁ecst	-13527
▁egot	-13528
▁empt	-13529
▁fist	-13530
▁fork	-13531
▁fren	-13532
▁gaze	-13533
▁grie	-13534
▁grub	-13535
▁halt	-13536
▁heap	-13537
▁heav	-13538
▁heed	-13539
▁hush	-13540
▁indu	-13541
▁irre	-13542
▁jagu	-13543
▁kolk	-13544
▁lily	-13545
▁lime	-13546
▁lump	-13547
▁masc	-13548
▁monk	-13549
▁muck	-13550
▁mule	-13551
▁nail	-13552
▁pett	-13553
▁pork	-13554
▁pupp	-13555
▁purs	-13556
▁rash	-13557
▁rays	-13558
▁reef	-13559
▁shat	-13560
▁shin	-13561
▁slay	-13562
▁slim	-13563
▁stim	-13564
▁sund	-13565
▁tide	-13566
▁tops	-13567
▁tore	-13568
▁wage	-13569
▁wept	-13570
▁wing	-13571
▁wink	-13572
ETHING	-13573
ambled	-13574
ancies	-13575
arzade	-13576
asurer	-13577
asures	-13578
auffen	-13579
bourne	-13580
celona	-13581
cierge	-13582
cluded	-13583
coming	-13584
endant	-13585
erning	-13586
gotten	-13587
hantom	-13588
hedule	-13589
iction	-13590
ifters	-13591
iskopf	-13592
ithmet	-13593
ittens	-13594
ivable	-13595
ivated	-13596
izarre	-13597
lawney	-13598
merick	-13599
nowitz	-13600
ologne	-13601
opatra	-13602
ophile	-13603
ouston	-13604
ranada	-13605
ridges	-13606
strong	-13607
ulsion	-13608
ulsive	-13609
umbled	-13610
ypsies	-13611
▁1:00.	-13612
▁3,000	-13613
▁Alive	-13614
▁Andri	-13615
▁Basil	-13616
▁Block	-13617
▁Borgo	-13618
▁Bread	-13619
▁Bruel	-13620
▁Clare	-13621
▁Coast	-13622
▁Doyle	-13623
▁Drunk	-13624
▁Early	-13625
▁Garbo	-13626
▁Gonna	-13627
▁Gotta	-13628
▁Gypsy	-13629
▁Harve	-13630
▁Hitch	-13631
▁Inter	-13632
▁Karol	-13633
▁LIGHT	-13634
▁Lizzy	-13635
▁Lucia	-13636
▁Mamie	-13637
▁Marga	-13638
▁Marks	-13639
▁Marty	-13640
▁Miami	-13641
▁Miche	-13642
▁Mingo	-13643
▁Mitja	-13644
▁Mitzi	-13645
▁Mérin	-13646
▁Ouran	-13647
▁PAINT	-13648
▁Paolo	-13649
▁Plant	-13650
▁Proud	-13651
▁Rabbi	-13652
▁Roger	-13653
▁Rouge	-13654
▁Sandy	-13655
▁Shake	-13656
▁Spade	-13657
▁Storm	-13658
▁Story	-13659
▁Symph	-13660
▁Tomio	-13661
▁Tower	-13662
▁Truly	-13663
▁Worms	-13664
▁Worth	-13665
▁Yorks	-13666
▁Zosia	-13667
▁baths	-13668
▁booth	-13669
▁breed	-13670
▁brick	-13671
▁brows	-13672
▁buggy	-13673
▁burns	-13674
▁burnt	-13675
▁carav	-13676
▁chaos	-13677
▁cleve	-13678
▁clubs	-13679
▁couch	-13680
▁crawl	-13681
▁crust	-13682
▁deary	-13683
▁decks	-13684
▁depth	-13685
▁dolls	-13686
▁fiver	-13687
▁flags	-13688
▁fling	-13689
▁forms	-13690
▁fount	-13691
▁frame	-13692
▁golly	-13693
▁grade	-13694
▁gross	-13695
▁heath	-13696
▁hered	-13697
▁hoodl	-13698
▁infam	-13699
▁infer	-13700
▁initi	-13701
▁jigge	-13702
▁linen	-13703
▁maker	-13704
▁melan	-13705
▁miner	-13706
▁miser	-13707
▁naive	-13708
▁optim	-13709
▁pearl	-13710
▁petty	-13711
▁pilot	-13712
▁pulse	-13713
▁reads	-13714
▁reign	-13715
▁scent	-13716
▁scorn	-13717
▁seize	-13718
▁shade	-13719
▁sheer	-13720
▁sixth	-13721
▁skies	-13722
▁skull	-13723
▁slice	-13724
▁snore	-13725
▁spank	-13726
▁stump	-13727
▁stung	-13728
▁swift	-13729
▁tenth	-13730
▁towel	-13731
▁union	-13732
▁weird	-13733
▁whelp	-13734
▁wires	-13735
abbling	-13736
ambling	-13737
anthrop	-13738
asteful	-13739
aterina	-13740
berries	-13741
fection	-13742
gaarden	-13743
iversal	-13744
knowing	-13745
loading	-13746
mertnyj	-13747
ordeaux	-13748
▁12:00.	-13749
▁ASLEEP	-13750
▁Achmed	-13751
▁Alaska	-13752
▁Angelo	-13753
▁Aniuta	-13754
▁Behave	-13755
▁Benett	-13756
▁Bertie	-13757
▁Boston	-13758
▁Bredis	-13759
▁Briggs	-13760
▁Castle	-13761
▁Ceylon	-13762
▁Clever	-13763
▁Clopin	-13764
▁Course	-13765
▁Danger	-13766
▁Ejvind	-13767
▁Empire	-13768
▁Hansen	-13769
▁Harris	-13770
▁Hungry	-13771
▁Hutter	-13772
▁Ishtar	-13773
▁Jersey	-13774
▁Jewish	-13775
▁Jimmie	-13776
▁Julius	-13777
▁Killed	-13778
▁Kindly	-13779
▁Laurin	-13780
▁Lepics	-13781
▁Lichee	-13782
▁MATTER	-13783
▁McLEAN	-13784
▁Munich	-13785
▁Nature	-13786
▁Newman	-13787
▁Orders	-13788
▁PARDON	-13789
▁Pashka	-13790
▁Phooey	-13791
▁Prague	-13792
▁Return	-13793
▁Ronnie	-13794
▁SEARCH	-13795
▁Sedley	-13796
▁Settat	-13797
▁Smiley	-13798
▁Spirit	-13799
▁Squire	-13800
▁Stanis	-13801
▁Voisin	-13802
▁WOULDN	-13803
▁Weasel	-13804
▁absent	-13805
▁allows	-13806
▁amazed	-13807
▁annual	-13808
▁apples	-13809
▁autumn	-13810
▁awaken	-13811
▁barred	-13812
▁beggar	-13813
▁biceps	-13814
▁blades	-13815
▁boxing	-13816
▁bureau	-13817
▁bushes	-13818
▁calmly	-13819
▁cannib	-13820
▁chased	-13821
▁cleans	-13822
▁corpus	-13823
▁cracks	-13824
▁decree	-13825
▁device	-13826
▁dobbin	-13827
▁donkey	-13828
▁elixir	-13829
▁enamel	-13830
▁endure	-13831
▁enters	-13832
▁errand	-13833
▁exceed	-13834
▁exempl	-13835
▁extend	-13836
▁feared	-13837
▁fisher	-13838
▁freeze	-13839
▁gained	-13840
▁garlic	-13841
▁gendar	-13842
▁gloomy	-13843
▁grudge	-13844
▁hammer	-13845
▁images	-13846
▁insect	-13847
▁larger	-13848
▁learns	-13849
▁legacy	-13850
▁longed	-13851
▁narcot	-13852
▁nurses	-13853
▁option	-13854
▁paints	-13855
▁parson	-13856
▁partis	-13857
▁patrol	-13858
▁perpet	-13859
▁phrase	-13860
▁picket	-13861
▁rarely	-13862
▁reduce	-13863
▁refres	-13864
▁repent	-13865
▁resort	-13866
▁richer	-13867
▁script	-13868
▁seduce	-13869
▁series	-13870
▁skiing	-13871
▁smiles	-13872
▁smoked	-13873
▁smokes	-13874
▁soaked	-13875
▁spoons	-13876
▁sticks	-13877
▁stinks	-13878
▁storms	-13879
▁strait	-13880
▁suffoc	-13881
▁summon	-13882
▁superv	-13883
▁tiring	-13884
▁tomato	-13885
▁tossed	-13886
▁tribes	-13887
▁undert	-13888
▁unlike	-13889
▁valves	-13890
▁weaken	-13891
▁wedded	-13892
Laughing	-13893
Remember	-13894
Speaking	-13895
appropri	-13896
faithful	-13897
▁Academy	-13898
▁Adolphe	-13899
▁Anselmo	-13900
▁Assault	-13901
▁Auguste	-13902
▁Awfully	-13903
▁Baronet	-13904
▁Blainey	-13905
▁Blossom	-13906
▁Bridget	-13907
▁Buffalo	-13908
▁Celeste	-13909
▁Chelsea	-13910
▁Dragore	-13911
▁Drayton	-13912
▁Duchess	-13913
▁Duvalle	-13914
▁Earlier	-13915
▁Forever	-13916
▁Frankly	-13917
▁Holland	-13918
▁Houston	-13919
▁Jackson	-13920
▁Koskela	-13921
▁Leonora	-13922
▁Madelon	-13923
▁Married	-13924
▁Monescu	-13925
▁Nicolas	-13926
▁Nikolai	-13927
▁Private	-13928
▁Sabbath	-13929
▁Sachiko	-13930
▁Special	-13931
▁THOUGHT	-13932
▁TONIGHT	-13933
▁Traitor	-13934
▁Twofold	-13935
▁Wallace	-13936
▁Yoshiki	-13937
▁antique	-13938
▁anxiety	-13939
▁balloon	-13940
▁barrier	-13941
▁bearing	-13942
▁blessed	-13943
▁blondes	-13944
▁cancell	-13945
▁capture	-13946
▁carrots	-13947
▁chatter	-13948
▁chopper	-13949
▁columns	-13950
▁compare	-13951
▁compens	-13952
▁confide	-13953
▁convert	-13954
▁cooking	-13955
▁council	-13956
▁counted	-13957
▁cracked	-13958
▁customs	-13959
▁cynical	-13960
▁discour	-13961
▁doubled	-13962
▁dresser	-13963
▁emperor	-13964
▁fitting	-13965
▁founded	-13966
▁genuine	-13967
▁grabbed	-13968
▁gymnast	-13969
▁hardest	-13970
▁heathen	-13971
▁heiress	-13972
▁hideous	-13973
▁inhabit	-13974
▁insults	-13975
▁intense	-13976
▁kiddies	-13977
▁liberal	-13978
▁lightly	-13979
▁lottery	-13980
▁lullaby	-13981
▁oneself	-13982
▁oranges	-13983
▁parcels	-13984
▁pettico	-13985
▁phoning	-13986
▁plaster	-13987
▁regrets	-13988
▁rescued	-13989
▁sadness	-13990
▁sausage	-13991
▁savages	-13992
▁seeking	-13993
▁seventh	-13994
▁shaving	-13995
▁shoving	-13996
▁sneaked	-13997
▁stretch	-13998
▁sublime	-13999
▁tearing	-14000
▁thanked	-14001
▁tickled	-14002
▁tighter	-14003
▁trumpet	-14004
▁utterly	-14005
▁various	-14006
▁venture	-14007
intendent	-14008
ngrateful	-14009
▁Bouschay	-14010
▁Chairman	-14011
▁Chinaman	-14012
▁Columbus	-14013
▁Continue	-14014
▁HAPPENED	-14015
▁Herminie	-14016
▁Honorine	-14017
▁Isabelle	-14018
▁Juliette	-14019
▁Jurakudo	-14020
▁Lausanne	-14021
▁Marinier	-14022
▁Melchior	-14023
▁Mistress	-14024
▁Mordaunt	-14025
▁REMEMBER	-14026
▁Schluter	-14027
▁Symphony	-14028
▁Thinking	-14029
▁Valdemar	-14030
▁Weiskopf	-14031
▁Yokohama	-14032
▁Zerfatti	-14033
▁accommod	-14034
▁airplane	-14035
▁ambition	-14036
▁american	-14037
▁applause	-14038
▁blooming	-14039
▁burglars	-14040
▁burglary	-14041
▁calendar	-14042
▁chatting	-14043
▁clothing	-14044
▁clowning	-14045
▁compound	-14046
▁conflict	-14047
▁conquest	-14048
▁contempt	-14049
▁downtown	-14050
▁dropping	-14051
▁drowning	-14052
▁employed	-14053
▁employee	-14054
▁figuring	-14055
▁fortunes	-14056
▁goldfish	-14057
▁grenades	-14058
▁homicide	-14059
▁identity	-14060
▁imprison	-14061
▁impudent	-14062
▁inconven	-14063
▁increase	-14064
▁indecent	-14065
▁interrog	-14066
▁jiggered	-14067
▁komsomol	-14068
▁mackerel	-14069
▁magazine	-14070
▁managing	-14071
▁manifest	-14072
▁notebook	-14073
▁poisoned	-14074
▁polished	-14075
▁preacher	-14076
▁preserve	-14077
▁promoted	-14078
▁reaction	-14079
▁recorded	-14080
▁rejected	-14081
▁renowned	-14082
▁repeated	-14083
▁replaced	-14084
▁reproach	-14085
▁revealed	-14086
▁scarcely	-14087
▁smelling	-14088
▁solitude	-14089
▁spilling	-14090
▁spinning	-14091
▁startled	-14092
▁strongly	-14093
▁superior	-14094
▁symptoms	-14095
▁theories	-14096
▁transfer	-14097
▁underest	-14098
▁untimely	-14099
▁vicarage	-14100
▁virtuous	-14101
Everything	-14102
chattering	-14103
▁Barcelona	-14104
▁Blackmail	-14105
▁Brazilian	-14106
▁Chicolini	-14107
▁Cleopatra	-14108
▁Frankfurt	-14109
▁Karlovich	-14110
▁Kemmerick	-14111
▁Louisiana	-14112
▁Melbourne	-14113
▁Pavlovich	-14114
▁SOMETHING	-14115
▁Salvation	-14116
▁Shinkichi	-14117
▁Theophile	-14118
▁Treasurer	-14119
▁Trelawney	-14120
▁Wallstein	-14121
▁Yorkshire	-14122
▁Zinnowitz	-14123
▁accidents	-14124
▁apologise	-14125
▁artillery	-14126
▁assembled	-14127
▁attacking	-14128
▁bewitched	-14129
▁bodyguard	-14130
▁boulevard	-14131
▁carpenter	-14132
▁conceited	-14133
▁conductor	-14134
▁contracts	-14135
▁convicted	-14136
▁dancehall	-14137
▁decorated	-14138
▁described	-14139
▁discharge	-14140
▁distribut	-14141
▁exercises	-14142
▁explosion	-14143
▁financial	-14144
▁fireworks	-14145
▁furnished	-14146
▁horseback	-14147
▁hospitals	-14148
▁hypocrite	-14149
▁instantly	-14150
▁instincts	-14151
▁interpret	-14152
▁loveliest	-14153
▁mercenary	-14154
▁mushrooms	-14155
▁permanent	-14156
▁poisoning	-14157
▁potential	-14158
▁practical	-14159
▁pronounce	-14160
▁separated	-14161
▁shipwreck	-14162
▁telegraph	-14163
▁threatens	-14164
▁villagers	-14165
▁waterfall	-14166
▁whispered	-14167
▁Personally	-14168
▁accomplish	-14169
▁accustomed	-14170
▁addressing	-14171
▁admiration	-14172
▁aristocrat	-14173
▁assignment	-14174
▁benefactor	-14175
▁concerning	-14176
▁contradict	-14177
▁countrymen	-14178
▁deplorable	-14179
▁enterprise	-14180
▁explaining	-14181
▁flattering	-14182
▁frequently	-14183
▁honourable	-14184
▁instrument	-14185
▁journalist	-14186
▁kilometers	-14187
▁melancholy	-14188
▁microphone	-14189
▁nightshirt	-14190
▁objections	-14191
▁officially	-14192
▁percentage	-14193
▁persistent	-14194
▁phenomenon	-14195
▁practicing	-14196
▁registered	-14197
▁struggling	-14198
▁superhuman	-14199
▁supporting	-14200
▁suspicions	-14201
▁thoughtful	-14202
▁unfaithful	-14203
▁Bartholomew	-14204
▁Bessmertnyj	-14205
▁Glomgaarden	-14206
▁accompanied	-14207
▁battlefield	-14208
▁combination	-14209
▁communicate	-14210
▁consolation	-14211
▁distasteful	-14212
▁frightening	-14213
▁furthermore	-14214
▁generations	-14215
▁gingerbread	-14216
▁handwriting	-14217
▁impertinent	-14218
▁indigestion	-14219
▁invitations	-14220
▁millionaire	-14221
▁obligations	-14222
▁observation	-14223
▁permanently	-14224
▁questioning	-14225
▁unconscious	-14226
▁Alekseyevich	-14227
▁Broadcasting	-14228
▁broadcasting	-14229
▁considerable	-14230
▁exaggerating	-14231
▁interruption	-14232
▁overwhelming	-14233
▁presentation	-14234
▁International	-14235
▁consciousness	-14236
▁administration	-14237
25	-14238
3,	-14239
40	-14240
By	-14241
CY	-14242
GR	-14243
KN	-14244
PR	-14245
Pr	-14246
TY	-14247
ii	-14248
ln	-14249
sn	-14250
40.	-14251
ANA	-14252
Att	-14253
Bar	-14254
CUL	-14255
Coe	-14256
ESE	-14257
IEF	-14258
IGH	-14259
ISA	-14260
ITS	-14261
LES	-14262
OKE	-14263
PED	-14264
Pro	-14265
Sat	-14266
Sch	-14267
URR	-14268
USE	-14269
USS	-14270
acz	-14271
ala	-14272
ami	-14273
asm	-14274
auc	-14275
bid	-14276
bra	-14277
bru	-14278
cap	-14279
cks	-14280
cus	-14281
egr	-14282
erv	-14283
gie	-14284
haw	-14285
iqu	-14286
irm	-14287
jor	-14288
jut	-14289
kis	-14290
lay	-14291
lit	-14292
nec	-14293
nov	-14294
pot	-14295
ppe	-14296
psy	-14297
put	-14298
run	-14299
rup	-14300
see	-14301
tie	-14302
vna	-14303
▁(?	-14304
▁00	-14305
▁1.	-14306
▁36	-14307
▁4.	-14308
▁42	-14309
▁51	-14310
▁52	-14311
▁7,	-14312
▁72	-14313
▁9.	-14314
▁BO	-14315
▁GL	-14316
▁IM	-14317
▁SM	-14318
▁SQ	-14319
▁Ts	-14320
▁Tu	-14321
▁ln	-14322
▁pf	-14323
3...	-14324
AIRS	-14325
ANCE	-14326
Avit	-14327
CTED	-14328
CUFF	-14329
CUSE	-14330
ENCH	-14331
Film	-14332
ISTS	-14333
LESS	-14334
Legs	-14335
Meet	-14336
OLOG	-14337
ONEY	-14338
PECT	-14339
REAM	-14340
REAT	-14341
REED	-14342
RING	-14343
SDAP	-14344
VICE	-14345
anca	-14346
ando	-14347
anim	-14348
anqu	-14349
ario	-14350
aved	-14351
bino	-14352
boys	-14353
burn	-14354
cend	-14355
club	-14356
cont	-14357
corn	-14358
dent	-14359
dled	-14360
enza	-14361
eous	-14362
eton	-14363
gerd	-14364
gery	-14365
ggin	-14366
girl	-14367
hens	-14368
heum	-14369
ieck	-14370
imey	-14371
inqu	-14372
ldom	-14373
lets	-14374
leum	-14375
lled	-14376
loyd	-14377
made	-14378
maid	-14379
mark	-14380
mble	-14381
mill	-14382
oire	-14383
olfo	-14384
ombi	-14385
oral	-14386
otes	-14387
othe	-14388
oufl	-14389
ousy	-14390
oves	-14391
ovie	-14392
oyal	-14393
pass	-14394
prit	-14395
pton	-14396
rols	-14397
sene	-14398
some	-14399
spot	-14400
star	-14401
tbre	-14402
thel	-14403
tree	-14404
unal	-14405
urdy	-14406
urem	-14407
vard	-14408
vial	-14409
vili	-14410
▁$1.	-14411
▁$20	-14412
▁15,	-14413
▁17,	-14414
▁20,	-14415
▁201	-14416
▁71.	-14417
▁ASK	-14418
▁ATT	-14419
▁Abd	-14420
▁Add	-14421
▁BAR	-14422
▁BET	-14423
▁BIG	-14424
▁Bit	-14425
▁Cra	-14426
▁Cru	-14427
▁DES	-14428
▁DIS	-14429
▁Der	-14430
▁Dog	-14431
▁Edu	-14432
▁Hay	-14433
▁Hop	-14434
▁Ivy	-14435
▁Jay	-14436
▁Lia	-14437
▁Lut	-14438
▁MAK	-14439
▁MAY	-14440
▁Mas	-14441
▁NEW	-14442
▁Ner	-14443
▁Ney	-14444
▁Nin	-14445
▁Non	-14446
▁Odd	-14447
▁Oft	-14448
▁Ori	-14449
▁PAY	-14450
▁PUT	-14451
▁QUI	-14452
▁Rac	-14453
▁Ref	-14454
▁Rid	-14455
▁SUP	-14456
▁Tot	-14457
▁Tus	-14458
▁Vin	-14459
▁Zar	-14460
▁ash	-14461
▁bac	-14462
▁ber	-14463
▁bez	-14464
▁bri	-14465
▁dil	-14466
▁dip	-14467
▁doo	-14468
▁dum	-14469
▁ego	-14470
▁err	-14471
▁flu	-14472
▁gle	-14473
▁icy	-14474
▁lav	-14475
▁nav	-14476
▁nob	-14477
▁pac	-14478
▁pau	-14479
▁sty	-14480
▁tsk	-14481
▁tun	-14482
▁tux	-14483
▁ups	-14484
▁vel	-14485
▁viv	-14486
AINLY	-14487
Coeur	-14488
Guyon	-14489
ISTEN	-14490
Sorry	-14491
These	-14492
Woman	-14493
aczik	-14494
aired	-14495
anded	-14496
andem	-14497
anium	-14498
asphe	-14499
bones	-14500
carat	-14501
cards	-14502
cules	-14503
esten	-14504
faced	-14505
feldt	-14506
force	-14507
gence	-14508
holic	-14509
ierra	-14510
igret	-14511
illet	-14512
incer	-14513
inery	-14514
iseva	-14515
jorie	-14516
knock	-14517
lette	-14518
levna	-14519
mates	-14520
nette	-14521
omile	-14522
onial	-14523
ooded	-14524
ooley	-14525
ooned	-14526
orted	-14527
plets	-14528
ppled	-14529
raine	-14530
retch	-14531
rific	-14532
state	-14533
ulses	-14534
venir	-14535
yards	-14536
▁0.03	-14537
▁3:45	-14538
▁AREN	-14539
▁Abra	-14540
▁Anka	-14541
▁Anto	-14542
▁Cart	-14543
▁Code	-14544
▁Cors	-14545
▁Deep	-14546
▁Dish	-14547
▁Dist	-14548
▁Doll	-14549
▁Duty	-14550
▁Edel	-14551
▁Edna	-14552
▁Evac	-14553
▁FREE	-14554
▁Foix	-14555
▁Frou	-14556
▁Fuck	-14557
▁Gang	-14558
▁Gren	-14559
▁HALF	-14560
▁Halt	-14561
▁Hill	-14562
▁Hugo	-14563
▁JOHN	-14564
▁Joli	-14565
▁KIND	-14566
▁Kick	-14567
▁Kids	-14568
▁Kurt	-14569
▁LAUR	-14570
▁LISA	-14571
▁LONG	-14572
▁Leid	-14573
▁Lena	-14574
▁Lois	-14575
▁MORN	-14576
▁MOST	-14577
▁Mail	-14578
▁Mild	-14579
▁Mong	-14580
▁NEED	-14581
▁Navy	-14582
▁PART	-14583
▁PASS	-14584
▁PRES	-14585
▁Palm	-14586
▁Ping	-14587
▁Plan	-14588
▁Plat	-14589
▁Plus	-14590
▁Pole	-14591
▁Rave	-14592
▁Ruby	-14593
▁Rush	-14594
▁SHOW	-14595
▁Serg	-14596
▁Shan	-14597
▁Slum	-14598
▁TELE	-14599
▁Test	-14600
▁Tina	-14601
▁Tiny	-14602
▁Vera	-14603
▁WEEK	-14604
▁Wife	-14605
▁Wine	-14606
▁Zanz	-14607
▁ache	-14608
▁amid	-14609
▁ante	-14610
▁aver	-14611
▁bait	-14612
▁baza	-14613
▁bees	-14614
▁bids	-14615
▁bind	-14616
▁brew	-14617
▁burg	-14618
▁cant	-14619
▁caps	-14620
▁chew	-14621
▁coin	-14622
▁coup	-14623
▁daff	-14624
▁dime	-14625
▁embe	-14626
▁enqu	-14627
▁fain	-14628
▁flab	-14629
▁flow	-14630
▁funn	-14631
▁garb	-14632
▁gigg	-14633
▁glam	-14634
▁grad	-14635
▁gram	-14636
▁gull	-14637
▁gunp	-14638
▁hare	-14639
▁hens	-14640
▁hits	-14641
▁lent	-14642
▁lice	-14643
▁limb	-14644
▁lire	-14645
▁loaf	-14646
▁mask	-14647
▁melt	-14648
▁mend	-14649
▁mice	-14650
▁morn	-14651
▁moth	-14652
▁moxa	-14653
▁oint	-14654
▁outs	-14655
▁pled	-14656
▁plug	-14657
▁pole	-14658
▁pond	-14659
▁prim	-14660
▁raft	-14661
▁rags	-14662
▁roam	-14663
▁scru	-14664
▁secl	-14665
▁sill	-14666
▁sway	-14667
▁toys	-14668
▁tram	-14669
▁uses	-14670
▁vast	-14671
▁wilt	-14672
▁wits	-14673
CKLACE	-14674
Cheers	-14675
Forget	-14676
MORROW	-14677
abella	-14678
aganda	-14679
allion	-14680
anches	-14681
arming	-14682
before	-14683
bishop	-14684
broise	-14685
bruary	-14686
called	-14687
chenko	-14688
ckered	-14689
closed	-14690
eleine	-14691
encing	-14692
ennigs	-14693
erella	-14694
ernity	-14695
erskir	-14696
iberia	-14697
icates	-14698
ighter	-14699
illing	-14700
imated	-14701
inable	-14702
isfied	-14703
istice	-14704
itated	-14705
izable	-14706
jutant	-14707
ledged	-14708
levich	-14709
liness	-14710
making	-14711
ouring	-14712
ournal	-14713
quered	-14714
rietor	-14715
soever	-14716
utches	-14717
velles	-14718
weight	-14719
▁4,000	-14720
▁9:00.	-14721
▁Above	-14722
▁Addie	-14723
▁Albin	-14724
▁Awful	-14725
▁BEAUT	-14726
▁Bevis	-14727
▁Cabin	-14728
▁Carab	-14729
▁Chico	-14730
▁Davis	-14731
▁Diego	-14732
▁Elsie	-14733
▁Emily	-14734
▁Ethel	-14735
▁FRONT	-14736
▁Falls	-14737
▁Fedor	-14738
▁Fishl	-14739
▁GUARD	-14740
▁Gabby	-14741
▁Gener	-14742
▁Gustl	-14743
▁Hallo	-14744
▁Heath	-14745
▁Heids	-14746
▁Hoyos	-14747
▁Jason	-14748
▁Jorge	-14749
▁Juana	-14750
▁Kaney	-14751
▁Karin	-14752
▁LEAVE	-14753
▁Lloyd	-14754
▁Loyal	-14755
▁MARKS	-14756
▁MIGHT	-14757
▁MONEY	-14758
▁Maxim	-14759
▁Mizzi	-14760
▁NSDAP	-14761
▁Nucki	-14762
▁Nurem	-14763
▁Peake	-14764
▁Ridge	-14765
▁Robin	-14766
▁Satan	-14767
▁Screw	-14768
▁Scrum	-14769
▁Snake	-14770
▁Spark	-14771
▁Spree	-14772
▁Squad	-14773
▁Steal	-14774
▁Straw	-14775
▁Taupo	-14776
▁Tonin	-14777
▁Trans	-14778
▁Wants	-14779
▁Whist	-14780
▁Witch	-14781
▁Years	-14782
▁abbey	-14783
▁added	-14784
▁angle	-14785
▁ankle	-14786
▁annul	-14787
▁anony	-14788
▁areas	-14789
▁bites	-14790
▁blade	-14791
▁bloom	-14792
▁brass	-14793
▁brawn	-14794
▁calam	-14795
▁choir	-14796
▁cliff	-14797
▁creep	-14798
▁curly	-14799
▁dealt	-14800
▁delic	-14801
▁docks	-14802
▁drain	-14803
▁eaves	-14804
▁emily	-14805
▁finer	-14806
▁focus	-14807
▁illeg	-14808
▁incor	-14809
▁jelly	-14810
▁knots	-14811
▁lousy	-14812
▁melod	-14813
▁midst	-14814
▁mourn	-14815
▁ninth	-14816
▁nymph	-14817
▁pence	-14818
▁plots	-14819
▁pluck	-14820
▁rainy	-14821
▁resur	-14822
▁rheum	-14823
▁rises	-14824
▁ruled	-14825
▁sanct	-14826
▁sands	-14827
▁seeks	-14828
▁shark	-14829
▁sidew	-14830
▁slaps	-14831
▁spoon	-14832
▁stork	-14833
▁symph	-14834
▁takin	-14835
▁tease	-14836
▁thund	-14837
▁timid	-14838
▁token	-14839
▁torch	-14840
▁types	-14841
▁unity	-14842
▁unrel	-14843
▁vagab	-14844
▁winds	-14845
▁wiped	-14846
▁wired	-14847
▁wiser	-14848
▁witty	-14849
▁worms	-14850
Perhaps	-14851
aintiff	-14852
akovsky	-14853
ardines	-14854
astered	-14855
ciation	-14856
cracker	-14857
crossed	-14858
entieth	-14859
ewriter	-14860
ingerie	-14861
ishment	-14862
ortions	-14863
porters	-14864
respect	-14865
tbreese	-14866
ternich	-14867
vention	-14868
▁Arsene	-14869
▁Attack	-14870
▁Bannec	-14871
▁Beside	-14872
▁Breton	-14873
▁Burton	-14874
▁Champs	-14875
▁Choose	-14876
▁Consul	-14877
▁Damsky	-14878
▁Double	-14879
▁Downer	-14880
▁Dunlap	-14881
▁Entire	-14882
▁FRENCH	-14883
▁Family	-14884
▁Fifine	-14885
▁Finish	-14886
▁Flower	-14887
▁Gaboni	-14888
▁Gerald	-14889
▁Gloria	-14890
▁Hector	-14891
▁Henryk	-14892
▁Higher	-14893
▁Hispan	-14894
▁Honoré	-14895
▁Huguen	-14896
▁Joanie	-14897
▁Kesten	-14898
▁Kinsky	-14899
▁LIGHTS	-14900
▁Lochek	-14901
▁MYSELF	-14902
▁Marcal	-14903
▁Marion	-14904
▁Marley	-14905
▁Milord	-14906
▁Missed	-14907
▁Myself	-14908
▁Nation	-14909
▁Nearly	-14910
▁Odessa	-14911
▁Pirate	-14912
▁Plevna	-14913
▁Plombi	-14914
▁Praise	-14915
▁Prinny	-14916
▁Renoir	-14917
▁Rudolf	-14918
▁Sakuma	-14919
▁Samuel	-14920
▁Sandoz	-14921
▁Sergej	-14922
▁Signed	-14923
▁Sleepy	-14924
▁Slowly	-14925
▁Stolen	-14926
▁Theban	-14927
▁Villon	-14928
▁Yvonne	-14929
▁adored	-14930
▁agrees	-14931
▁altern	-14932
▁amused	-14933
▁angler	-14934
▁assass	-14935
▁barren	-14936
▁bearer	-14937
▁betrot	-14938
▁beware	-14939
▁bourge	-14940
▁busted	-14941
▁cheats	-14942
▁cheers	-14943
▁classy	-14944
▁clause	-14945
▁colour	-14946
▁compel	-14947
▁cooler	-14948
▁courts	-14949
▁cuckoo	-14950
▁dances	-14951
▁dearly	-14952
▁disple	-14953
▁divide	-14954
▁dreamt	-14955
▁dreary	-14956
▁eldest	-14957
▁engage	-14958
▁expose	-14959
▁floats	-14960
▁formed	-14961
▁futile	-14962
▁galley	-14963
▁gamble	-14964
▁garter	-14965
▁gently	-14966
▁grapes	-14967
▁hearty	-14968
▁holdup	-14969
▁hooray	-14970
▁hopped	-14971
▁hotter	-14972
▁humbly	-14973
▁immort	-14974
▁insign	-14975
▁issued	-14976
▁jaguar	-14977
▁joints	-14978
▁layout	-14979
▁locket	-14980
▁loudly	-14981
▁marvel	-14982
▁medium	-14983
▁menthe	-14984
▁motive	-14985
▁oblige	-14986
▁openly	-14987
▁parcel	-14988
▁pastry	-14989
▁poorly	-14990
▁popped	-14991
▁poster	-14992
▁praise	-14993
▁prompt	-14994
▁purely	-14995
▁racing	-14996
▁riches	-14997
▁rifles	-14998
▁rumour	-14999
▁sample	-15000
▁seldom	-15001
▁sherry	-15002
▁shiver	-15003
▁shores	-15004
▁slaves	-15005
▁snitch	-15006
▁sorted	-15007
▁sphere	-15008
▁stated	-15009
▁stingy	-15010
▁swiped	-15011
▁tasted	-15012
▁tastes	-15013
▁tellin	-15014
▁traced	-15015
▁trader	-15016
▁tranqu	-15017
▁trench	-15018
▁tricky	-15019
▁undead	-15020
▁unforg	-15021
Anything	-15022
Saturnin	-15023
crossing	-15024
eresting	-15025
ifferent	-15026
inhardis	-15027
ithmetic	-15028
izations	-15029
occupied	-15030
pensable	-15031
▁$20,000	-15032
▁Arrange	-15033
▁Bastard	-15034
▁Beckert	-15035
▁Boissel	-15036
▁Collins	-15037
▁Courage	-15038
▁DARLING	-15039
▁EVENING	-15040
▁Fingers	-15041
▁Gerasim	-15042
▁Hanging	-15043
▁January	-15044
▁Jealous	-15045
▁MORNING	-15046
▁Maigret	-15047
▁Marinka	-15048
▁Mildred	-15049
▁Mooring	-15050
▁Olympos	-15051
▁Peanuts	-15052
▁Present	-15053
▁Prussia	-15054
▁Renault	-15055
▁Rinaldo	-15056
▁Rodolfo	-15057
▁Rumfort	-15058
▁Serious	-15059
▁Shearer	-15060
▁Siberia	-15061
▁Skipper	-15062
▁Society	-15063
▁Somehow	-15064
▁Stirner	-15065
▁Theater	-15066
▁Tomasso	-15067
▁Torarin	-15068
▁Vincent	-15069
▁Whereas	-15070
▁Yvelles	-15071
▁Zerbino	-15072
▁airport	-15073
▁aroused	-15074
▁athlete	-15075
▁beastly	-15076
▁bedtime	-15077
▁bizarre	-15078
▁blasphe	-15079
▁bouquet	-15080
▁bravery	-15081
▁caution	-15082
▁ceremon	-15083
▁chateau	-15084
▁claimed	-15085
▁cleaner	-15086
▁condemn	-15087
▁confirm	-15088
▁console	-15089
▁creates	-15090
▁dangers	-15091
▁dashing	-15092
▁deceive	-15093
▁decides	-15094
▁deepest	-15095
▁designs	-15096
▁divided	-15097
▁doorway	-15098
▁drained	-15099
▁elderly	-15100
▁element	-15101
▁emerald	-15102
▁escapes	-15103
▁flowing	-15104
▁fragile	-15105
▁gallery	-15106
▁gardens	-15107
▁grandpa	-15108
▁greatly	-15109
▁haunted	-15110
▁heavily	-15111
▁herring	-15112
▁hostage	-15113
▁idiotic	-15114
▁induced	-15115
▁jitters	-15116
▁justify	-15117
▁kolkhoz	-15118
▁lawsuit	-15119
▁marquis	-15120
▁merrily	-15121
▁observe	-15122
▁pitiful	-15123
▁planted	-15124
▁plateau	-15125
▁plumber	-15126
▁precise	-15127
▁profits	-15128
▁provoke	-15129
▁rackete	-15130
▁rebuild	-15131
▁redhead	-15132
▁robbers	-15133
▁rocking	-15134
▁routine	-15135
▁scourge	-15136
▁signore	-15137
▁simpler	-15138
▁smelled	-15139
▁springs	-15140
▁squeeze	-15141
▁stables	-15142
▁storage	-15143
▁suffice	-15144
▁suitors	-15145
▁surgeon	-15146
▁swindle	-15147
▁swollen	-15148
▁trivial	-15149
▁unaware	-15150
▁vicious	-15151
▁wrapped	-15152
identally	-15153
ifference	-15154
itentiary	-15155
▁Ambroise	-15156
▁Bordeaux	-15157
▁Cabbages	-15158
▁Caterina	-15159
▁Congress	-15160
▁Corporal	-15161
▁Criminal	-15162
▁Edelgard	-15163
▁HANDCUFF	-15164
▁Hercules	-15165
▁Juraczik	-15166
▁Kohiseva	-15167
▁Laughing	-15168
▁Lucienne	-15169
▁Manfeldt	-15170
▁Marabout	-15171
▁Meerskir	-15172
▁Millions	-15173
▁Mulligan	-15174
▁NECKLACE	-15175
▁Officers	-15176
▁Personal	-15177
▁Petrovna	-15178
▁Pleasant	-15179
▁Scottish	-15180
▁Servando	-15181
▁Stepanov	-15182
▁TOMORROW	-15183
▁Upstairs	-15184
▁Vampires	-15185
▁apparent	-15186
▁assigned	-15187
▁baroness	-15188
▁bitterly	-15189
▁blinking	-15190
▁branches	-15191
▁cabbages	-15192
▁commands	-15193
▁concentr	-15194
▁consumed	-15195
▁crippled	-15196
▁designed	-15197
▁diseases	-15198
▁disguise	-15199
▁domestic	-15200
▁drawings	-15201
▁equality	-15202
▁evacuate	-15203
▁everyday	-15204
▁examples	-15205
▁expelled	-15206
▁extravag	-15207
▁fabulous	-15208
▁faintest	-15209
▁fountain	-15210
▁heavenly	-15211
▁homeless	-15212
▁inclined	-15213
▁infantry	-15214
▁isolated	-15215
▁lingerie	-15216
▁mattress	-15217
▁miracles	-15218
▁morality	-15219
▁notified	-15220
▁obedient	-15221
▁obtained	-15222
▁ordering	-15223
▁pancakes	-15224
▁pawnshop	-15225
▁pfennigs	-15226
▁provides	-15227
▁province	-15228
[...]
