<pad>	0
<unk>	0
<s>	0
</s>	0
▁t	-0
ou	-1
he	-2
▁a	-3
▁-	-4
то	-5
▁н	-6
in	-7
▁в	-8
▁п	-9
▁с	-10
re	-11
▁w	-12
▁I	-13
..	-14
▁s	-15
▁y	-16
ha	-17
▁m	-18
▁you	-19
on	-20
▁м	-21
▁the	-22
те	-23
ll	-24
er	-25
▁b	-26
ть	-27
ра	-28
ен	-29
▁о	-30
▁д	-31
▁d	-32
it	-33
▁не	-34
ро	-35
is	-36
го	-37
но	-38
▁по	-39
▁to	-40
▁c	-41
ing	-42
an	-43
ко	-44
▁f	-45
or	-46
та	-47
ли	-48
▁б	-49
ка	-50
en	-51
hat	-52
▁и	-53
▁g	-54
▁l	-55
...	-56
▁ч	-57
ри	-58
ет	-59
es	-60
ла	-61
▁з	-62
на	-63
▁W	-64
ve	-65
▁o	-66
▁на	-67
▁n	-68
ер	-69
▁T	-70
nd	-71
▁Н	-72
ar	-73
да	-74
ес	-75
om	-76
ow	-77
▁у	-78
ни	-79
во	-80
ль	-81
▁В	-82
▁p	-83
ва	-84
▁Y	-85
et	-86
ло	-87
▁П	-88
▁he	-89
ot	-90
ed	-91
ем	-92
▁Д	-93
▁h	-94
▁что	-95
▁of	-96
ся	-97
st	-98
▁A	-99
▁ha	-100
▁я	-101
▁э	-102
▁Я	-103
ти	-104
at	-105
▁H	-106
▁in	-107
▁be	-108
ay	-109
▁it	-110
▁me	-111
ди	-112
▁th	-113
▁т	-114
le	-115
gh	-116
▁M	-117
ас	-118
не	-119
▁Т	-120
▁О	-121
ре	-122
se	-123
▁S	-124
▁М	-125
▁за	-126
хо	-127
▁You	-128
▁это	-129
же	-130
▁мо	-131
▁that	-132
де	-133
▁and	-134
▁"	-135
▁on	-136
ld	-137
▁С	-138
ut	-139
id	-140
▁до	-141
▁К	-142
▁бы	-143
im	-144
ke	-145
ны	-146
ght	-147
его	-148
▁вы	-149
сь	-150
ма	-151
▁is	-152
ell	-153
ви	-154
▁for	-155
ic	-156
as	-157
шь	-158
▁N	-159
ст	-160
oo	-161
▁e	-162
ver	-163
▁та	-164
▁ко	-165
▁u	-166
▁те	-167
ле	-168
▁к	-169
▁B	-170
ам	-171
▁do	-172
ri	-173
ad	-174
▁k	-175
▁ра	-176
▁D	-177
▁По	-178
▁The	-179
▁ка	-180
▁то	-181
ome	-182
▁C	-183
ки	-184
▁ты	-185
out	-186
лу	-187
▁O	-188
▁Да	-189
ac	-190
ру	-191
ill	-192
▁А	-193
до	-194
▁при	-195
чи	-196
▁your	-197
▁про	-198
бо	-199
al	-200
▁my	-201
▁G	-202
жи	-203
▁И	-204
▁вс	-205
▁we	-206
▁Э	-207
ir	-208
мо	-209
еня	-210
ду	-211
ly	-212
ля	-213
▁st	-214
за	-215
▁have	-216
▁от	-217
▁go	-218
▁li	-219
▁re	-220
▁хо	-221
▁L	-222
ith	-223
▁меня	-224
ей	-225
▁го	-226
▁во	-227
ent	-228
▁an	-229
ну	-230
▁not	-231
по	-232
ста	-233
▁со	-234
бе	-235
лю	-236
▁kn	-237
ee	-238
▁Ч	-239
ве	-240
▁What	-241
am	-242
▁He	-243
her	-244
ени	-245
ust	-246
▁with	-247
ould	-248
гда	-249
▁P	-250
ми	-251
▁this	-252
ше	-253
ant	-254
▁е	-255
▁was	-256
▁Б	-257
▁don	-258
▁Вы	-259
▁know	-260
▁are	-261
▁ни	-262
ши	-263
▁мне	-264
▁но	-265
ur	-266
ку	-267
ter	-268
бя	-269
га	-270
уд	-271
▁can	-272
▁зна	-273
hing	-274
▁It	-275
▁him	-276
▁all	-277
if	-278
жа	-279
ень	-280
▁Ты	-281
ood	-282
ис	-283
▁Это	-284
ion	-285
▁де	-286
▁F	-287
ro	-288
ry	-289
▁Не	-290
ce	-291
▁так	-292
ch	-293
ня	-294
ак	-295
▁Г	-296
▁как	-297
▁as	-298
ho	-299
ea	-300
ight	-301
ша	-302
▁Что	-303
ешь	-304
ake	-305
▁г	-306
би	-307
▁here	-308
ар	-309
▁ne	-310
▁бо	-311
▁он	-312
▁З	-313
▁And	-314
▁No	-315
our	-316
ться	-317
▁so	-318
▁get	-319
▁У	-320
ему	-321
ain	-322
ме	-323
▁what	-324
and	-325
▁Yes	-326
▁его	-327
▁j	-328
▁at	-329
ча	-330
ры	-331
▁J	-332
▁see	-333
▁же	-334
han	-335
бы	-336
▁да	-337
▁Oh	-338
one	-339
▁will	-340
▁из	-341
▁ес	-342
му	-343
pp	-344
▁like	-345
▁Но	-346
▁ab	-347
▁her	-348
▁ма	-349
▁Х	-350
▁out	-351
▁все	-352
▁de	-353
ink	-354
▁want	-355
un	-356
all	-357
есь	-358
▁Р	-359
си	-360
very	-361
▁ж	-362
▁E	-363
▁Е	-364
йте	-365
▁Нет	-366
ря	-367
▁Л	-368
▁ве	-369
us	-370
▁up	-371
ie	-372
▁раз	-373
▁тебя	-374
▁r	-375
▁об	-376
каза	-377
il	-378
ess	-379
right	-380
жно	-381
ct	-382
лько	-383
▁did	-384
сто	-385
▁R	-386
ore	-387
ере	-388
сти	-389
hy	-390
▁We	-391
▁That	-392
▁вас	-393
▁а	-394
▁лю	-395
ind	-396
▁But	-397
чно	-398
▁no	-399
▁Well	-400
ту	-401
▁сво	-402
ul	-403
▁мы	-404
ву	-405
гу	-406
кой	-407
ете	-408
▁about	-409
ge	-410
▁there	-411
па	-412
▁any	-413
▁Во	-414
ive	-415
▁Он	-416
op	-417
▁wor	-418
▁вам	-419
щи	-420
ook	-421
▁right	-422
вер	-423
▁пре	-424
ный	-425
▁дол	-426
▁al	-427
▁lo	-428
ной	-429
пи	-430
▁ви	-431
▁su	-432
тель	-433
вори	-434
▁Мо	-435
ack	-436
end	-437
rom	-438
▁Ну	-439
ra	-440
ong	-441
вы	-442
рош	-443
▁but	-444
▁one	-445
▁sh	-446
▁До	-447
тся	-448
here	-449
▁think	-450
час	-451
ame	-452
."	-453
лы	-454
▁ду	-455
рав	-456
▁say	-457
ется	-458
со	-459
▁1	-460
ги	-461
▁Ко	-462
▁if	-463
art	-464
est	-465
▁На	-466
▁man	-467
▁she	-468
ест	-469
ven	-470
hen	-471
▁тебе	-472
ast	-473
▁Mr	-474
▁now	-475
▁ва	-476
▁нет	-477
▁his	-478
▁буд	-479
00	-480
way	-481
ck	-482
ного	-483
ци	-484
▁got	-485
тер	-486
▁us	-487
▁ли	-488
▁going	-489
ты	-490
ist	-491
чу	-492
десь	-493
▁То	-494
▁ми	-495
▁бу	-496
ers	-497
▁just	-498
пас	-499
au	-500
ходи	-501
ice	-502
ard	-503
▁пос	-504
ез	-505
ol	-506
qu	-507
ab	-508
▁сказа	-509
▁would	-510
▁come	-511
лся	-512
▁from	-513
▁ещ	-514
сть	-515
▁Хо	-516
ine	-517
▁ста	-518
ime	-519
▁она	-520
rou	-521
▁ф	-522
▁they	-523
!"	-524
▁ре	-525
▁дру	-526
▁been	-527
ate	-528
ig	-529
дела	-530
тра	-531
вать	-532
дно	-533
▁too	-534
▁sa	-535
▁them	-536
▁Как	-537
жет	-538
▁Мы	-539
▁tell	-540
▁жи	-541
▁под	-542
▁долж	-543
ss	-544
▁good	-545
other	-546
ан	-547
жу	-548
спо	-549
are	-550
itt	-551
▁для	-552
ком	-553
▁ex	-554
▁боль	-555
▁здесь	-556
▁pl	-557
▁who	-558
▁com	-559
▁ag	-560
▁се	-561
ase	-562
▁Why	-563
lf	-564
ear	-565
нь	-566
od	-567
▁чтобы	-568
nt	-569
▁говори	-570
▁Come	-571
▁Ф	-572
ak	-573
▁всё	-574
▁если	-575
▁or	-576
ело	-577
own	-578
чень	-579
▁Don	-580
▁must	-581
▁нас	-582
ous	-583
рошо	-584
▁some	-585
ure	-586
fe	-587
чего	-588
пер	-589
hank	-590
▁дума	-591
▁sp	-592
▁Th	-593
ща	-594
ха	-595
ке	-596
▁were	-597
ение	-598
▁time	-599
▁Do	-600
сли	-601
нима	-602
ца	-603
▁мис	-604
▁look	-605
▁back	-606
ды	-607
thing	-608
▁За	-609
▁ну	-610
▁дела	-611
iss	-612
ick	-613
▁won	-614
um	-615
▁Good	-616
▁had	-617
че	-618
▁How	-619
▁take	-620
ap	-621
▁love	-622
вет	-623
чему	-624
се	-625
ep	-626
▁кото	-627
▁Про	-628
▁будет	-629
▁She	-630
▁Вот	-631
▁has	-632
▁оста	-633
▁ш	-634
em	-635
▁есть	-636
▁...	-637
ют	-638
це	-639
ace	-640
енно	-641
oy	-642
▁If	-643
пу	-644
hi	-645
▁could	-646
ная	-647
рем	-648
▁вер	-649
▁когда	-650
дин	-651
▁Ма	-652
▁very	-653
▁только	-654
юсь	-655
▁При	-656
▁сто	-657
пе	-658
▁сам	-659
el	-660
▁был	-661
▁знаю	-662
чь	-663
мот	-664
▁сдела	-665
▁by	-666
▁af	-667
▁let	-668
удь	-669
▁тво	-670
ена	-671
ation	-672
▁There	-673
▁Ни	-674
кто	-675
сс	-676
дите	-677
паси	-678
▁слу	-679
▁Если	-680
ба	-681
omet	-682
▁con	-683
ait	-684
▁K	-685
ittle	-686
alk	-687
▁thing	-688
ём	-689
▁se	-690
ber	-691
дь	-692
▁tr	-693
ather	-694
пасибо	-695
self	-696
ose	-697
▁didn	-698
▁могу	-699
▁Ка	-700
ort	-701
ire	-702
про	-703
рави	-704
▁when	-705
ные	-706
ут	-707
▁2	-708
▁уже	-709
зна	-710
▁off	-711
▁v	-712
ag	-713
▁happ	-714
▁They	-715
лось	-716
▁bet	-717
▁My	-718
▁little	-719
ят	-720
lease	-721
вай	-722
▁быть	-723
▁never	-724
▁our	-725
ения	-726
▁очень	-727
ейчас	-728
▁night	-729
▁Now	-730
▁Она	-731
▁So	-732
▁па	-733
▁sir	-734
▁Мне	-735
ром	-736
▁воз	-737
▁am	-738
▁qu	-739
▁down	-740
зы	-741
он	-742
перь	-743
▁again	-744
▁было	-745
са	-746
▁int	-747
▁их	-748
▁Так	-749
ite	-750
▁only	-751
▁они	-752
елове	-753
▁every	-754
ble	-755
▁day	-756
▁V	-757
дня	-758
гра	-759
uch	-760
▁ку	-761
▁си	-762
ор	-763
▁lea	-764
▁All	-765
omething	-766
▁Not	-767
ady	-768
▁way	-769
▁St	-770
ally	-771
▁му	-772
▁This	-773
▁mar	-774
▁en	-775
▁доро	-776
▁день	-777
лись	-778
эр	-779
ное	-780
▁—	-781
os	-782
юда	-783
ран	-784
▁more	-785
th	-786
▁Те	-787
▁пред	-788
мер	-789
ish	-790
▁over	-791
▁how	-792
▁Thank	-793
вь	-794
▁make	-795
▁там	-796
▁хочу	-797
▁челове	-798
ought	-799
▁mean	-800
▁br	-801
▁Ва	-802
ew	-803
ect	-804
▁pre	-805
▁чем	-806
▁поз	-807
nder	-808
▁этого	-809
▁От	-810
▁эти	-811
".	-812
▁мой	-813
▁пере	-814
▁её	-815
ough	-816
▁ничего	-817
▁much	-818
ng	-819
нечно	-820
▁рабо	-821
кое	-822
▁Let	-823
йд	-824
об	-825
▁этом	-826
▁буду	-827
▁should	-828
ide	-829
▁ro	-830
▁жен	-831
▁врем	-832
▁больше	-833
▁give	-834
▁something	-835
ran	-836
▁мес	-837
бой	-838
▁Where	-839
кая	-840
wo	-841
лась	-842
ving	-843
▁Го	-844
reat	-845
▁еще	-846
▁talk	-847
▁Ра	-848
▁away	-849
ять	-850
▁Дж	-851
зи	-852
ne	-853
▁ро	-854
ther	-855
егодня	-856
ling	-857
ning	-858
▁co	-859
▁лу	-860
лет	-861
будь	-862
▁gu	-863
ty	-864
▁Бо	-865
лен	-866
▁од	-867
ния	-868
oney	-869
▁ar	-870
▁old	-871
▁кто	-872
ves	-873
бу	-874
▁Is	-875
▁ему	-876
кра	-877
▁work	-878
▁им	-879
йти	-880
na	-881
red	-882
ause	-883
ound	-884
▁In	-885
▁ру	-886
▁does	-887
▁even	-888
▁le	-889
▁Спасибо	-890
шу	-891
▁сэр	-892
ние	-893
▁Почему	-894
age	-895
▁Your	-896
▁long	-897
ue	-898
row	-899
▁pro	-900
▁сейчас	-901
▁может	-902
луй	-903
▁well	-904
зо	-905
▁надо	-906
▁pe	-907
ies	-908
▁po	-909
ски	-910
▁ask	-911
▁cour	-912
ёт	-913
▁then	-914
▁ска	-915
рю	-916
ave	-917
рый	-918
▁без	-919
чше	-920
riend	-921
▁under	-922
▁вот	-923
вно	-924
▁хоте	-925
▁Who	-926
▁cl	-927
?"	-928
▁ещё	-929
ство	-930
▁хоч	-931
мотри	-932
ще	-933
▁х	-934
▁mad	-935
▁жиз	-936
▁wait	-937
ny	-938
▁пер	-939
▁нико	-940
▁пу	-941
cause	-942
▁тоже	-943
man	-944
▁виде	-945
ree	-946
▁Here	-947
▁need	-948
▁Хорошо	-949
ным	-950
ody	-951
▁said	-952
pl	-953
▁bl	-954
▁час	-955
ству	-956
wn	-957
зу	-958
der	-959
▁ее	-960
жалуй	-961
▁better	-962
ит	-963
▁Ш	-964
бира	-965
▁sha	-966
▁помо	-967
▁Ж	-968
▁find	-969
ных	-970
мен	-971
▁нам	-972
▁Go	-973
ello	-974
▁dear	-975
гла	-976
irst	-977
▁!	-978
▁where	-979
ise	-980
ско	-981
ye	-982
тому	-983
▁friend	-984
▁U	-985
ful	-986
fore	-987
▁себя	-988
▁call	-989
▁полу	-990
нибудь	-991
▁ле	-992
▁просто	-993
▁un	-994
ons	-995
▁ke	-996
▁home	-997
▁money	-998
irl	-999
▁Be	-1000
get	-1001
▁im	-1002
▁су	-1003
▁anything	-1004
ount	-1005
tain	-1006
▁two	-1007
▁где	-1008
▁него	-1009
▁Кто	-1010
ff	-1011
ity	-1012
дам	-1013
▁наш	-1014
▁other	-1015
ud	-1016
ети	-1017
▁mo	-1018
▁mat	-1019
▁boy	-1020
равда	-1021
ways	-1022
ich	-1023
▁nothing	-1024
be	-1025
urn	-1026
▁была	-1027
ople	-1028
зя	-1029
том	-1030
жалуйста	-1031
ren	-1032
нес	-1033
льно	-1034
▁wr	-1035
▁ваш	-1036
▁должен	-1037
▁Hello	-1038
▁Они	-1039
▁sw	-1040
стре	-1041
▁Па	-1042
тельно	-1043
▁min	-1044
ft	-1045
▁wom	-1046
lp	-1047
▁girl	-1048
▁пи	-1049
▁сегодня	-1050
per	-1051
▁life	-1052
▁3	-1053
act	-1054
ков	-1055
▁или	-1056
▁сказал	-1057
▁thought	-1058
▁стра	-1059
ass	-1060
▁hand	-1061
▁after	-1062
▁дело	-1063
▁why	-1064
▁may	-1065
уда	-1066
▁этот	-1067
▁пока	-1068
▁свои	-1069
ment	-1070
ried	-1071
eah	-1072
рой	-1073
вал	-1074
гой	-1075
ress	-1076
луша	-1077
▁please	-1078
ps	-1079
ств	-1080
▁мной	-1081
▁Mar	-1082
ин	-1083
▁сюда	-1084
ник	-1085
▁ц	-1086
▁сло	-1087
▁Зна	-1088
жен	-1089
▁dr	-1090
мы	-1091
▁ме	-1092
▁Вам	-1093
▁course	-1094
body	-1095
▁year	-1096
▁bel	-1097
▁before	-1098
▁ис	-1099
orry	-1100
able	-1101
жешь	-1102
▁last	-1103
▁теперь	-1104
▁расс	-1105
▁people	-1106
дать	-1107
▁нужно	-1108
▁ско	-1109
uck	-1110
стро	-1111
▁чу	-1112
ord	-1113
▁Пос	-1114
▁Just	-1115
сту	-1116
▁хорошо	-1117
▁sc	-1118
▁люби	-1119
▁wh	-1120
рес	-1121
▁пла	-1122
нова	-1123
▁пар	-1124
isten	-1125
▁new	-1126
▁always	-1127
▁Все	-1128
▁сле	-1129
▁после	-1130
чит	-1131
тов	-1132
шка	-1133
▁моя	-1134
ach	-1135
▁TH	-1136
▁first	-1137
▁мои	-1138
▁время	-1139
▁minut	-1140
pt	-1141
част	-1142
▁care	-1143
▁никогда	-1144
ене	-1145
дума	-1146
ктор	-1147
▁happen	-1148
▁сказать	-1149
▁лучше	-1150
ond	-1151
цу	-1152
▁yes	-1153
▁тут	-1154
▁кон	-1155
ife	-1156
▁leave	-1157
есье	-1158
▁мисс	-1159
▁Get	-1160
▁понима	-1161
▁isn	-1162
ater	-1163
еха	-1164
▁than	-1165
▁Где	-1166
▁кра	-1167
▁Are	-1168
▁Miss	-1169
▁уж	-1170
тите	-1171
бра	-1172
▁pr	-1173
▁matter	-1174
▁уви	-1175
▁5	-1176
stand	-1177
round	-1178
▁cha	-1179
▁told	-1180
▁уби	-1181
▁Yeah	-1182
day	-1183
▁муж	-1184
▁Ро	-1185
стви	-1186
OU	-1187
▁fee	-1188
гая	-1189
ров	-1190
▁Когда	-1191
ting	-1192
▁For	-1193
▁mind	-1194
▁име	-1195
вля	-1196
▁сви	-1197
▁госпо	-1198
hild	-1199
▁женщи	-1200
ia	-1201
кие	-1202
шли	-1203
▁help	-1204
▁things	-1205
▁должны	-1206
ull	-1207
▁Конечно	-1208
▁ac	-1209
нг	-1210
ните	-1211
▁Then	-1212
▁мистер	-1213
▁put	-1214
▁верну	-1215
▁bo	-1216
▁бес	-1217
▁rem	-1218
ence	-1219
лаго	-1220
вой	-1221
▁into	-1222
▁those	-1223
▁chan	-1224
▁mor	-1225
▁само	-1226
▁father	-1227
ную	-1228
кры	-1229
▁ad	-1230
▁Со	-1231
▁мог	-1232
▁сер	-1233
▁смо	-1234
hed	-1235
▁dis	-1236
000	-1237
лли	-1238
втра	-1239
вя	-1240
▁When	-1241
▁всегда	-1242
▁doing	-1243
можно	-1244
чем	-1245
▁fl	-1246
вайте	-1247
bye	-1248
кажи	-1249
нс	-1250
▁Мис	-1251
▁car	-1252
▁ком	-1253
▁jo	-1254
ious	-1255
▁каж	-1256
▁keep	-1257
▁подо	-1258
▁человек	-1259
ance	-1260
ней	-1261
вый	-1262
дешь	-1263
▁Did	-1264
гля	-1265
ory	-1266
ья	-1267
▁ло	-1268
ctor	-1269
ouse	-1270
▁тобой	-1271
▁stay	-1272
▁enough	-1273
▁name	-1274
▁ever	-1275
▁были	-1276
нет	-1277
жете	-1278
▁child	-1279
pect	-1280
onight	-1281
▁sure	-1282
вает	-1283
▁understand	-1284
▁To	-1285
▁Доб	-1286
▁ним	-1287
▁Look	-1288
шком	-1289
стите	-1290
▁still	-1291
ved	-1292
ip	-1293
▁Эй	-1294
▁люб	-1295
▁May	-1296
▁позво	-1297
▁Вс	-1298
iz	-1299
▁того	-1300
▁these	-1301
▁ид	-1302
▁great	-1303
▁morning	-1304
▁знаешь	-1305
▁..	-1306
▁try	-1307
aw	-1308
▁бе	-1309
iness	-1310
▁ба	-1311
▁wife	-1312
▁fa	-1313
▁Давай	-1314
▁because	-1315
ER	-1316
ool	-1317
orrow	-1318
▁Ла	-1319
▁ус	-1320
▁ней	-1321
▁даже	-1322
▁place	-1323
▁gl	-1324
▁вз	-1325
▁Mad	-1326
▁bus	-1327
▁years	-1328
нут	-1329
ции	-1330
лишком	-1331
▁Может	-1332
▁really	-1333
▁woman	-1334
вали	-1335
зе	-1336
▁sorry	-1337
ью	-1338
▁рас	-1339
▁'	-1340
▁сп	-1341
▁голо	-1342
▁Hey	-1343
▁слы	-1344
▁себе	-1345
entle	-1346
▁yourself	-1347
су	-1348
дер	-1349
ню	-1350
▁left	-1351
пы	-1352
▁part	-1353
▁everything	-1354
ерт	-1355
фи	-1356
▁around	-1357
▁sm	-1358
▁зас	-1359
▁kill	-1360
▁много	-1361
цо	-1362
вес	-1363
ever	-1364
▁пра	-1365
▁один	-1366
▁mother	-1367
ery	-1368
▁Al	-1369
▁ведь	-1370
ёл	-1371
▁wouldn	-1372
▁гла	-1373
▁room	-1374
тив	-1375
вить	-1376
▁ин	-1377
▁bad	-1378
йду	-1379
тро	-1380
ian	-1381
old	-1382
▁Ex	-1383
ном	-1384
▁са	-1385
шел	-1386
▁Dr	-1387
ince	-1388
▁belie	-1389
▁young	-1390
нов	-1391
ict	-1392
onna	-1393
rest	-1394
ope	-1395
тан	-1396
▁Ми	-1397
чес	-1398
▁нем	-1399
▁Вас	-1400
▁почему	-1401
▁their	-1402
▁tonight	-1403
ено	-1404
▁месье	-1405
говори	-1406
▁4	-1407
▁hear	-1408
ary	-1409
▁пол	-1410
▁случи	-1411
▁жа	-1412
крас	-1413
ких	-1414
▁own	-1415
▁такой	-1416
▁dar	-1417
▁–	-1418
кон	-1419
▁лет	-1420
хи	-1421
▁men	-1422
вс	-1423
▁ser	-1424
▁Раз	-1425
▁came	-1426
▁gonna	-1427
ами	-1428
▁бра	-1429
йся	-1430
ci	-1431
▁doesn	-1432
▁10	-1433
▁ей	-1434
▁per	-1435
▁Пре	-1436
▁might	-1437
▁деньги	-1438
▁работа	-1439
▁Ви	-1440
▁Тогда	-1441
rough	-1442
тец	-1443
▁nice	-1444
кого	-1445
men	-1446
▁этой	-1447
▁Привет	-1448
ёр	-1449
ерез	-1450
ember	-1451
eak	-1452
ман	-1453
стоя	-1454
мес	-1455
▁Из	-1456
▁done	-1457
дя	-1458
use	-1459
▁gr	-1460
▁узна	-1461
▁мадам	-1462
▁слишком	-1463
▁такое	-1464
▁собира	-1465
▁Jo	-1466
▁feel	-1467
ой	-1468
▁At	-1469
тесь	-1470
чита	-1471
▁жизнь	-1472
les	-1473
int	-1474
пре	-1475
▁show	-1476
..."	-1477
▁любо	-1478
▁хотел	-1479
ция	-1480
▁Ду	-1481
▁play	-1482
ub	-1483
при	-1484
ix	-1485
▁On	-1486
что	-1487
▁alone	-1488
▁Please	-1489
pen	-1490
aught	-1491
мой	-1492
▁получи	-1493
▁made	-1494
▁поня	-1495
ret	-1496
▁haven	-1497
▁га	-1498
дал	-1499
драв	-1500
▁through	-1501
▁har	-1502
▁myself	-1503
покой	-1504
▁вами	-1505
частли	-1506
▁Of	-1507
ock	-1508
пла	-1509
▁сы	-1510
▁правда	-1511
чка	-1512
▁обра	-1513
▁делать	-1514
чер	-1515
ness	-1516
воль	-1517
▁war	-1518
▁вече	-1519
▁coming	-1520
▁думаю	-1521
▁imp	-1522
▁supp	-1523
▁Теперь	-1524
ger	-1525
нее	-1526
raid	-1527
▁happy	-1528
▁Только	-1529
▁id	-1530
▁YOU	-1531
ister	-1532
дить	-1533
▁моей	-1534
▁house	-1535
▁mon	-1536
ign	-1537
рова	-1538
цы	-1539
сте	-1540
▁Have	-1541
▁ночь	-1542
▁gentle	-1543
▁Госпо	-1544
дол	-1545
▁kind	-1546
▁дорогая	-1547
ath	-1548
дете	-1549
жд	-1550
ряд	-1551
рошу	-1552
▁tak	-1553
▁пожалуйста	-1554
IN	-1555
og	-1556
кий	-1557
▁деву	-1558
▁друг	-1559
ства	-1560
▁ла	-1561
дишь	-1562
▁world	-1563
▁гово	-1564
рь	-1565
тя	-1566
▁big	-1567
▁сделать	-1568
▁Ве	-1569
▁thank	-1570
▁another	-1571
▁cr	-1572
▁believe	-1573
▁bu	-1574
▁ночи	-1575
▁minute	-1576
ms	-1577
ваю	-1578
дом	-1579
вра	-1580
▁Бе	-1581
нить	-1582
▁che	-1583
▁lot	-1584
▁знаете	-1585
ска	-1586
▁завтра	-1587
ks	-1588
ult	-1589
пис	-1590
▁shall	-1591
дит	-1592
▁An	-1593
ество	-1594
▁live	-1595
▁хочешь	-1596
ily	-1597
▁wanted	-1598
жем	-1599
▁чего	-1600
▁Mrs	-1601
▁tom	-1602
▁such	-1603
▁Воз	-1604
шла	-1605
есть	-1606
▁Ско	-1607
▁hur	-1608
проси	-1609
рые	-1610
прав	-1611
atch	-1612
▁drink	-1613
▁afraid	-1614
▁res	-1615
▁One	-1616
▁?	-1617
oll	-1618
▁обе	-1619
▁Will	-1620
aut	-1621
▁sec	-1622
▁Tell	-1623
▁ваши	-1624
ott	-1625
бер	-1626
лем	-1627
▁Can	-1628
▁пло	-1629
▁можно	-1630
▁всего	-1631
▁нуж	-1632
▁моло	-1633
▁свида	-1634
ствен	-1635
▁доста	-1636
ions	-1637
йтесь	-1638
hes	-1639
▁Ma	-1640
жать	-1641
▁hus	-1642
чина	-1643
▁люблю	-1644
pe	-1645
eet	-1646
▁эту	-1647
▁случа	-1648
▁As	-1649
▁hat	-1650
▁kid	-1651
band	-1652
▁свою	-1653
▁Скажи	-1654
эн	-1655
▁глу	-1656
равится	-1657
my	-1658
ans	-1659
▁Ладно	-1660
▁ins	-1661
лагода	-1662
iv	-1663
дей	-1664
▁fell	-1665
▁вмес	-1666
▁wrong	-1667
▁Ан	-1668
вати	-1669
▁business	-1670
ner	-1671
▁once	-1672
▁husband	-1673
▁сме	-1674
ont	-1675
▁забы	-1676
▁tomorrow	-1677
mer	-1678
▁счастли	-1679
▁случилось	-1680
med	-1681
▁el	-1682
▁app	-1683
▁fun	-1684
ходит	-1685
▁pret	-1686
▁Тебе	-1687
▁предста	-1688
▁ша	-1689
▁два	-1690
▁seen	-1691
▁гра	-1692
ail	-1693
▁same	-1694
рон	-1695
из	-1696
ющи	-1697
ertain	-1698
ложи	-1699
нуть	-1700
▁pay	-1701
▁Всё	-1702
▁word	-1703
▁Ничего	-1704
ier	-1705
▁soon	-1706
▁bring	-1707
leep	-1708
▁который	-1709
лага	-1710
air	-1711
oth	-1712
ким	-1713
деть	-1714
▁sho	-1715
▁without	-1716
▁Take	-1717
нец	-1718
▁run	-1719
вари	-1720
терес	-1721
▁прекрас	-1722
дел	-1723
лый	-1724
▁pol	-1725
▁всех	-1726
▁них	-1727
▁count	-1728
▁дома	-1729
▁поли	-1730
тно	-1731
▁head	-1732
▁meet	-1733
av	-1734
gg	-1735
▁зо	-1736
▁чув	-1737
▁этим	-1738
de	-1739
▁Лю	-1740
▁вели	-1741
дравству	-1742
▁Ал	-1743
▁Пу	-1744
▁вол	-1745
шло	-1746
▁Wait	-1747
▁start	-1748
xt	-1749
▁bre	-1750
▁gone	-1751
▁конечно	-1752
▁happened	-1753
жда	-1754
▁hour	-1755
▁darling	-1756
▁немного	-1757
▁Лу	-1758
▁THE	-1759
▁three	-1760
▁hu	-1761
ваться	-1762
▁beaut	-1763
▁found	-1764
▁far	-1765
▁уда	-1766
▁Дума	-1767
▁being	-1768
▁своей	-1769
hile	-1770
нии	-1771
▁Ch	-1772
▁real	-1773
▁прид	-1774
ost	-1775
ший	-1776
ible	-1777
▁ужас	-1778
дни	-1779
▁des	-1780
▁доб	-1781
▁пор	-1782
▁lady	-1783
ён	-1784
▁God	-1785
ъя	-1786
igh	-1787
▁жизни	-1788
▁горо	-1789
▁увер	-1790
▁снова	-1791
▁mak	-1792
▁heart	-1793
вая	-1794
лей	-1795
ходите	-1796
▁speak	-1797
▁yet	-1798
▁обо	-1799
рое	-1800
▁which	-1801
▁встре	-1802
▁(	-1803
▁вос	-1804
▁Say	-1805
▁days	-1806
▁домой	-1807
▁через	-1808
▁должна	-1809
▁remember	-1810
ены	-1811
▁hope	-1812
▁Goodbye	-1813
▁хочет	-1814
▁тогда	-1815
▁хотите	-1816
▁else	-1817
вые	-1818
,000	-1819
▁хоро	-1820
▁married	-1821
▁sl	-1822
ars	-1823
▁ос	-1824
▁ain	-1825
▁кро	-1826
лушай	-1827
шься	-1828
▁dead	-1829
▁дорогой	-1830
мся	-1831
▁son	-1832
▁тру	-1833
▁слыша	-1834
▁Q	-1835
▁фран	-1836
▁Every	-1837
iet	-1838
всем	-1839
▁Ах	-1840
▁wish	-1841
▁чём	-1842
gether	-1843
▁Очень	-1844
▁вечер	-1845
▁evening	-1846
You	-1847
▁forg	-1848
рить	-1849
▁реб	-1850
нт	-1851
▁ар	-1852
imes	-1853
▁отец	-1854
▁потому	-1855
зад	-1856
тить	-1857
стр	-1858
▁heard	-1859
▁stop	-1860
▁couldn	-1861
▁guy	-1862
▁today	-1863
cuse	-1864
лень	-1865
▁Мой	-1866
▁одна	-1867
▁mom	-1868
дем	-1869
▁Мар	-1870
прави	-1871
▁вместе	-1872
▁можешь	-1873
▁miss	-1874
▁forget	-1875
▁Bar	-1876
▁case	-1877
▁worry	-1878
▁20	-1879
льше	-1880
▁Та	-1881
▁bit	-1882
▁Са	-1883
▁late	-1884
▁Простите	-1885
haps	-1886
ph	-1887
anc	-1888
raz	-1889
ятно	-1890
▁Cha	-1891
▁saw	-1892
▁Very	-1893
▁подума	-1894
той	-1895
less	-1896
▁следу	-1897
ил	-1898
▁att	-1899
▁три	-1900
▁кого	-1901
▁Madame	-1902
▁ch	-1903
iful	-1904
▁use	-1905
▁most	-1906
ors	-1907
▁ум	-1908
▁спасибо	-1909
▁говорить	-1910
еты	-1911
▁marry	-1912
▁Прошу	-1913
▁listen	-1914
▁поговори	-1915
▁Sh	-1916
AN	-1917
три	-1918
тье	-1919
▁char	-1920
▁idea	-1921
▁together	-1922
up	-1923
йн	-1924
льчи	-1925
▁сем	-1926
▁поряд	-1927
▁wonder	-1928
▁Мистер	-1929
▁свидания	-1930
▁cle	-1931
▁quite	-1932
▁видел	-1933
▁With	-1934
▁6	-1935
▁Par	-1936
▁Maybe	-1937
ple	-1938
жды	-1939
ский	-1940
▁отс	-1941
деюсь	-1942
ешься	-1943
▁стоит	-1944
res	-1945
ied	-1946
yes	-1947
ream	-1948
▁beg	-1949
▁moment	-1950
дца	-1951
▁rep	-1952
▁Его	-1953
▁knew	-1954
вез	-1955
land	-1956
▁fam	-1957
▁wee	-1958
пусти	-1959
LL	-1960
кс	-1961
▁видеть	-1962
▁тот	-1963
no	-1964
вед	-1965
▁fin	-1966
вое	-1967
фе	-1968
рен	-1969
нови	-1970
▁нес	-1971
▁назад	-1972
▁Listen	-1973
шёл	-1974
▁dec	-1975
▁dif	-1976
питан	-1977
▁тыся	-1978
aptain	-1979
▁Бы	-1980
▁getting	-1981
▁Пожалуйста	-1982
кую	-1983
▁нача	-1984
тре	-1985
▁wants	-1986
▁pretty	-1987
жим	-1988
▁Ah	-1989
te	-1990
▁маши	-1991
доро	-1992
▁дер	-1993
▁fine	-1994
▁stand	-1995
▁порядке	-1996
▁bed	-1997
▁sit	-1998
ление	-1999
▁month	-2000
▁комна	-2001
▁Thanks	-2002
▁Give	-2003
▁comm	-2004
▁Доро	-2005
▁along	-2006
казы	-2007
▁send	-2008
▁Подо	-2009
▁сделал	-2010
▁Br	-2011
▁rec	-2012
▁эта	-2013
жение	-2014
▁hard	-2015
▁luck	-2016
▁many	-2017
▁беспо	-2018
▁место	-2019
▁Nothing	-2020
▁waiting	-2021
лич	-2022
▁eat	-2023
▁says	-2024
▁turn	-2025
▁прав	-2026
▁te	-2027
▁ret	-2028
▁кар	-2029
куда	-2030
▁acc	-2031
▁looking	-2032
▁Sure	-2033
▁меся	-2034
▁знать	-2035
мни	-2036
▁cont	-2037
▁went	-2038
▁потом	-2039
ove	-2040
▁gi	-2041
▁Tom	-2042
▁всем	-2043
▁лишь	-2044
▁Per	-2045
▁Здравству	-2046
нно	-2047
▁true	-2048
▁объя	-2049
▁hands	-2050
▁нравится	-2051
EN	-2052
▁пе	-2053
ired	-2054
▁Дже	-2055
лично	-2056
▁best	-2057
▁prom	-2058
▁будем	-2059
aughter	-2060
лан	-2061
шая	-2062
ready	-2063
▁можете	-2064
▁ту	-2065
▁end	-2066
▁ter	-2067
▁вес	-2068
▁Fran	-2069
▁пода	-2070
▁beautiful	-2071
▁few	-2072
▁говорил	-2073
еди	-2074
▁одно	-2075
▁тем	-2076
▁eyes	-2077
▁жена	-2078
▁коро	-2079
▁похо	-2080
▁talking	-2081
щу	-2082
▁8	-2083
ward	-2084
▁job	-2085
шки	-2086
AT	-2087
aby	-2088
▁Мари	-2089
we	-2090
▁Cl	-2091
мени	-2092
чера	-2093
▁доктор	-2094
▁Разве	-2095
",	-2096
orm	-2097
ватит	-2098
▁Оста	-2099
▁наши	-2100
соб	-2101
мотре	-2102
или	-2103
нем	-2104
▁Джо	-2105
ition	-2106
▁sleep	-2107
▁police	-2108
клю	-2109
▁Ло	-2110
верь	-2111
▁Com	-2112
▁act	-2113
▁Иди	-2114
▁будешь	-2115
цию	-2116
пить	-2117
▁wasn	-2118
им	-2119
сы	-2120
чет	-2121
ёшь	-2122
▁знает	-2123
▁минут	-2124
▁совсем	-2125
ated	-2126
come	-2127
▁тре	-2128
▁Сейчас	-2129
жду	-2130
▁люди	-2131
▁later	-2132
▁навер	-2133
▁Because	-2134
▁спо	-2135
▁fool	-2136
▁next	-2137
▁sent	-2138
казать	-2139
▁whole	-2140
▁человека	-2141
erson	-2142
▁break	-2143
▁Зачем	-2144
▁малень	-2145
вто	-2146
▁пы	-2147
ents	-2148
▁Ar	-2149
▁пря	-2150
▁glad	-2151
▁значит	-2152
▁против	-2153
"?	-2154
fess	-2155
ieur	-2156
▁том	-2157
▁моего	-2158
▁brother	-2159
▁которые	-2160
дж	-2161
uth	-2162
▁Her	-2163
▁mine	-2164
▁реши	-2165
аль	-2166
ход	-2167
leas	-2168
ying	-2169
▁Sir	-2170
▁ago	-2171
erest	-2172
▁мама	-2173
▁твой	-2174
▁already	-2175
ru	-2176
▁aw	-2177
ении	-2178
▁свя	-2179
mp	-2180
eep	-2181
▁Qu	-2182
▁Ro	-2183
▁ут	-2184
▁hon	-2185
▁вой	-2186
▁open	-2187
▁trou	-2188
▁Me	-2189
писа	-2190
точно	-2191
▁неде	-2192
▁туда	-2193
▁друго	-2194
onsieur	-2195
ге	-2196
ются	-2197
▁Any	-2198
▁Для	-2199
▁краси	-2200
мотрите	-2201
ins	-2202
так	-2203
▁ради	-2204
▁перед	-2205
▁$	-2206
aster	-2207
▁скажу	-2208
уже	-2209
bert	-2210
разу	-2211
▁unt	-2212
▁игра	-2213
▁понимаю	-2214
лая	-2215
▁Ваше	-2216
▁вечером	-2217
cy	-2218
ane	-2219
ника	-2220
▁while	-2221
AR	-2222
az	-2223
ov	-2224
cept	-2225
cess	-2226
▁Куда	-2227
▁ника	-2228
▁счита	-2229
▁отсюда	-2230
▁friends	-2231
▁удо	-2232
▁куда	-2233
рого	-2234
воз	-2235
рая	-2236
тон	-2237
▁pres	-2238
▁дене	-2239
▁мальчи	-2240
aid	-2241
kay	-2242
ита	-2243
пать	-2244
▁ent	-2245
▁дам	-2246
▁боле	-2247
▁людей	-2248
me	-2249
▁кое	-2250
етесь	-2251
▁смер	-2252
▁миссис	-2253
чку	-2254
▁His	-2255
▁rest	-2256
▁mur	-2257
▁took	-2258
▁fight	-2259
▁други	-2260
дл	-2261
ug	-2262
▁[	-2263
▁дей	-2264
▁ready	-2265
▁doctor	-2266
рок	-2267
нять	-2268
▁Поз	-2269
дут	-2270
стра	-2271
▁interest	-2272
ун	-2273
▁7	-2274
ild	-2275
reet	-2276
▁Pro	-2277
▁Там	-2278
▁пой	-2279
▁gave	-2280
ations	-2281
▁женщина	-2282
пол	-2283
▁door	-2284
▁used	-2285
раб	-2286
▁бро	-2287
▁гото	-2288
▁закон	-2289
▁плохо	-2290
▁gentlemen	-2291
du	-2292
рд	-2293
ile	-2294
▁since	-2295
▁daughter	-2296
unt	-2297
▁ear	-2298
▁met	-2299
▁Фран	-2300
стрети	-2301
The	-2302
▁Bl	-2303
вала	-2304
▁знал	-2305
▁dress	-2306
ike	-2307
▁Ge	-2308
▁ди	-2309
razy	-2310
▁дом	-2311
ollow	-2312
▁pass	-2313
▁poor	-2314
▁Меня	-2315
▁Здесь	-2316
▁кажется	-2317
▁сказала	-2318
ум	-2319
лин	-2320
▁оши	-2321
▁comp	-2322
▁какой	-2323
▁неско	-2324
▁л	-2325
,..	-2326
▁set	-2327
▁sing	-2328
▁думал	-2329
▁поговорить	-2330
рее	-2331
▁Моя	-2332
▁Пока	-2333
▁тех	-2334
eal	-2335
ент	-2336
кро	-2337
▁Pr	-2338
▁Де	-2339
erry	-2340
ётся	-2341
▁inv	-2342
▁hold	-2343
▁весь	-2344
▁принес	-2345
▁Ти	-2346
езжа	-2347
йдем	-2348
естно	-2349
▁выгля	-2350
▁Просто	-2351
дет	-2352
тор	-2353
▁денег	-2354
▁Потому	-2355
led	-2356
▁ph	-2357
▁сла	-2358
▁заме	-2359
ON	-2360
вил	-2361
дой	-2362
ными	-2363
▁Вер	-2364
▁Some	-2365
▁guess	-2366
▁говорю	-2367
▁suppose	-2368
ler	-2369
ised	-2370
▁Would	-2371
▁говорит	-2372
--	-2373
зья	-2374
▁sur	-2375
▁Гер	-2376
▁над	-2377
▁мило	-2378
▁поте	-2379
where	-2380
▁Mother	-2381
hn	-2382
ить	-2383
▁убий	-2384
▁парень	-2385
шо	-2386
дна	-2387
▁19	-2388
ense	-2389
▁See	-2390
▁stran	-2391
▁Af	-2392
augh	-2393
▁pap	-2394
▁face	-2395
▁letter	-2396
ens	-2397
▁Ре	-2398
▁сторо	-2399
▁someone	-2400
▁господин	-2401
▁це	-2402
fect	-2403
▁свой	-2404
▁crazy	-2405
▁certain	-2406
лом	-2407
рик	-2408
▁Sp	-2409
чить	-2410
▁bar	-2411
▁иди	-2412
▁chance	-2413
▁return	-2414
▁интерес	-2415
льзя	-2416
▁Мисс	-2417
ов	-2418
▁¬	-2419
ony	-2420
▁Ваш	-2421
▁boys	-2422
▁проси	-2423
вают	-2424
▁Jim	-2425
▁Ба	-2426
▁равно	-2427
от	-2428
нок	-2429
рин	-2430
чать	-2431
▁возь	-2432
▁fellow	-2433
▁своего	-2434
сторо	-2435
▁cons	-2436
шку	-2437
▁ок	-2438
▁hot	-2439
▁чер	-2440
▁fact	-2441
▁lost	-2442
▁мину	-2443
▁хотела	-2444
oor	-2445
uss	-2446
▁будут	-2447
покойной	-2448
▁несколько	-2449
▁ули	-2450
▁Geor	-2451
▁town	-2452
▁knows	-2453
▁согла	-2454
▁Re	-2455
гово	-2456
▁read	-2457
▁сест	-2458
▁pleas	-2459
▁точно	-2460
cle	-2461
сты	-2462
▁Un	-2463
▁mist	-2464
▁пыта	-2465
▁country	-2466
рт	-2467
ern	-2468
lly	-2469
ёте	-2470
▁мою	-2471
▁жела	-2472
▁expect	-2473
руг	-2474
чки	-2475
щения	-2476
▁нами	-2477
▁until	-2478
dd	-2479
ief	-2480
orn	-2481
unk	-2482
▁малы	-2483
▁поло	-2484
▁person	-2485
▁rather	-2486
▁возможно	-2487
▁ти	-2488
ical	-2489
ished	-2490
▁собой	-2491
▁minutes	-2492
ason	-2493
▁each	-2494
▁жени	-2495
▁Какой	-2496
▁Подож	-2497
so	-2498
ged	-2499
vel	-2500
▁Gr	-2501
ственно	-2502
▁hurt	-2503
▁пись	-2504
▁пора	-2505
ank	-2506
жал	-2507
▁del	-2508
▁уго	-2509
▁прис	-2510
▁сама	-2511
▁terri	-2512
▁работу	-2513
ках	-2514
▁str	-2515
▁ума	-2516
▁Есть	-2517
▁Добрый	-2518
ize	-2519
▁family	-2520
▁беспоко	-2521
▁думаешь	-2522
ван	-2523
дея	-2524
▁Har	-2525
▁eas	-2526
ither	-2527
▁Нико	-2528
▁заста	-2529
▁мужчи	-2530
▁слова	-2531
▁Ле	-2532
▁фи	-2533
▁жить	-2534
▁можем	-2535
▁Давайте	-2536
▁children	-2537
вод	-2538
▁Мэ	-2539
пять	-2540
▁reg	-2541
▁вра	-2542
▁руки	-2543
▁comes	-2544
▁yours	-2545
▁прошу	-2546
▁встрети	-2547
она	-2548
head	-2549
▁Stop	-2550
▁diffe	-2551
вут	-2552
стью	-2553
▁tri	-2554
▁Right	-2555
▁asked	-2556
▁мисте	-2557
▁найти	-2558
▁Значит	-2559
pped	-2560
вери	-2561
ница	-2562
▁исто	-2563
rought	-2564
▁compl	-2565
▁against	-2566
▁€	-2567
▁Or	-2568
▁испо	-2569
▁light	-2570
▁вчера	-2571
▁откры	-2572
ade	-2573
рую	-2574
▁Си	-2575
▁New	-2576
▁дня	-2577
▁зам	-2578
▁John	-2579
▁walk	-2580
▁утро	-2581
▁Бу	-2582
ross	-2583
бери	-2584
▁fran	-2585
▁news	-2586
▁прес	-2587
▁свет	-2588
▁Правда	-2589
▁leaving	-2590
фес	-2591
▁15	-2592
ерри	-2593
жите	-2594
▁Джим	-2595
▁Изви	-2596
▁вижу	-2597
▁death	-2598
▁dream	-2599
▁Возможно	-2600
сон	-2601
▁Ли	-2602
ding	-2603
▁tra	-2604
▁тан	-2605
бли	-2606
вого	-2607
▁kiss	-2608
▁совер	-2609
▁Сегодня	-2610
wer	-2611
ньше	-2612
▁Ста	-2613
▁возвра	-2614
▁Том	-2615
▁baby	-2616
▁идти	-2617
ention	-2618
▁помочь	-2619
▁ю	-2620
тей	-2621
▁Maj	-2622
▁взя	-2623
▁спра	-2624
ssible	-2625
▁water	-2626
:00	-2627
шие	-2628
▁ад	-2629
▁гу	-2630
▁huh	-2631
▁Нам	-2632
▁прои	-2633
▁спас	-2634
▁Never	-2635
dy	-2636
емся	-2637
▁lad	-2638
▁поч	-2639
▁потеря	-2640
▁Се	-2641
▁прави	-2642
▁Fl	-2643
▁adv	-2644
▁sweet	-2645
als	-2646
кла	-2647
ению	-2648
▁half	-2649
▁уеха	-2650
▁Paris	-2651
ang	-2652
▁имя	-2653
ately	-2654
▁Алло	-2655
▁серд	-2656
▁Father	-2657
cl	-2658
▁Ц	-2659
sel	-2660
ener	-2661
йдет	-2662
тери	-2663
▁вещи	-2664
▁самы	-2665
pr	-2666
ina	-2667
сно	-2668
▁quick	-2669
лушайте	-2670
▁trouble	-2671
▁trying	-2672
▁любовь	-2673
RE	-2674
▁fr	-2675
▁die	-2676
▁Пари	-2677
▁деле	-2678
▁ребя	-2679
▁посту	-2680
▁follow	-2681
▁должно	-2682
▁brought	-2683
▁Z	-2684
its	-2685
▁Le	-2686
▁Ха	-2687
▁времени	-2688
ING	-2689
ole	-2690
▁Пар	-2691
▁серь	-2692
ird	-2693
вле	-2694
▁Ger	-2695
▁din	-2696
▁бан	-2697
▁inst	-2698
▁wind	-2699
▁месте	-2700
any	-2701
▁всю	-2702
лагаю	-2703
▁sister	-2704
cs	-2705
вых	-2706
cell	-2707
▁уста	-2708
▁women	-2709
▁скоро	-2710
▁anyone	-2711
ND	-2712
ток	-2713
▁Je	-2714
▁никто	-2715
ус	-2716
рет	-2717
▁De	-2718
▁вашей	-2719
▁вопро	-2720
ib	-2721
шой	-2722
▁Car	-2723
вести	-2724
▁five	-2725
▁Думаю	-2726
esc	-2727
ute	-2728
▁dri	-2729
▁Кар	-2730
▁сооб	-2731
▁глаза	-2732
▁обеща	-2733
▁говорите	-2734
ats	-2735
вым	-2736
▁пом	-2737
▁laugh	-2738
▁import	-2739
▁будете	-2740
▁раньше	-2741
▁франков	-2742
ating	-2743
▁dist	-2744
рят	-2745
▁sign	-2746
▁Джон	-2747
▁пять	-2748
most	-2749
ружи	-2750
▁Eng	-2751
▁убе	-2752
ваете	-2753
▁ваша	-2754
▁Пусть	-2755
▁волну	-2756
▁замеча	-2757
▁действи	-2758
▁позволи	-2759
▁Спокойной	-2760
att	-2761
ming	-2762
▁обы	-2763
▁нужен	-2764
азе	-2765
нгли	-2766
▁hor	-2767
▁све	-2768
▁заму	-2769
▁могли	-2770
▁ночью	-2771
ом	-2772
вую	-2773
▁Ар	-2774
▁Dad	-2775
▁Lord	-2776
▁теле	-2777
▁гор	-2778
▁гру	-2779
▁four	-2780
▁Этот	-2781
▁твои	-2782
▁Count	-2783
▁quest	-2784
oc	-2785
фа	-2786
▁Am	-2787
fort	-2788
▁law	-2789
ardon	-2790
дцать	-2791
▁мать	-2792
правля	-2793
▁makes	-2794
▁объяс	-2795
пло	-2796
мите	-2797
▁goes	-2798
▁года	-2799
▁папа	-2800
▁тысяч	-2801
uff	-2802
жит	-2803
стя	-2804
ared	-2805
нусь	-2806
▁its	-2807
▁aren	-2808
▁train	-2809
▁Надеюсь	-2810
▁сколько	-2811
ster	-2812
▁рад	-2813
▁disc	-2814
вается	-2815
▁кораб	-2816
▁пойду	-2817
▁смогу	-2818
▁продол	-2819
▁Captain	-2820
▁Perhaps	-2821
ёз	-2822
ker	-2823
азель	-2824
▁both	-2825
мотреть	-2826
тельство	-2827
▁thinking	-2828
amp	-2829
тья	-2830
ably	-2831
▁поез	-2832
▁After	-2833
▁means	-2834
▁Сколько	-2835
лон	-2836
▁ob	-2837
▁Hur	-2838
▁луч	-2839
ления	-2840
ского	-2841
▁fire	-2842
▁times	-2843
▁Какая	-2844
▁утром	-2845
▁приеха	-2846
ung	-2847
ient	-2848
more	-2849
ully	-2850
▁buy	-2851
▁хозя	-2852
▁сразу	-2853
кан	-2854
▁mus	-2855
▁ref	-2856
▁соб	-2857
▁Jerry	-2858
▁истори	-2859
▁капитан	-2860
▁Monsieur	-2861
▁Га	-2862
What	-2863
rent	-2864
▁cry	-2865
стрее	-2866
▁expl	-2867
▁mill	-2868
▁Доктор	-2869
ls	-2870
По	-2871
▁9	-2872
ower	-2873
▁будь	-2874
▁долго	-2875
▁прямо	-2876
▁хорош	-2877
▁saying	-2878
▁secret	-2879
▁serious	-2880
зан	-2881
▁12	-2882
бота	-2883
▁"...	-2884
▁arri	-2885
▁заня	-2886
▁ладно	-2887
▁поста	-2888
▁Excuse	-2889
▁Здравствуйте	-2890
ky	-2891
vil	-2892
▁em	-2893
anna	-2894
▁неё	-2895
▁сол	-2896
▁Джерри	-2897
▁Знаешь	-2898
▁настоя	-2899
чала	-2900
▁дере	-2901
▁такая	-2902
▁killed	-2903
▁призна	-2904
ned	-2905
▁ры	-2906
йдём	-2907
этому	-2908
▁week	-2909
▁funny	-2910
▁maybe	-2911
▁order	-2912
▁увидеть	-2913
все	-2914
ний	-2915
чат	-2916
▁Ab	-2917
▁ри	-2918
illy	-2919
ений	-2920
шать	-2921
▁Дер	-2922
▁кру	-2923
▁Будь	-2924
▁твоя	-2925
▁francs	-2926
▁отправи	-2927
▁бога	-2928
▁проис	-2929
щее	-2930
airs	-2931
▁Или	-2932
▁леди	-2933
▁запла	-2934
аме	-2935
дил	-2936
цей	-2937
ской	-2938
▁hum	-2939
▁Джор	-2940
▁здоро	-2941
▁change	-2942
▁telling	-2943
рей	-2944
aint	-2945
aven	-2946
swer	-2947
▁нена	-2948
▁этих	-2949
▁зовут	-2950
▁reason	-2951
▁чувству	-2952
▁достаточно	-2953
род	-2954
туп	-2955
▁cou	-2956
▁нее	-2957
▁Итак	-2958
▁верно	-2959
▁своих	-2960
▁послед	-2961
ced	-2962
вар	-2963
пра	-2964
▁Ph	-2965
▁TO	-2966
▁eh	-2967
▁шу	-2968
▁vis	-2969
▁отве	-2970
▁такие	-2971
▁called	-2972
▁having	-2973
▁друзья	-2974
▁девушка	-2975
ск	-2976
▁Only	-2977
▁longer	-2978
ump	-2979
▁Wh	-2980
▁ap	-2981
▁Ой	-2982
чешь	-2983
▁dou	-2984
▁cold	-2985
▁Боль	-2986
▁жаль	-2987
▁кажды	-2988
▁этому	-2989
king	-2990
outh	-2991
side	-2992
▁bro	-2993
ением	-2994
▁Okay	-2995
▁German	-2996
▁important	-2997
щё	-2998
ets	-2999
▁truth	-3000
▁George	-3001
▁благода	-3002
▁сказали	-3003
ден	-3004
▁Ку	-3005
▁ки	-3006
пера	-3007
щест	-3008
▁Дол	-3009
▁спи	-3010
▁Nick	-3011
▁party	-3012
▁более	-3013
▁Doctor	-3014
OR	-3015
▁50	-3016
ющий	-3017
▁ahead	-3018
ius	-3019
▁Им	-3020
ring	-3021
ками	-3022
▁Нас	-3023
▁Под	-3024
▁Надо	-3025
▁Одна	-3026
icture	-3027
▁ждать	-3028
▁нужны	-3029
▁ответ	-3030
▁самом	-3031
bt	-3032
ete	-3033
▁Пи	-3034
▁inf	-3035
▁sou	-3036
▁ship	-3037
▁вооб	-3038
▁господа	-3039
IS	-3040
щий	-3041
arth	-3042
▁Мак	-3043
▁счас	-3044
▁watch	-3045
▁думаете	-3046
ED	-3047
not	-3048
ides	-3049
▁ass	-3050
▁dance	-3051
▁hours	-3052
▁story	-3053
нул	-3054
▁ча	-3055
вьте	-3056
носи	-3057
umber	-3058
▁ought	-3059
▁months	-3060
▁занима	-3061
▁сердце	-3062
▁прощения	-3063
ред	-3064
ские	-3065
▁газ	-3066
▁тра	-3067
▁also	-3068
▁taking	-3069
▁уверен	-3070
lic	-3071
rer	-3072
вен	-3073
▁11	-3074
▁ск	-3075
дели	-3076
дему	-3077
▁Sha	-3078
▁sold	-3079
▁отца	-3080
▁таким	-3081
▁другой	-3082
▁picture	-3083
ney	-3084
зда	-3085
▁Ин	-3086
esty	-3087
▁eng	-3088
▁gun	-3089
▁пис	-3090
фессо	-3091
▁Даже	-3092
▁опас	-3093
чество	-3094
▁Лучше	-3095
▁second	-3096
демуазель	-3097
bb	-3098
ual	-3099
тен	-3100
ards	-3101
▁cor	-3102
ction	-3103
▁hell	-3104
ousand	-3105
▁Пошли	-3106
▁свобо	-3107
▁gentleman	-3108
ash	-3109
фор	-3110
▁би	-3111
▁фо	-3112
хожу	-3113
▁stud	-3114
▁Боже	-3115
▁чтоб	-3116
▁quiet	-3117
▁нельзя	-3118
арри	-3119
▁зем	-3120
▁лег	-3121
▁Пере	-3122
▁неме	-3123
▁Можно	-3124
▁Навер	-3125
▁давай	-3126
▁могла	-3127
▁пригла	-3128
▁случае	-3129
вольстви	-3130
ES	-3131
▁Sc	-3132
▁ше	-3133
....	-3134
▁Lea	-3135
▁Our	-3136
eally	-3137
ности	-3138
шение	-3139
▁назы	-3140
▁начина	-3141
ta	-3142
ton	-3143
лов	-3144
▁OF	-3145
enty	-3146
▁дет	-3147
▁обя	-3148
actly	-3149
▁lead	-3150
▁ваше	-3151
▁своим	-3152
▁dinner	-3153
▁приходи	-3154
mm	-3155
щь	-3156
тил	-3157
anny	-3158
пере	-3159
ража	-3160
чный	-3161
▁Two	-3162
▁ill	-3163
▁Бар	-3164
▁Дай	-3165
rench	-3166
▁fore	-3167
▁Чего	-3168
▁дура	-3169
▁хоть	-3170
▁grand	-3171
▁замуж	-3172
ey	-3173
чай	-3174
▁сва	-3175
bably	-3176
▁виду	-3177
▁семь	-3178
▁После	-3179
▁именно	-3180
▁спраши	-3181
app	-3182
▁Bo	-3183
удес	-3184
йдите	-3185
▁front	-3186
▁говоришь	-3187
gr	-3188
ces	-3189
▁Isn	-3190
▁поза	-3191
▁разве	-3192
▁часов	-3193
▁thousand	-3194
ели	-3195
ates	-3196
ison	-3197
▁бли	-3198
ident	-3199
конец	-3200
▁дочь	-3201
▁побе	-3202
▁успе	-3203
дленно	-3204
▁спроси	-3205
▁которая	-3206
ork	-3207
une	-3208
▁Дю	-3209
▁Ещё	-3210
▁Пер	-3211
▁Char	-3212
▁hate	-3213
▁exper	-3214
▁inter	-3215
▁одного	-3216
▁удовольстви	-3217
цев	-3218
шим	-3219
мент	-3220
мина	-3221
пита	-3222
▁Рас	-3223
riage	-3224
▁seems	-3225
▁wanna	-3226
▁shouldn	-3227
шно	-3228
кать	-3229
▁rel	-3230
▁зво	-3231
▁дней	-3232
▁прошло	-3233
▁himself	-3234
▁возвраща	-3235
OW	-3236
ху	-3237
ots	-3238
▁rid	-3239
▁тро	-3240
▁уме	-3241
шенно	-3242
▁able	-3243
▁till	-3244
▁руку	-3245
▁важно	-3246
▁номер	-3247
▁Really	-3248
▁Извините	-3249
▁30	-3250
▁Su	-3251
ial	-3252
вин	-3253
лез	-3254
▁dep	-3255
▁dro	-3256
▁sch	-3257
▁един	-3258
▁захо	-3259
▁almost	-3260
▁office	-3261
▁Скажите	-3262
ka	-3263
raw	-3264
стей	-3265
▁мир	-3266
▁прин	-3267
▁позна	-3268
▁уходи	-3269
тия	-3270
hind	-3271
ital	-3272
дний	-3273
коле	-3274
▁Ага	-3275
▁вто	-3276
ужели	-3277
▁Keep	-3278
▁deal	-3279
▁попа	-3280
▁tired	-3281
▁нужна	-3282
▁Доброе	-3283
▁быстро	-3284
лл	-3285
эй	-3286
ains	-3287
ween	-3288
стой	-3289
▁Гра	-3290
▁boat	-3291
▁защи	-3292
▁taken	-3293
▁благо	-3294
▁матери	-3295
▁понимаешь	-3296
io	-3297
вни	-3298
льд	-3299
сов	-3300
вели	-3301
▁ужи	-3302
чарова	-3303
▁Baron	-3304
▁hurry	-3305
▁внима	-3306
▁зачем	-3307
▁милли	-3308
▁ребята	-3309
ene	-3310
hip	-3311
ken	-3312
ury	-3313
люб	-3314
▁ак	-3315
ency	-3316
нись	-3317
▁Sit	-3318
▁lie	-3319
▁pat	-3320
▁уди	-3321
▁serv	-3322
fessor	-3323
▁вернусь	-3324
▁Se	-3325
▁ri	-3326
fully	-3327
terday	-3328
▁боюсь	-3329
▁долла	-3330
▁предпо	-3331
No	-3332
rew	-3333
ched	-3334
unch	-3335
▁art	-3336
▁det	-3337
▁nat	-3338
▁win	-3339
▁вся	-3340
▁French	-3341
ric	-3342
нья	-3343
ших	-3344
щей	-3345
▁мое	-3346
▁нео	-3347
▁шля	-3348
▁Like	-3349
▁least	-3350
▁lovely	-3351
жде	-3352
ним	-3353
▁оно	-3354
▁surpr	-3355
▁прода	-3356
▁твоей	-3357
▁answer	-3358
▁произо	-3359
▁feeling	-3360
▁попроси	-3361
пом	-3362
ited	-3363
▁lear	-3364
▁seem	-3365
▁Ваша	-3366
▁ошиб	-3367
▁глупо	-3368
▁каждый	-3369
▁делаешь	-3370
Yes	-3371
ten	-3372
дова	-3373
игра	-3374
льный	-3375
▁забо	-3376
вольно	-3377
▁Sorry	-3378
▁ужасно	-3379
▁Господин	-3380
VE	-3381
ax	-3382
сле	-3383
тин	-3384
тый	-3385
леко	-3386
▁def	-3387
meric	-3388
▁умер	-3389
▁girls	-3390
▁город	-3391
▁понял	-3392
▁попро	-3393
▁promise	-3394
ush	-3395
наче	-3396
▁спе	-3397
жется	-3398
▁fall	-3399
▁pick	-3400
▁одну	-3401
▁пару	-3402
▁Дайте	-3403
▁любви	-3404
▁нашей	-3405
▁Отлично	-3406
▁встреча	-3407
вос	-3408
сом	-3409
▁Тво	-3410
ваешь	-3411
▁easy	-3412
▁моих	-3413
▁проб	-3414
ровать	-3415
▁clear	-3416
▁write	-3417
▁давно	-3418
▁дверь	-3419
▁непри	-3420
▁thanks	-3421
▁голову	-3422
ert	-3423
док	-3424
кер	-3425
раз	-3426
ject	-3427
▁fav	-3428
▁кол	-3429
▁пес	-3430
▁Does	-3431
▁милая	-3432
▁making	-3433
▁минуту	-3434
▁пришли	-3435
▁terrible	-3436
▁действительно	-3437
дим	-3438
▁sn	-3439
▁ря	-3440
еста	-3441
▁lose	-3442
▁Знаете	-3443
▁present	-3444
амо	-3445
кре	-3446
▁By	-3447
osed	-3448
vern	-3449
▁dog	-3450
▁недо	-3451
▁уйти	-3452
▁blood	-3453
▁устро	-3454
▁Americ	-3455
▁behind	-3456
▁different	-3457
▁шо	-3458
кажу	-3459
▁Сто	-3460
ктора	-3461
▁boss	-3462
▁coll	-3463
▁less	-3464
▁sort	-3465
▁Мадам	-3466
▁Месье	-3467
▁Смотри	-3468
▁такого	-3469
▁происходит	-3470
ele	-3471
люсь	-3472
▁100	-3473
▁Ник	-3474
▁дво	-3475
пуска	-3476
▁Об	-3477
▁оде	-3478
▁Hurry	-3479
▁Leave	-3480
▁street	-3481
▁случай	-3482
▁strange	-3483
▁Послушай	-3484
Да	-3485
eed	-3486
ois	-3487
дный	-3488
есто	-3489
сить	-3490
▁tou	-3491
▁Без	-3492
▁сна	-3493
anger	-3494
▁high	-3495
▁near	-3496
▁ново	-3497
▁думала	-3498
▁измени	-3499
▁anymore	-3500
▁between	-3501
чен	-3502
▁дя	-3503
ives	-3504
▁pri	-3505
▁вла	-3506
▁мар	-3507
▁free	-3508
▁side	-3509
selves	-3510
говари	-3511
▁anyway	-3512
▁Благода	-3513
гна	-3514
▁WH	-3515
vers	-3516
▁cut	-3517
▁wed	-3518
▁пон	-3519
▁From	-3520
▁gets	-3521
▁land	-3522
▁тому	-3523
▁looks	-3524
▁взгля	-3525
▁прово	-3526
▁living	-3527
▁wonderful	-3528
дём	-3529
лек	-3530
▁тю	-3531
▁Was	-3532
▁air	-3533
▁Еще	-3534
▁моё	-3535
▁mess	-3536
▁вста	-3537
▁silly	-3538
▁друга	-3539
▁вообще	-3540
щем	-3541
▁Ох	-3542
▁тя	-3543
ings	-3544
жить	-3545
щего	-3546
▁Аль	-3547
▁опо	-3548
▁сын	-3549
▁цен	-3550
ounds	-3551
графи	-3552
▁move	-3553
▁моим	-3554
▁взять	-3555
▁others	-3556
▁вашего	-3557
▁слышал	-3558
▁Majesty	-3559
рит	-3560
рма	-3561
коми	-3562
▁sim	-3563
чение	-3564
▁Один	-3565
▁верн	-3566
▁music	-3567
▁места	-3568
▁слово	-3569
▁спать	-3570
ale	-3571
сен	-3572
▁Ed	-3573
▁Man	-3574
▁mis	-3575
▁дес	-3576
▁оди	-3577
▁Phil	-3578
▁Мама	-3579
▁брат	-3580
▁зара	-3581
▁сами	-3582
меется	-3583
▁слуша	-3584
▁cannot	-3585
▁видела	-3586
▁ненави	-3587
▁хватит	-3588
шен	-3589
ular	-3590
ники	-3591
▁Dar	-3592
▁Even	-3593
▁любит	-3594
▁Слушай	-3595
лия	-3596
cial	-3597
реди	-3598
▁esc	-3599
▁могут	-3600
▁письмо	-3601
▁certainly	-3602
ah	-3603
br	-3604
ел	-3605
ama	-3606
▁Сер	-3607
▁Уже	-3608
▁поя	-3609
ience	-3610
▁visit	-3611
▁права	-3612
▁Завтра	-3613
▁мальчик	-3614
▁преступ	-3615
,"	-3616
рых	-3617
цов	-3618
ёрт	-3619
▁дра	-3620
▁known	-3621
▁одной	-3622
▁Excell	-3623
▁поздно	-3624
▁anybody	-3625
нию	-3626
чил	-3627
шей	-3628
irty	-3629
lish	-3630
▁меч	-3631
фессор	-3632
▁Чтобы	-3633
▁пойти	-3634
▁стать	-3635
▁сделаю	-3636
без	-3637
▁Sw	-3638
▁Uh	-3639
▁uh	-3640
▁Ки	-3641
▁Ри	-3642
cent	-3643
шите	-3644
▁spo	-3645
▁tre	-3646
▁сту	-3647
дупре	-3648
▁Тони	-3649
▁судь	-3650
▁either	-3651
▁любишь	-3652
▁написа	-3653
▁мистера	-3654
▁pleasure	-3655
ze	-3656
жь	-3657
idd	-3658
ipp	-3659
шое	-3660
▁Кро	-3661
держи	-3662
▁vill	-3663
▁small	-3664
▁между	-3665
▁Хватит	-3666
▁смотри	-3667
▁Ме	-3668
дель	-3669
тели	-3670
▁leg	-3671
▁ner	-3672
owers	-3673
▁point	-3674
▁будто	-3675
▁подож	-3676
▁честь	-3677
▁become	-3678
▁number	-3679
fer	-3680
еру	-3681
▁ele	-3682
▁exc	-3683
▁мас	-3684
▁уезжа	-3685
▁Понима	-3686
▁probably	-3687
▁yesterday	-3688
▁sk	-3689
▁tw	-3690
▁Pet	-3691
▁adm	-3692
▁mil	-3693
▁par	-3694
▁wit	-3695
▁Эта	-3696
▁джен	-3697
дитесь	-3698
▁loved	-3699
▁какая	-3700
▁причи	-3701
▁working	-3702
▁Никогда	-3703
▁познакоми	-3704
кус	-3705
лой	-3706
тим	-3707
щая	-3708
ches	-3709
лови	-3710
▁боя	-3711
▁дву	-3712
▁изв	-3713
▁пое	-3714
▁тер	-3715
▁dare	-3716
▁небо	-3717
▁ними	-3718
▁allow	-3719
▁готов	-3720
▁пришел	-3721
▁question	-3722
irt	-3723
пил	-3724
▁иг	-3725
▁ten	-3726
▁hang	-3727
▁Никто	-3728
▁видели	-3729
▁говорила	-3730
▁долларов	-3731
▁остаться	-3732
эм	-3733
юр	-3734
дай	-3735
кля	-3736
ants	-3737
гото	-3738
▁сте	-3739
▁full	-3740
▁plan	-3741
▁ребен	-3742
▁Robert	-3743
дон	-3744
зом	-3745
▁Му	-3746
▁six	-3747
▁жив	-3748
▁нау	-3749
▁дать	-3750
▁пожа	-3751
▁рада	-3752
▁danger	-3753
▁знаком	-3754
▁способ	-3755
▁Дорогая	-3756
▁мужчина	-3757
▁Professor	-3758
"!	-3759
IT	-3760
Ты	-3761
▁Ne	-3762
▁уб	-3763
ific	-3764
▁Put	-3765
▁Май	-3766
▁Роб	-3767
вайся	-3768
▁глаз	-3769
▁полно	-3770
▁accept	-3771
▁Посмотри	-3772
▁Everything	-3773
▁Mor	-3774
▁тор	-3775
▁book	-3776
▁suit	-3777
▁музы	-3778
▁стал	-3779
▁опять	-3780
▁посла	-3781
▁стари	-3782
▁Джордж	-3783
возможно	-3784
▁принима	-3785
▁представля	-3786
▁ст	-3787
aces	-3788
мира	-3789
чест	-3790
▁ожи	-3791
▁city	-3792
▁поки	-3793
▁укра	-3794
eneral	-3795
▁drunk	-3796
▁почти	-3797
▁собра	-3798
▁Откуда	-3799
▁прости	-3800
uc	-3801
дов	-3802
рил	-3803
ines	-3804
ters	-3805
▁aff	-3806
▁cop	-3807
▁div	-3808
▁сбе	-3809
▁сум	-3810
енера	-3811
▁Пред	-3812
▁worth	-3813
▁смерти	-3814
▁Позволь	-3815
GH	-3816
еры	-3817
▁Ди	-3818
▁Фи	-3819
▁ши	-3820
▁имею	-3821
▁shoot	-3822
▁чудес	-3823
▁explain	-3824
▁которую	-3825
Йор	-3826
ames	-3827
ders	-3828
ield	-3829
mand	-3830
пуга	-3831
▁Два	-3832
▁дев	-3833
▁смы	-3834
▁тол	-3835
▁imag	-3836
▁sail	-3837
▁наде	-3838
лянусь	-3839
▁fault	-3840
▁weeks	-3841
▁поезд	-3842
▁school	-3843
▁perhaps	-3844
ок	-3845
цом	-3846
ваем	-3847
теля	-3848
хоже	-3849
▁Hen	-3850
▁Бра	-3851
льмен	-3852
шения	-3853
▁Jean	-3854
▁tele	-3855
▁Помо	-3856
▁close	-3857
▁swear	-3858
▁свадь	-3859
▁первый	-3860
▁Неужели	-3861
▁somebody	-3862
▁которого	-3863
▁уг	-3864
стве	-3865
▁Бер	-3866
ching	-3867
▁dest	-3868
▁trust	-3869
▁обяза	-3870
▁подоб	-3871
He	-3872
umb	-3873
▁hit	-3874
▁Хар	-3875
ndred	-3876
етыре	-3877
▁cast	-3878
▁check	-3879
▁murde	-3880
▁stuff	-3881
тельный	-3882
▁Говори	-3883
▁Пойдем	-3884
▁wedding	-3885
▁проблем	-3886
▁стороны	-3887
▁единствен	-3888
▁прекрасно	-3889
AS	-3890
CE	-3891
cc	-3892
ik	-3893
▁.	-3894
бро	-3895
▁IN	-3896
▁Pl	-3897
▁ma	-3898
ided	-3899
medi	-3900
вили	-3901
него	-3902
▁ран	-3903
ondon	-3904
▁High	-3905
▁peace	-3906
▁пусть	-3907
▁though	-3908
fic	-3909
тят	-3910
▁40	-3911
ades	-3912
noon	-3913
ницу	-3914
▁sub	-3915
▁дал	-3916
▁две	-3917
▁кри	-3918
▁hasn	-3919
▁sick	-3920
▁Могу	-3921
▁Фили	-3922
▁нему	-3923
▁стре	-3924
▁Could	-3925
▁earth	-3926
▁gotta	-3927
▁mustn	-3928
▁рядом	-3929
▁London	-3930
▁murder	-3931
тельства	-3932
ERE	-3933
влю	-3934
пал	-3935
сил	-3936
кото	-3937
▁fix	-3938
▁sea	-3939
▁squ	-3940
▁Буд	-3941
otten	-3942
▁past	-3943
▁идея	-3944
▁фото	-3945
▁чита	-3946
▁tried	-3947
▁угодно	-3948
▁outside	-3949
▁наверное	-3950
ana	-3951
nie	-3952
▁ra	-3953
анни	-3954
▁Hon	-3955
▁pub	-3956
▁Лон	-3957
▁Тут	-3958
▁доме	-3959
▁These	-3960
▁джент	-3961
▁любез	-3962
▁asking	-3963
▁excuse	-3964
▁ladies	-3965
▁hundred	-3966
гер	-3967
лок	-3968
цуз	-3969
▁AND	-3970
▁Нью	-3971
▁кем	-3972
▁safe	-3973
▁высо	-3974
▁месяц	-3975
▁скажи	-3976
▁couple	-3977
▁скорее	-3978
▁женщины	-3979
▁мадемуазель	-3980
gu	-3981
пь	-3982
тр	-3983
цен	-3984
нный	-3985
▁Tar	-3986
▁Жан	-3987
▁сом	-3988
▁THAT	-3989
▁авто	-3990
▁мерт	-3991
▁мире	-3992
▁часа	-3993
▁paper	-3994
▁words	-3995
▁какие	-3996
▁милый	-3997
▁самое	-3998
▁последний	-3999
alm	-4000
ste	-4001
тем	-4002
рите	-4003
того	-4004
стати	-4005
▁wear	-4006
▁услы	-4007
itting	-4008
▁court	-4009
▁strong	-4010
▁window	-4011
▁никого	-4012
▁посмотри	-4013
▁собираюсь	-4014
vo	-4015
▁Эд	-4016
▁Ant	-4017
▁cho	-4018
▁pur	-4019
▁Дра	-4020
▁иду	-4021
night	-4022
казал	-4023
▁вашу	-4024
▁необ	-4025
▁catch	-4026
▁работы	-4027
UT	-4028
▁Gl	-4029
▁Ру	-4030
шего	-4031
▁Rem	-4032
▁add	-4033
▁ext	-4034
▁поме	-4035
▁swell	-4036
▁находи	-4037
ometimes	-4038
▁большой	-4039
▁говорят	-4040
▁afternoon	-4041
▁Благодарю	-4042
▁Подождите	-4043
▁вернуться	-4044
▁понимаете	-4045
It	-4046
дёт	-4047
каз	-4048
нил	-4049
льзо	-4050
▁pie	-4051
▁Тар	-4052
▁чет	-4053
ually	-4054
изнес	-4055
колеп	-4056
▁bank	-4057
▁приш	-4058
▁забыл	-4059
▁малыш	-4060
▁started	-4061
▁придется	-4062
▁разговари	-4063
osp	-4064
uin	-4065
йди	-4066
лад	-4067
ляю	-4068
▁вд	-4069
▁ог	-4070
пыта	-4071
чная	-4072
▁Hel	-4073
▁ann	-4074
▁Три	-4075
▁ску	-4076
iment	-4077
ution	-4078
▁clot	-4079
▁stra	-4080
▁дети	-4081
▁отно	-4082
▁делает	-4083
▁осталь	-4084
▁правду	-4085
▁предупре	-4086
тк	-4087
els	-4088
key	-4089
ley	-4090
▁IT	-4091
rist	-4092
▁Won	-4093
▁Кон	-4094
▁оби	-4095
▁save	-4096
▁дево	-4097
▁радо	-4098
ложить	-4099
▁given	-4100
▁таких	-4101
▁forgive	-4102
▁делаете	-4103
▁надеюсь	-4104
▁немедленно	-4105
OT	-4106
фо	-4107
ald	-4108
aul	-4109
rat	-4110
uty	-4111
щай	-4112
▁Ho	-4113
дала	-4114
дили	-4115
▁mem	-4116
▁Кра	-4117
▁экс	-4118
rence	-4119
▁join	-4120
▁sake	-4121
▁About	-4122
▁Томми	-4123
▁кроме	-4124
▁immedi	-4125
▁Похоже	-4126
▁пришёл	-4127
LE	-4128
ille	-4129
енок	-4130
мери	-4131
чает	-4132
▁fil	-4133
▁Нем	-4134
▁Нес	-4135
▁поку	-4136
▁Think	-4137
▁human	-4138
▁state	-4139
▁далеко	-4140
▁дальше	-4141
▁marriage	-4142
▁вернулся	-4143
▁останови	-4144
oun	-4145
zan	-4146
дле	-4147
яти	-4148
...?	-4149
reed	-4150
▁Jul	-4151
▁Эти	-4152
▁кор	-4153
▁учи	-4154
▁фор	-4155
жения	-4156
▁cost	-4157
▁soul	-4158
stairs	-4159
▁arrest	-4160
▁твоего	-4161
▁captain	-4162
▁million	-4163
▁следует	-4164
€.	-4165
kes	-4166
ogn	-4167
нял	-4168
▁18	-4169
olog	-4170
кими	-4171
чено	-4172
▁Mary	-4173
▁паль	-4174
▁прия	-4175
▁Tommy	-4176
▁alive	-4177
artment	-4178
▁pardon	-4179
▁старый	-4180
▁Дорогой	-4181
▁Something	-4182
OM	-4183
by	-4184
And	-4185
GHT	-4186
дят	-4187
чёт	-4188
дная	-4189
▁Ell	-4190
щение	-4191
▁More	-4192
▁Tony	-4193
▁Папа	-4194
▁свое	-4195
▁тюрь	-4196
▁спокой	-4197
▁Кажется	-4198
ges	-4199
цем	-4200
▁25	-4201
▁ev	-4202
дали	-4203
▁ris	-4204
▁Дэн	-4205
▁бар	-4206
▁кни	-4207
▁уни	-4208
▁body	-4209
▁tick	-4210
колько	-4211
▁phone	-4212
▁закры	-4213
▁пережи	-4214
▁понять	-4215
▁пришла	-4216
▁работать	-4217
ries	-4218
йдёт	-4219
▁fig	-4220
▁pal	-4221
▁Кри	-4222
▁line	-4223
▁shut	-4224
▁Ведь	-4225
▁escap	-4226
▁Хочешь	-4227
▁нашего	-4228
▁серьёз	-4229
▁состоя	-4230
▁perfect	-4231
▁рассказы	-4232
▁счастлив	-4233
0.	-4234
▁i	-4235
▁fo	-4236
дина	-4237
нант	-4238
мнишь	-4239
▁step	-4240
▁Идём	-4241
▁Отец	-4242
▁хороший	-4243
▁совершенно	-4244
bo	-4245
to	-4246
oof	-4247
хра	-4248
▁HA	-4249
▁Би	-4250
read	-4251
used	-4252
дает	-4253
ропи	-4254
▁Чем	-4255
lcome	-4256
димся	-4257
ногда	-4258
▁coff	-4259
▁sell	-4260
▁shot	-4261
▁Возь	-4262
▁offic	-4263
▁throw	-4264
▁выйти	-4265
▁гости	-4266
▁какое	-4267
▁повез	-4268
▁других	-4269
▁думать	-4270
▁предло	-4271
▁сестра	-4272
▁exactly	-4273
▁столько	-4274
son	-4275
ude	-4276
вом	-4277
лла	-4278
бить	-4279
вата	-4280
вока	-4281
лять	-4282
▁ind	-4283
▁год	-4284
▁гро	-4285
▁Bill	-4286
▁York	-4287
▁fear	-4288
▁бере	-4289
▁изви	-4290
idence	-4291
pector	-4292
▁Shall	-4293
ossible	-4294
▁узнать	-4295
▁скажешь	-4296
тво	-4297
тел	-4298
▁17	-4299
▁Sm	-4300
ured	-4301
мисс	-4302
▁whe	-4303
uture	-4304
ваюсь	-4305
менты	-4306
ников	-4307
ствие	-4308
тичес	-4309
▁Make	-4310
▁Poor	-4311
▁fort	-4312
▁heal	-4313
▁song	-4314
▁верю	-4315
▁шанс	-4316
▁carry	-4317
▁madam	-4318
▁прибы	-4319
▁выигра	-4320
▁Darling	-4321
▁необходи	-4322
CH	-4323
шую	-4324
▁La	-4325
▁Шу	-4326
▁mag	-4327
▁вни	-4328
▁кому	-4329
сторож	-4330
▁lives	-4331
▁white	-4332
▁Боюсь	-4333
▁детей	-4334
▁самый	-4335
▁bother	-4336
▁вопрос	-4337
▁Подожди	-4338
их	-4339
bar	-4340
chen	-4341
ette	-4342
rave	-4343
ноги	-4344
▁Che	-4345
▁Ins	-4346
▁spe	-4347
▁sus	-4348
uring	-4349
говор	-4350
▁hung	-4351
▁ring	-4352
▁бума	-4353
▁утра	-4354
▁цвет	-4355
▁awful	-4356
▁begin	-4357
▁often	-4358
▁парни	-4359
вайтесь	-4360
▁belong	-4361
▁master	-4362
▁Прекрас	-4363
▁несчаст	-4364
▁possible	-4365
▁Смотрите	-4366
▁джентльмен	-4367
ента	-4368
роде	-4369
▁inc	-4370
▁Тем	-4371
▁нер	-4372
▁пья	-4373
ering	-4374
▁bott	-4375
▁rece	-4376
▁Ваши	-4377
▁граф	-4378
▁разу	-4379
▁позже	-4380
▁другом	-4381
▁станет	-4382
▁changed	-4383
▁clothes	-4384
▁говорили	-4385
СТ	-4386
пп	-4387
блю	-4388
щен	-4389
▁Ad	-4390
▁Hi	-4391
▁ор	-4392
вание	-4393
ность	-4394
▁пожи	-4395
▁роди	-4396
▁black	-4397
▁Париж	-4398
▁забра	-4399
▁иначе	-4400
▁коман	-4401
▁оказа	-4402
▁часто	-4403
▁Tarzan	-4404
▁Послушайте	-4405
▁immediately	-4406
ron	-4407
дра	-4408
теш	-4409
ract	-4410
room	-4411
▁Boy	-4412
▁dam	-4413
▁Aren	-4414
▁Help	-4415
▁своё	-4416
▁холо	-4417
помина	-4418
▁Marie	-4419
▁возра	-4420
▁Nobody	-4421
▁позабо	-4422
▁сильно	-4423
▁English	-4424
▁закончи	-4425
▁сделали	-4426
▁complete	-4427
▁чувствую	-4428
ек	-4429
емь	-4430
тур	-4431
ages	-4432
нешь	-4433
▁bag	-4434
▁бол	-4435
▁кли	-4436
▁пож	-4437
вался	-4438
▁danc	-4439
▁doll	-4440
▁weren	-4441
▁знала	-4442
▁Здравствуй	-4443
joy	-4444
▁WE	-4445
▁Ber	-4446
▁abs	-4447
▁cap	-4448
▁суд	-4449
▁trip	-4450
▁doubt	-4451
▁guest	-4452
▁имеет	-4453
▁винова	-4454
▁company	-4455
▁очарова	-4456
▁Remember	-4457
▁Excellency	-4458
Oh	-4459
uel	-4460
вите	-4461
грам	-4462
льзу	-4463
▁род	-4464
▁Didn	-4465
▁Jose	-4466
▁prot	-4467
▁идет	-4468
▁short	-4469
▁table	-4470
▁France	-4471
▁future	-4472
▁heaven	-4473
▁looked	-4474
▁неболь	-4475
▁показа	-4476
▁careful	-4477
ma	-4478
нит	-4479
пря	-4480
ряз	-4481
чик	-4482
▁HE	-4483
гать	-4484
▁Ser	-4485
▁мол	-4486
▁Call	-4487
▁Тебя	-4488
▁лицо	-4489
▁lucky	-4490
▁Держи	-4491
▁конце	-4492
▁recogn	-4493
▁seeing	-4494
▁Хотите	-4495
▁straight	-4496
▁невозможно	-4497
sy	-4498
лья	-4499
тах	-4500
oint	-4501
udge	-4502
▁pos	-4503
arent	-4504
▁beha	-4505
▁dire	-4506
▁pull	-4507
▁whom	-4508
▁Стра	-4509
роятно	-4510
▁meant	-4511
▁подру	-4512
▁совет	-4513
▁также	-4514
тельное	-4515
▁orders	-4516
▁papers	-4517
▁Именно	-4518
▁видишь	-4519
ур	-4520
roy	-4521
▁ed	-4522
▁оч	-4523
That	-4524
aste	-4525
dden	-4526
hose	-4527
orce	-4528
вобо	-4529
ляйн	-4530
ских	-4531
шить	-4532
▁War	-4533
▁поб	-4534
▁game	-4535
▁лоша	-4536
▁power	-4537
▁Фанни	-4538
▁другу	-4539
▁привы	-4540
▁таком	-4541
▁Christ	-4542
▁forgot	-4543
▁nobody	-4544
▁sudden	-4545
▁момент	-4546
сторожно	-4547
▁наконец	-4548
▁никаких	-4549
▁получить	-4550
emy	-4551
гли	-4552
кар	-4553
шал	-4554
таки	-4555
хать	-4556
шишь	-4557
▁sad	-4558
▁sto	-4559
▁бои	-4560
▁вон	-4561
▁кры	-4562
дится	-4563
▁fair	-4564
▁ones	-4565
▁rich	-4566
▁sett	-4567
▁star	-4568
титься	-4569
▁needs	-4570
▁spend	-4571
▁treat	-4572
▁подоз	-4573
▁поеха	-4574
▁пойма	-4575
onsense	-4576
▁адвока	-4577
▁everyone	-4578
▁произошло	-4579
van	-4580
жай	-4581
ilty	-4582
▁ran	-4583
▁гре	-4584
▁hair	-4585
▁взял	-4586
▁обма	-4587
▁пона	-4588
▁разо	-4589
ходить	-4590
▁favor	-4591
▁одино	-4592
▁Доброй	-4593
ствовать	-4594
▁приятно	-4595
▁сделала	-4596
▁Highness	-4597
▁Позвольте	-4598
ked	-4599
сла	-4600
тит	-4601
цес	-4602
▁pen	-4603
▁Бил	-4604
▁пас	-4605
▁той	-4606
лость	-4607
перед	-4608
чения	-4609
▁Joan	-4610
▁Mart	-4611
▁conf	-4612
▁died	-4613
▁feet	-4614
▁moon	-4615
▁vict	-4616
▁Моло	-4617
▁Ника	-4618
▁мужа	-4619
▁наша	-4620
▁писа	-4621
▁touch	-4622
▁fright	-4623
▁report	-4624
▁превос	-4625
▁товари	-4626
йм	-4627
вит	-4628
вку	-4629
ите	-4630
нка	-4631
плы	-4632
шее	-4633
miss	-4634
ones	-4635
reen	-4636
ures	-4637
▁Con	-4638
▁Nat	-4639
▁cab	-4640
▁suc	-4641
▁вок	-4642
▁дви	-4643
▁beat	-4644
▁особ	-4645
▁horse	-4646
▁найду	-4647
▁наших	-4648
▁солда	-4649
пустите	-4650
▁Прости	-4651
▁неделю	-4652
▁хотели	-4653
▁mistake	-4654
▁charming	-4655
▁everybody	-4656
We	-4657
рот	-4658
щаю	-4659
▁ге	-4660
врем	-4661
гази	-4662
▁Sch	-4663
▁smo	-4664
дайте	-4665
▁lock	-4666
▁мене	-4667
esides	-4668
▁Uncle	-4669
▁hotel	-4670
▁Через	-4671
▁giving	-4672
▁honest	-4673
▁капита	-4674
▁прежде	-4675
▁Господа	-4676
▁Капитан	-4677
тт	-4678
ien	-4679
ows	-4680
Это	-4681
бор	-4682
дую	-4683
▁Du	-4684
oose	-4685
веря	-4686
▁cig	-4687
▁med	-4688
▁sil	-4689
▁Ген	-4690
▁охо	-4691
▁Lady	-4692
▁conc	-4693
▁king	-4694
▁квар	-4695
▁кофе	-4696
▁стро	-4697
▁clean	-4698
▁наста	-4699
▁coffee	-4700
▁disapp	-4701
▁govern	-4702
▁inside	-4703
▁комнату	-4704
▁Наверное	-4705
ET	-4706
ST	-4707
law	-4708
льф	-4709
тая	-4710
▁di	-4711
elle	-4712
гите	-4713
▁bec	-4714
▁cir	-4715
▁cur	-4716
▁фун	-4717
▁duty	-4718
▁prop	-4719
▁влюб	-4720
▁доку	-4721
▁hello	-4722
▁takes	-4723
▁Англи	-4724
▁вашим	-4725
▁иметь	-4726
▁легко	-4727
▁вечера	-4728
ertainly	-4729
▁arrived	-4730
▁поэтому	-4731
▁interested	-4732
ол	-4733
чек	-4734
▁съ	-4735
rodu	-4736
uten	-4737
▁200	-4738
▁Att	-4739
▁Ind	-4740
▁sal	-4741
▁sun	-4742
▁Оно	-4743
▁фер	-4744
iting	-4745
▁Russ	-4746
▁hosp	-4747
▁чему	-4748
▁Точно	-4749
▁добра	-4750
▁решил	-4751
▁шесть	-4752
▁hungry	-4753
▁prison	-4754
▁выпить	-4755
▁замети	-4756
▁обычно	-4757
▁которой	-4758
нер	-4759
:00.	-4760
дись	-4761
▁Pol	-4762
▁Sil	-4763
▁нач	-4764
▁офи	-4765
▁сты	-4766
ander	-4767
плохо	-4768
▁Jane	-4769
▁busy	-4770
▁suff	-4771
▁Гово	-4772
▁Разу	-4773
▁хотя	-4774
вление	-4775
▁Those	-4776
▁honey	-4777
▁компа	-4778
▁города	-4779
▁нечего	-4780
▁Господи	-4781
▁promised	-4782
▁happiness	-4783
co	-4784
Не	-4785
амы	-4786
ард	-4787
вье	-4788
доб	-4789
дох	-4790
жка	-4791
льз	-4792
▁ME	-4793
▁Су	-4794
iled	-4795
вета	-4796
▁val	-4797
▁Чар	-4798
attle	-4799
ities	-4800
мотрю	-4801
надле	-4802
▁coat	-4803
▁впер	-4804
▁разре	-4805
▁Тарзан	-4806
▁магази	-4807
▁комнате	-4808
▁посмотреть	-4809
ЕН	-4810
ppy	-4811
thy	-4812
тие	-4813
шек	-4814
шке	-4815
▁ya	-4816
▁ци	-4817
aged	-4818
ider	-4819
вный	-4820
жела	-4821
нили	-4822
▁age	-4823
▁key	-4824
▁ува	-4825
моему	-4826
▁kept	-4827
▁pain	-4828
▁quar	-4829
▁Твой	-4830
▁двух	-4831
▁мало	-4832
▁пути	-4833
▁силь	-4834
ждения	-4835
▁право	-4836
▁entire	-4837
▁бизнес	-4838
▁помощь	-4839
▁четыре	-4840
▁respect	-4841
▁running	-4842
▁молодой	-4843
▁ребенок	-4844
дан	-4845
дка	-4846
пли	-4847
рак	-4848
▁El	-4849
▁Эр	-4850
ogra	-4851
гает	-4852
лена	-4853
тора	-4854
▁lay	-4855
▁Сле	-4856
▁заб	-4857
▁Nice	-4858
▁dark	-4859
▁изба	-4860
верить	-4861
▁Three	-4862
▁glass	-4863
▁lying	-4864
▁sound	-4865
▁возду	-4866
▁нашли	-4867
utenant	-4868
▁серьез	-4869
▁смерть	-4870
▁quickly	-4871
▁worried	-4872
▁ребенка	-4873
▁finished	-4874
▁Inspector	-4875
▁счастлива	-4876
нах	-4877
рко	-4878
тал	-4879
ницы	-4880
рази	-4881
▁arm	-4882
▁col	-4883
▁кла	-4884
▁Fine	-4885
▁conv	-4886
▁farm	-4887
▁neck	-4888
▁paid	-4889
▁upon	-4890
▁Хоро	-4891
▁скры	-4892
▁Daddy	-4893
▁eight	-4894
▁honor	-4895
▁mouth	-4896
▁Какое	-4897
▁Прекра	-4898
▁комисс	-4899
▁счастье	-4900
▁довольно	-4901
SD	-4902
har	-4903
гов	-4904
▁Bel	-4905
▁Out	-4906
▁exp	-4907
▁выс	-4908
▁тай	-4909
▁уво	-4910
жении	-4911
▁arms	-4912
▁обсу	-4913
▁Henry	-4914
▁early	-4915
▁knock	-4916
▁loves	-4917
▁Джейн	-4918
▁ваших	-4919
▁знали	-4920
тельная	-4921
▁другие	-4922
▁машину	-4923
▁доктора	-4924
▁отлично	-4925
▁повезло	-4926
▁принадле	-4927
▁представить	-4928
amb	-4929
let	-4930
▁Fr	-4931
ened	-4932
fast	-4933
upid	-4934
гами	-4935
нула	-4936
тать	-4937
▁Pat	-4938
▁Too	-4939
щайте	-4940
▁Shut	-4941
▁exam	-4942
▁inno	-4943
▁внут	-4944
▁твою	-4945
виться	-4946
▁англи	-4947
▁лично	-4948
▁умира	-4949
▁хвата	-4950
▁получа	-4951
▁playing	-4952
▁быстрее	-4953
▁полиции	-4954
▁жениться	-4955
▁Разумеется	-4956
uri	-4957
▁Ху	-4958
▁вид	-4959
нулся	-4960
помни	-4961
страи	-4962
▁Hans	-4963
▁ball	-4964
▁bird	-4965
▁ждет	-4966
▁каса	-4967
▁cross	-4968
▁enjoy	-4969
▁выход	-4970
▁женой	-4971
▁помню	-4972
▁пошли	-4973
▁произ	-4974
▁public	-4975
▁видите	-4976
▁месяца	-4977
▁следую	-4978
▁сообщи	-4979
▁подумал	-4980
▁неприятно	-4981
ya	-4982
nes	-4983
бри	-4984
тек	-4985
▁BE	-4986
лить	-4987
ступ	-4988
▁eye	-4989
важно	-4990
▁pack	-4991
▁wine	-4992
▁дядя	-4993
▁золо	-4994
▁хуже	-4995
▁First	-4996
▁Генри	-4997
▁пропа	-4998
▁bought	-4999
▁Больше	-5000
▁играть	-5001
▁calling	-5002
▁собствен	-5003
▁Certainly	-5004
ёд	-5005
elt	-5006
мая	-5007
рия	-5008
сит	-5009
▁Pe	-5010
ourt	-5011
ейте	-5012
▁hop	-5013
▁wat	-5014
▁важ	-5015
▁кре	-5016
▁Herr	-5017
▁priv	-5018
▁resp	-5019
▁spir	-5020
▁Коро	-5021
▁убил	-5022
▁Since	-5023
▁creat	-5024
▁Верно	-5025
▁имени	-5026
▁путеш	-5027
▁требу	-5028
▁женщин	-5029
▁платье	-5030
▁корабль	-5031
▁которое	-5032
▁согласи	-5033
▁рассказать	-5034
▁удовольствием	-5035
lt	-5036
€,	-5037
oon	-5038
the	-5039
анс	-5040
дес	-5041
▁Lu	-5042
IGHT	-5043
aret	-5044
люби	-5045
▁dra	-5046
▁фон	-5047
▁чис	-5048
▁cond	-5049
▁kids	-5050
▁Мэри	-5051
▁жерт	-5052
▁зада	-5053
▁чест	-5054
▁чуть	-5055
диться	-5056
▁among	-5057
▁worse	-5058
▁остро	-5059
▁worked	-5060
▁Скорее	-5061
▁hospital	-5062
AY	-5063
CT	-5064
ote	-5065
pap	-5066
▁Жи	-5067
▁Уж	-5068
▁ды	-5069
iter	-5070
sing	-5071
влен	-5072
кому	-5073
нице	-5074
▁Col	-5075
▁tea	-5076
▁Джи	-5077
▁Ему	-5078
▁Мои	-5079
▁улы	-5080
енное	-5081
мента	-5082
▁идёт	-5083
▁Fanny	-5084
▁steal	-5085
▁Идите	-5086
▁стран	-5087
▁plenty	-5088
▁Пойдём	-5089
▁откуда	-5090
▁Поэтому	-5091
uh	-5092
hol	-5093
olf	-5094
urb	-5095
вей	-5096
вка	-5097
лец	-5098
▁En	-5099
"...	-5100
лужи	-5101
скор	-5102
тали	-5103
▁Gee	-5104
▁LSD	-5105
▁Фри	-5106
▁мор	-5107
▁шко	-5108
нется	-5109
хвати	-5110
▁Dear	-5111
▁King	-5112
▁Сюда	-5113
incess	-5114
правда	-5115
щество	-5116
▁build	-5117
▁Опять	-5118
▁делал	-5119
▁парня	-5120
▁повто	-5121
▁приве	-5122
▁proper	-5123
▁Видишь	-5124
▁любить	-5125
▁murderer	-5126
SE	-5127
ead	-5128
rel	-5129
set	-5130
вки	-5131
лье	-5132
нда	-5133
▁24	-5134
ized	-5135
коло	-5136
льте	-5137
▁bur	-5138
▁sac	-5139
▁оба	-5140
▁поо	-5141
ально	-5142
▁Open	-5143
▁drop	-5144
▁gold	-5145
▁wall	-5146
▁Quick	-5147
▁вашем	-5148
▁очере	-5149
▁across	-5150
▁покажу	-5151
▁happens	-5152
itz	-5153
сье	-5154
уль	-5155
▁Их	-5156
iver	-5157
vous	-5158
▁Ale	-5159
▁mod	-5160
▁выз	-5161
▁зая	-5162
▁наз	-5163
clock	-5164
крета	-5165
▁Hold	-5166
▁born	-5167
cially	-5168
▁кровь	-5169
▁распо	-5170
ational	-5171
▁guilty	-5172
▁turned	-5173
▁генера	-5174
▁насчет	-5175
▁protect	-5176
▁скажите	-5177
▁приятель	-5178
▁следующий	-5179
кт	-5180
гом	-5181
итя	-5182
нге	-5183
пыт	-5184
чая	-5185
▁Чу	-5186
▁мя	-5187
itor	-5188
▁fly	-5189
▁lar	-5190
▁шоу	-5191
держа	-5192
▁сига	-5193
▁соба	-5194
▁твое	-5195
▁услу	-5196
▁Убира	-5197
▁выбра	-5198
▁выпол	-5199
▁конец	-5200
▁улице	-5201
▁attack	-5202
▁Джимми	-5203
▁забудь	-5204
▁decided	-5205
▁dressed	-5206
▁flowers	-5207
▁station	-5208
▁оставля	-5209
▁известно	-5210
▁somewhere	-5211
yn	-5212
ОН	-5213
вши	-5214
дви	-5215
рии	-5216
беру	-5217
▁Bet	-5218
▁Pap	-5219
ustom	-5220
ville	-5221
естви	-5222
▁Send	-5223
▁circ	-5224
▁fast	-5225
▁fish	-5226
▁Знаю	-5227
▁Идем	-5228
▁обви	-5229
▁печа	-5230
▁стои	-5231
▁теря	-5232
▁ясно	-5233
fortun	-5234
▁Under	-5235
▁Which	-5236
▁devil	-5237
▁offer	-5238
▁sight	-5239
▁trick	-5240
▁Джоан	-5241
▁prefer	-5242
▁Подума	-5243
▁некото	-5244
▁понадо	-5245
▁goodbye	-5246
▁newspap	-5247
▁Полагаю	-5248
▁образом	-5249
▁surprise	-5250
▁пришлось	-5251
▁forgotten	-5252
▁правильно	-5253
▁необходимо	-5254
мом	-5255
паз	-5256
▁Mc	-5257
▁уе	-5258
roud	-5259
вана	-5260
ходя	-5261
▁ang	-5262
▁fur	-5263
▁sat	-5264
▁мен	-5265
▁осо	-5266
▁food	-5267
▁горя	-5268
▁край	-5269
▁мень	-5270
▁огра	-5271
▁agree	-5272
▁Всего	-5273
▁моему	-5274
йтенант	-5275
▁Prince	-5276
▁caught	-5277
▁Видите	-5278
▁похоже	-5279
▁самого	-5280
▁другого	-5281
▁француз	-5282
▁хочется	-5283
▁волнуйся	-5284
▁impossible	-5285
for	-5286
пор	-5287
рым	-5288
сси	-5289
ists	-5290
няка	-5291
рети	-5292
чные	-5293
▁Cor	-5294
▁Lou	-5295
▁owe	-5296
▁клю	-5297
▁хра	-5298
phone	-5299
rades	-5300
ступи	-5301
▁felt	-5302
▁foot	-5303
▁harm	-5304
▁oper	-5305
▁Билл	-5306
▁lunch	-5307
▁uncle	-5308
▁правы	-5309
▁свете	-5310
▁созда	-5311
▁часть	-5312
▁миллио	-5313
▁хозяин	-5314
▁встречи	-5315
▁Tomorrow	-5316
▁простите	-5317
Вы	-5318
inc	-5319
вро	-5320
ган	-5321
емо	-5322
лка	-5323
чув	-5324
▁Ha	-5325
▁vo	-5326
ator	-5327
ская	-5328
▁Слы	-5329
▁шут	-5330
▁prep	-5331
▁Высо	-5332
▁замо	-5333
▁непо	-5334
▁обна	-5335
▁dirty	-5336
▁ехать	-5337
▁приду	-5338
▁дорогу	-5339
▁своими	-5340
▁четвер	-5341
▁Charles	-5342
▁General	-5343
▁village	-5344
lin	-5345
мпа	-5346
туа	-5347
▁DO	-5348
▁Пе	-5349
arry	-5350
idge	-5351
rant	-5352
ливо	-5353
нику	-5354
ньте	-5355
▁Has	-5356
▁Try	-5357
▁box	-5358
▁pun	-5359
▁tem	-5360
▁Ван	-5361
▁Джу	-5362
▁дай	-5363
▁hadn	-5364
▁дире	-5365
▁путь	-5366
▁успо	-5367
▁blame	-5368
▁Амери	-5369
▁покое	-5370
▁узнал	-5371
▁scared	-5372
▁уехать	-5373
▁фунтов	-5374
▁Alright	-5375
▁imagine	-5376
▁introdu	-5377
▁вечерин	-5378
▁осталось	-5379
▁спросить	-5380
▁фотографи	-5381
ходительство	-5382
IR	-5383
bly	-5384
off	-5385
ген	-5386
пан	-5387
хва	-5388
▁14	-5389
▁ca	-5390
▁Вз	-5391
▁Её	-5392
berg	-5393
ears	-5394
inal	-5395
нете	-5396
шему	-5397
▁opp	-5398
▁Пол	-5399
ratul	-5400
▁Love	-5401
▁guys	-5402
▁hide	-5403
▁poss	-5404
▁безо	-5405
▁близ	-5406
▁купи	-5407
▁нрав	-5408
▁стол	-5409
датель	-5410
▁Helen	-5411
▁Madam	-5412
▁stick	-5413
▁норма	-5414
▁танце	-5415
▁Gentle	-5416
▁castle	-5417
▁diffic	-5418
▁stupid	-5419
▁thinks	-5420
▁Кстати	-5421
статочно	-5422
▁понрави	-5423
▁оставить	-5424
IM	-5425
ini	-5426
зен	-5427
лею	-5428
шил	-5429
gram	-5430
iers	-5431
либо	-5432
тили	-5433
▁Ros	-5434
▁red	-5435
▁Фло	-5436
ments	-5437
▁Stay	-5438
▁road	-5439
▁sear	-5440
▁День	-5441
▁Поли	-5442
▁Твоя	-5443
▁вина	-5444
▁пара	-5445
▁прос	-5446
▁breat	-5447
▁crime	-5448
▁smart	-5449
▁вечно	-5450
▁экспе	-5451
▁Миссис	-5452
▁возьму	-5453
▁купить	-5454
ongratul	-5455
▁alright	-5456
▁witness	-5457
▁беспокои	-5458
▁breakfast	-5459
▁великолеп	-5460
▁профессор	-5461
5.	-5462
ko	-5463
ark	-5464
how	-5465
rey	-5466
Что	-5467
лер	-5468
мах	-5469
нен	-5470
пар	-5471
resh	-5472
вила	-5473
стер	-5474
▁вез	-5475
▁вне	-5476
▁port	-5477
▁Хочу	-5478
▁зави	-5479
▁найд	-5480
▁цело	-5481
▁чудо	-5482
кажите	-5483
▁Allen	-5484
▁привет	-5485
▁сможет	-5486
▁однажды	-5487
▁получил	-5488
зь	-5489
But	-5490
asc	-5491
ior	-5492
rie	-5493
вол	-5494
лит	-5495
лку	-5496
хом	-5497
▁ON	-5498
▁ty	-5499
▁Фа	-5500
▁ищ	-5501
ести	-5502
нием	-5503
▁Обе	-5504
▁уро	-5505
▁шта	-5506
ggest	-5507
▁none	-5508
▁зако	-5509
▁опре	-5510
▁поце	-5511
▁сына	-5512
▁ужин	-5513
▁arran	-5514
▁drive	-5515
▁learn	-5516
▁детка	-5517
▁новый	-5518
▁прият	-5519
▁хотим	-5520
▁contin	-5521
▁возьми	-5522
▁отказа	-5523
▁прекра	-5524
▁destroy	-5525
▁meeting	-5526
▁receive	-5527
▁suggest	-5528
▁Войдите	-5529
▁девушку	-5530
▁знакомы	-5531
▁переста	-5532
▁monsieur	-5533
ЕР	-5534
iot	-5535
вец	-5536
кун	-5537
▁Em	-5538
rowd	-5539
▁Дру	-5540
▁Рад	-5541
▁нём	-5542
▁язы	-5543
ories	-5544
wards	-5545
влека	-5546
полне	-5547
▁Step	-5548
▁pock	-5549
▁broke	-5550
▁plans	-5551
▁Велич	-5552
▁прися	-5553
▁прогу	-5554
▁страш	-5555
▁charge	-5556
▁proble	-5557
▁аресто	-5558
▁пожела	-5559
▁address	-5560
▁realize	-5561
▁обратно	-5562
▁полицей	-5563
▁комиссар	-5564
ID	-5565
LD	-5566
ОР	-5567
ыш	-5568
iew	-5569
rol	-5570
лее	-5571
лки	-5572
лчи	-5573
рас	-5574
рах	-5575
тки	-5576
▁sy	-5577
▁Ай	-5578
▁Ры	-5579
▁уч	-5580
ored	-5581
нули	-5582
▁Hor	-5583
▁Hot	-5584
▁Хей	-5585
▁бед	-5586
▁сни	-5587
pping	-5588
▁Jack	-5589
▁grow	-5590
▁post	-5591
▁Дела	-5592
▁часы	-5593
▁Bring	-5594
▁class	-5595
▁Герма	-5596
▁предо	-5597
▁кварти	-5598
▁England	-5599
▁девушки	-5600
▁расскажу	-5601
▁dangerous	-5602
▁человеком	-5603
che	-5604
oud	-5605
лег	-5606
лик	-5607
нин	-5608
ску	-5609
тря	-5610
чез	-5611
▁MY	-5612
▁da	-5613
itch	-5614
phan	-5615
well	-5616
рода	-5617
сажи	-5618
▁Mac	-5619
▁Mat	-5620
▁Nan	-5621
▁Кла	-5622
▁шту	-5623
▁YOUR	-5624
▁buck	-5625
▁ruin	-5626
▁заба	-5627
ealous	-5628
всегда	-5629
▁floor	-5630
▁Нужно	-5631
▁нрави	-5632
▁ошиба	-5633
▁появи	-5634
▁такую	-5635
▁health	-5636
▁трудно	-5637
▁special	-5638
▁придётся	-5639
▁Gentlemen	-5640
▁interesting	-5641
AK	-5642
иг	-5643
den	-5644
iar	-5645
que	-5646
sch	-5647
ule	-5648
даю	-5649
дро	-5650
кал	-5651
кам	-5652
лые	-5653
рец	-5654
▁$1	-5655
▁Ag	-5656
▁Ге	-5657
▁фа	-5658
шкой	-5659
▁500	-5660
▁Tod	-5661
▁бер	-5662
▁иде	-5663
▁пог	-5664
▁спу	-5665
▁mach	-5666
▁shop	-5667
▁глав	-5668
▁ждёт	-5669
▁окру	-5670
▁пить	-5671
▁филь	-5672
ждение	-5673
ткнись	-5674
щаться	-5675
▁super	-5676
▁Аллен	-5677
▁адрес	-5678
▁многи	-5679
▁notice	-5680
▁Всегда	-5681
▁недели	-5682
▁пожени	-5683
▁минутку	-5684
AD	-5685
Ма	-5686
мя	-5687
How	-5688
abb	-5689
емы	-5690
лед	-5691
меня	-5692
шает	-5693
▁Hol	-5694
▁Бек	-5695
▁гос	-5696
▁сда	-5697
▁cent	-5698
▁hero	-5699
▁stri	-5700
▁всей	-5701
▁жены	-5702
urally	-5703
▁Danny	-5704
▁Great	-5705
▁Jimmy	-5706
▁gives	-5707
▁piece	-5708
▁Дэнни	-5709
▁Сдела	-5710
▁война	-5711
▁Pardon	-5712
▁crying	-5713
▁finish	-5714
▁второй	-5715
▁десять	-5716
▁Интерес	-5717
▁женщину	-5718
▁придума	-5719
▁слышали	-5720
▁беспокой	-5721
▁отправля	-5722
яс	-5723
erc	-5724
дия	-5725
▁Ст	-5726
aire	-5727
ятся	-5728
▁Eur	-5729
▁зву	-5730
▁мер	-5731
olute	-5732
▁form	-5733
▁jour	-5734
▁lord	-5735
▁гряз	-5736
▁dough	-5737
▁proud	-5738
▁voice	-5739
▁Marius	-5740
▁detect	-5741
▁madame	-5742
▁доказа	-5743
▁положи	-5744
▁Предста	-5745
▁странно	-5746
▁уверена	-5747
▁касается	-5748
▁продолжа	-5749
30	-5750
Do	-5751
amm	-5752
rop	-5753
val	-5754
гах	-5755
стю	-5756
шед	-5757
▁GO	-5758
▁Хе	-5759
Good	-5760
give	-5761
▁emp	-5762
▁fit	-5763
▁Уви	-5764
▁вис	-5765
▁клу	-5766
▁пле	-5767
arden	-5768
вания	-5769
ключи	-5770
рочно	-5771
▁Paul	-5772
▁одол	-5773
▁тяже	-5774
earest	-5775
▁deser	-5776
▁upset	-5777
▁повес	-5778
▁хотят	-5779
▁Europe	-5780
▁Johnny	-5781
▁Можете	-5782
▁Можешь	-5783
▁короле	-5784
▁машина	-5785
▁instead	-5786
▁mention	-5787
▁sitting	-5788
▁Думаешь	-5789
▁полицию	-5790
▁попробу	-5791
▁innocent	-5792
▁difficult	-5793
▁difference	-5794
▁замечательно	-5795
ян	-5796
ift	-5797
рий	-5798
ядь	-5799
▁Er	-5800
ceed	-5801
irth	-5802
ждый	-5803
▁Dur	-5804
▁Але	-5805
ереть	-5806
нение	-5807
▁Beck	-5808
▁deep	-5809
▁jail	-5810
▁sens	-5811
▁дамы	-5812
▁живо	-5813
▁thief	-5814
▁выста	-5815
▁держи	-5816
▁уехал	-5817
▁custom	-5818
▁escape	-5819
▁hardly	-5820
▁inform	-5821
▁городе	-5822
▁концов	-5823
▁словно	-5824
▁comfort	-5825
▁concern	-5826
▁service	-5827
▁Быстрее	-5828
▁полагаю	-5829
▁хорошая	-5830
▁чувство	-5831
▁маленький	-5832
▁единственный	-5833
Th	-5834
min	-5835
ula	-5836
бес	-5837
бсо	-5838
кен	-5839
▁ST	-5840
anis	-5841
приз	-5842
▁occ	-5843
▁Вон	-5844
▁бри	-5845
▁гер	-5846
inger	-5847
itted	-5848
долго	-5849
нения	-5850
ступа	-5851
▁Aunt	-5852
▁Mama	-5853
▁maid	-5854
▁Вели	-5855
▁Увер	-5856
▁пого	-5857
▁Прави	-5858
▁менее	-5859
▁сожал	-5860
▁сомне	-5861
▁Always	-5862
▁except	-5863
▁Джонни	-5864
▁готова	-5865
▁прийти	-5866
pecially	-5867
▁America	-5868
▁сначала	-5869
▁whatever	-5870
▁подумать	-5871
▁понадоби	-5872
▁sometimes	-5873
▁Посмотрите	-5874
mb	-5875
Why	-5876
ipe	-5877
бий	-5878
бур	-5879
зей	-5880
мый	-5881
пад	-5882
били	-5883
▁Roy	-5884
▁нож	-5885
▁сих	-5886
heart	-5887
десят	-5888
печат	-5889
▁bear	-5890
▁inde	-5891
▁Герр	-5892
▁босс	-5893
▁буты	-5894
▁напи	-5895
▁ноги	-5896
▁поко	-5897
▁явля	-5898
▁Grand	-5899
▁faith	-5900
▁вдруг	-5901
▁нашёл	-5902
▁руках	-5903
▁среди	-5904
▁Sister	-5905
▁apolog	-5906
▁partic	-5907
▁мужчин	-5908
▁Someone	-5909
▁fortune	-5910
▁further	-5911
▁принять	-5912
▁интересно	-5913
My	-5914
ki	-5915
rig	-5916
рай	-5917
▁22	-5918
▁Дэ	-5919
берт	-5920
▁Got	-5921
▁Nap	-5922
▁Off	-5923
▁Sat	-5924
▁rev	-5925
▁Сна	-5926
▁мет	-5927
▁ого	-5928
▁спа	-5929
hamed	-5930
iddle	-5931
rible	-5932
бсолю	-5933
вляет	-5934
▁Long	-5935
▁Part	-5936
▁calm	-5937
▁ride	-5938
▁долг	-5939
▁заво	-5940
▁стар	-5941
arents	-5942
ниться	-5943
▁Quiet	-5944
▁enemy	-5945
▁lived	-5946
▁войны	-5947
▁намер	-5948
▁отлич	-5949
▁Будьте	-5950
▁Нельзя	-5951
▁Париже	-5952
▁готовы	-5953
▁забыть	-5954
▁родите	-5955
▁Besides	-5956
▁confess	-5957
▁jealous	-5958
▁success	-5959
▁Клянусь	-5960
▁поможет	-5961
▁увидишь	-5962
▁position	-5963
▁маленькая	-5964
▁счастливы	-5965
Мо	-5966
ал	-5967
ann	-5968
yer	-5969
дец	-5970
лых	-5971
▁Aw	-5972
▁ir	-5973
▁Ис	-5974
ichi	-5975
поле	-5976
▁rob	-5977
▁Дей	-5978
▁пов	-5979
крови	-5980
▁Papa	-5981
▁clos	-5982
▁арми	-5983
▁имел	-5984
▁моря	-5985
▁birth	-5986
▁saved	-5987
▁Попро	-5988
▁делаю	-5989
тельной	-5990
▁necess	-5991
▁Оставь	-5992
▁пример	-5993
▁nervous	-5994
▁welcome	-5995
▁которых	-5996
▁Anything	-5997
▁показать	-5998
ях	-5999
ёс	-6000
rot	-6001
зеф	-6002
зра	-6003
мит	-6004
фон	-6005
Well	-6006
over	-6007
rill	-6008
лест	-6009
тащи	-6010
чусь	-6011
▁hun	-6012
▁tax	-6013
▁thr	-6014
▁вре	-6015
▁неу	-6016
▁цер	-6017
ached	-6018
ended	-6019
ently	-6020
itten	-6021
under	-6022
ником	-6023
ровал	-6024
▁Land	-6025
▁Хотя	-6026
▁газе	-6027
▁нашу	-6028
▁пово	-6029
нитесь	-6030
▁chair	-6031
▁gener	-6032
▁sense	-6033
▁Какие	-6034
▁удиви	-6035
енности	-6036
▁Каждый	-6037
▁молоды	-6038
▁delight	-6039
▁suddenly	-6040
▁expecting	-6041
kn	-6042
igg	-6043
mit	-6044
мет	-6045
▁Gu	-6046
▁ль	-6047
▁пь	-6048
крет	-6049
тами	-6050
▁spl	-6051
▁Пря	-6052
▁Эми	-6053
▁сот	-6054
▁сюр	-6055
▁уто	-6056
ision	-6057
oleon	-6058
нести	-6059
▁Duke	-6060
▁Ivan	-6061
▁draw	-6062
▁дитя	-6063
▁жену	-6064
▁поря	-6065
▁angry	-6066
▁crowd	-6067
▁tough	-6068
▁works	-6069
▁Робер	-6070
▁отцом	-6071
▁столь	-6072
▁думает	-6073
▁освобо	-6074
▁придет	-6075
▁присут	-6076
▁Another	-6077
▁Forgive	-6078
▁dollars	-6079
▁factory	-6080
▁stopped	-6081
▁заслужи	-6082
▁здорово	-6083
▁приехал	-6084
▁сможешь	-6085
▁American	-6086
▁apartment	-6087
▁оставаться	-6088
sc	-6089
sh	-6090
До	-6091
На	-6092
ics	-6093
omb	-6094
аст	-6095
ссе	-6096
чей	-6097
▁Эл	-6098
mann	-6099
чной	-6100
▁tor	-6101
ement	-6102
амери	-6103
▁flat	-6104
▁jump	-6105
▁pity	-6106
▁unha	-6107
▁warm	-6108
▁Жаль	-6109
▁пото	-6110
▁prove	-6111
▁store	-6112
▁Потом	-6113
▁Скоро	-6114
▁Этого	-6115
▁винов	-6116
▁вроде	-6117
▁вышла	-6118
▁испол	-6119
▁исчез	-6120
▁красо	-6121
▁помощ	-6122
▁Master	-6123
▁engine	-6124
▁вокруг	-6125
▁никому	-6126
▁опозда	-6127
▁ashamed	-6128
▁discuss	-6129
▁безопас	-6130
▁секрета	-6131
▁скажете	-6132
▁умереть	-6133
▁Napoleon	-6134
▁supposed	-6135
▁позвольте	-6136
AL	-6137
If	-6138
АН	-6139
лё	-6140
ett	-6141
ray	-6142
дии	-6143
дор	-6144
плю	-6145
тых	-6146
шет	-6147
akes	-6148
iced	-6149
щать	-6150
▁jew	-6151
▁Жен	-6152
▁Луи	-6153
▁кам	-6154
▁пси	-6155
▁сти	-6156
▁теа	-6157
iding	-6158
ходят	-6159
▁Alex	-6160
▁bath	-6161
▁spot	-6162
▁выну	-6163
▁году	-6164
▁мира	-6165
▁неве	-6166
▁обла	-6167
▁Watch	-6168
▁appro	-6169
▁dying	-6170
▁mount	-6171
▁вовсе	-6172
▁костю	-6173
▁оружи	-6174
▁advice	-6175
▁полови	-6176
▁увидел	-6177
▁уничто	-6178
▁disturb	-6179
▁keeping	-6180
▁staying	-6181
▁Однажды	-6182
▁станови	-6183
▁уверены	-6184
▁anywhere	-6185
▁consider	-6186
▁хотелось	-6187
▁объяснить	-6188
▁предложение	-6189
ев	-6190
aze	-6191
pin	-6192
два	-6193
еми	-6194
рат	-6195
хая	-6196
ails	-6197
wood	-6198
жала	-6199
мера	-6200
сона	-6201
▁fol	-6202
▁жду	-6203
▁зло	-6204
▁мам	-6205
▁рес	-6206
ousin	-6207
▁drug	-6208
▁requ	-6209
▁Люси	-6210
▁Тихо	-6211
▁друж	-6212
▁праз	-6213
▁руба	-6214
▁сила	-6215
▁Today	-6216
▁price	-6217
▁share	-6218
▁third	-6219
▁дерев	-6220
▁ребён	-6221
▁стало	-6222
▁asleep	-6223
▁Продол	-6224
▁дороги	-6225
▁скажет	-6226
▁herself	-6227
▁позволя	-6228
▁Countess	-6229
▁mistress	-6230
▁здоровье	-6231
'.	-6232
Но	-6233
хе	-6234
ety	-6235
ilt	-6236
ral	-6237
ume	-6238
нан	-6239
тые	-6240
чон	-6241
▁Ev	-6242
▁et	-6243
▁Ту	-6244
,...	-6245
aced	-6246
amed	-6247
bles	-6248
ieve	-6249
urch	-6250
обра	-6251
пьем	-6252
▁000	-6253
▁Cap	-6254
▁Dor	-6255
▁Nor	-6256
▁Red	-6257
▁cat	-6258
▁egg	-6259
▁mir	-6260
▁ste	-6261
▁ула	-6262
▁Five	-6263
▁nose	-6264
▁rent	-6265
▁wake	-6266
▁Вста	-6267
▁Отве	-6268
▁Ради	-6269
▁ждал	-6270
▁опла	-6271
father	-6272
▁admit	-6273
▁chief	-6274
▁guard	-6275
▁round	-6276
▁нашел	-6277
▁оскор	-6278
▁ухожу	-6279
olutely	-6280
▁places	-6281
бсолютно	-6282
▁forever	-6283
▁message	-6284
▁parents	-6285
▁Большое	-6286
▁давайте	-6287
▁держать	-6288
▁месяцев	-6289
▁слышала	-6290
▁drinking	-6291
▁laughing	-6292
▁использо	-6293
▁смотреть	-6294
▁Интересно	-6295
▁собираешься	-6296
аз	-6297
gue	-6298
ues	-6299
▁er	-6300
oman	-6301
нему	-6302
ском	-6303
тера	-6304
удар	-6305
финя	-6306
цело	-6307
цион	-6308
ющие	-6309
▁Lie	-6310
▁упа	-6311
elebr	-6312
ulous	-6313
▁army	-6314
▁kick	-6315
▁Поня	-6316
▁Хозя	-6317
▁жене	-6318
▁кино	-6319
▁коло	-6320
▁нару	-6321
▁смог	-6322
▁угро	-6323
iously	-6324
▁Гарри	-6325
▁покон	-6326
▁участ	-6327
▁цветы	-6328
▁Albert	-6329
▁Martin	-6330
▁double	-6331
▁больно	-6332
▁искать	-6333
▁сущест	-6334
▁Philipp	-6335
▁account	-6336
▁awfully	-6337
▁полиция	-6338
▁accident	-6339
▁questions	-6340
▁позволите	-6341
▁сожалению	-6342
fa	-6343
лм	-6344
оз	-6345
avy	-6346
iol	-6347
urg	-6348
ана	-6349
ету	-6350
▁сц	-6351
omed	-6352
rade	-6353
жусь	-6354
тина	-6355
▁Van	-6356
▁rad	-6357
▁пти	-6358
dered	-6359
йдешь	-6360
▁Anna	-6361
▁earl	-6362
▁весе	-6363
▁воло	-6364
▁выра	-6365
▁идут	-6366
▁каза	-6367
▁море	-6368
▁пови	-6369
▁речь	-6370
новить	-6371
▁fresh	-6372
▁river	-6373
▁shame	-6374
▁Алекс	-6375
▁Здоро	-6376
▁Кроме	-6377
▁вести	-6378
▁восхи	-6379
▁запре	-6380
▁пообе	-6381
▁сохра	-6382
▁Joseph	-6383
▁during	-6384
▁Паркер	-6385
▁говоря	-6386
▁другое	-6387
▁Germany	-6388
▁divorce	-6389
▁patient	-6390
▁private	-6391
▁виноват	-6392
▁слышать	-6393
▁свиданья	-6394
▁attention	-6395
▁completely	-6396
▁познакомиться	-6397
эт	-6398
▁р	-6399
ARD	-6400
вел	-6401
зов	-6402
нят	-6403
фис	-6404
▁Tw	-6405
▁Гу	-6406
▁Ей	-6407
ians	-6408
isha	-6409
ners	-6410
olen	-6411
жные	-6412
льку	-6413
мана	-6414
мена	-6415
нила	-6416
стру	-6417
читы	-6418
▁Bea	-6419
▁Ben	-6420
▁Mon	-6421
▁Top	-6422
▁mid	-6423
▁von	-6424
▁Пин	-6425
▁кур	-6426
естра	-6427
стить	-6428
циона	-6429
▁WHAT	-6430
▁gang	-6431
▁Пого	-6432
▁безу	-6433
▁пору	-6434
▁спря	-6435
▁House	-6436
▁shoes	-6437
▁мысли	-6438
▁поско	-6439
▁убить	-6440
▁Parker	-6441
▁broken	-6442
▁defend	-6443
▁demand	-6444
▁remind	-6445
▁seemed	-6446
▁Однако	-6447
▁Челове	-6448
▁вполне	-6449
▁меньше	-6450
▁молодо	-6451
▁отправ	-6452
▁постоя	-6453
▁letters	-6454
▁история	-6455
▁чувства	-6456
▁навсегда	-6457
▁хорошего	-6458
▁Осторожно	-6459
zz	-6460
isf	-6461
ram	-6462
ror	-6463
ses	-6464
uts	-6465
мей	-6466
щие	-6467
▁CH	-6468
▁IS	-6469
▁Зо	-6470
aken	-6471
ires	-6472
olly	-6473
жина	-6474
крой	-6475
ланд	-6476
пута	-6477
стая	-6478
▁ALL	-6479
▁sol	-6480
▁Бен	-6481
▁бор	-6482
ility	-6483
stood	-6484
пасть	-6485
ствую	-6486
шнего	-6487
▁Such	-6488
▁bill	-6489
▁fill	-6490
▁nine	-6491
▁stre	-6492
▁Дело	-6493
▁Прин	-6494
▁воды	-6495
▁вызы	-6496
▁делу	-6497
▁мёрт	-6498
▁поис	-6499
ishing	-6500
▁idiot	-6501
▁добро	-6502
▁весьма	-6503
▁напуга	-6504
▁предсе	-6505
▁пройти	-6506
▁расста	-6507
▁стыдно	-6508
▁willing	-6509
▁Сначала	-6510
▁хватает	-6511
▁nonsense	-6512
▁внимание	-6513
▁telephone	-6514
▁Высочество	-6515
ENT	-6516
but	-6517
рис	-6518
сер	-6519
тым	-6520
cted	-6521
oved	-6522
wise	-6523
кова	-6524
лета	-6525
льта	-6526
сили	-6527
▁Nic	-6528
▁Бог	-6529
▁вме	-6530
▁хле	-6531
acket	-6532
раздо	-6533
▁Supp	-6534
▁mark	-6535
▁prec	-6536
▁Расс	-6537
▁душе	-6538
▁ждут	-6539
▁мере	-6540
▁наше	-6541
▁ушла	-6542
▁Лондо	-6543
▁безум	-6544
▁броса	-6545
▁детек	-6546
▁назна	-6547
▁Before	-6548
▁celebr	-6549
▁decent	-6550
▁lawyer	-6551
▁spirit	-6552
▁Роберт	-6553
▁добрый	-6554
▁имеешь	-6555
▁иногда	-6556
▁повери	-6557
▁поняла	-6558
▁присла	-6559
▁своему	-6560
▁стреля	-6561
▁тысячи	-6562
▁collect	-6563
▁dancing	-6564
▁whether	-6565
▁оставил	-6566
▁слышишь	-6567
▁speaking	-6568
▁работает	-6569
▁listening	-6570
▁Прекрасно	-6571
Ко	-6572
вид	-6573
нки	-6574
нюю	-6575
пен	-6576
чке	-6577
▁SH	-6578
▁Од	-6579
▁ще	-6580
ache	-6581
ered	-6582
верх	-6583
неси	-6584
ское	-6585
чери	-6586
ышня	-6587
▁FOR	-6588
▁gra	-6589
▁Бро	-6590
▁Мор	-6591
▁Рот	-6592
▁мыс	-6593
▁мэм	-6594
Where	-6595
ndler	-6596
клады	-6597
▁Once	-6598
▁Over	-6599
▁pray	-6600
▁rain	-6601
▁Анна	-6602
▁Ганс	-6603
▁Пани	-6604
▁двое	-6605
▁побы	-6606
▁тело	-6607
▁фрон	-6608
ateful	-6609
вались	-6610
против	-6611
▁Becky	-6612
▁Quite	-6613
▁stock	-6614
▁Мария	-6615
▁Согла	-6616
▁любой	-6617
▁надея	-6618
▁посме	-6619
▁настаи	-6620
▁общест	-6621
▁Tonight	-6622
▁respons	-6623
▁мужчины	-6624
▁прошлой	-6625
▁fighting	-6626
▁благодар	-6627
▁выглядит	-6628
▁подальше	-6629
▁beginning	-6630
▁Величество	-6631
AM	-6632
aff	-6633
aly	-6634
oni	-6635
вья	-6636
джа	-6637
пку	-6638
сят	-6639
тка	-6640
▁60	-6641
▁Ju	-6642
▁oh	-6643
▁ха	-6644
баты	-6645
бора	-6646
енем	-6647
льси	-6648
ному	-6649
чных	-6650
▁Ask	-6651
▁Hmm	-6652
▁Lad	-6653
▁gas	-6654
▁joy	-6655
▁nor	-6656
▁Вос	-6657
▁Уда	-6658
▁Чан	-6659
▁еду	-6660
▁поу	-6661
,000.	-6662
берна	-6663
▁Roth	-6664
▁flag	-6665
▁wood	-6666
▁ката	-6667
schild	-6668
velous	-6669
нуться	-6670
▁Larry	-6671
▁board	-6672
▁empty	-6673
▁field	-6674
▁large	-6675
▁youth	-6676
▁Минут	-6677
▁билет	-6678
▁знают	-6679
▁увижу	-6680
ператор	-6681
▁island	-6682
▁Мариус	-6683
▁Филипп	-6684
▁бывает	-6685
▁восемь	-6686
▁любите	-6687
▁пойдем	-6688
▁прокля	-6689
▁forward	-6690
▁госпожа	-6691
▁Whatever	-6692
▁заработа	-6693
▁спокойно	-6694
▁хорошень	-6695
▁necessary	-6696
▁выглядишь	-6697
▁здравству	-6698
▁Rothschild	-6699
da	-6700
ИН	-6701
cha	-6702
ism	-6703
oma	-6704
лес	-6705
лён	-6706
оне	-6707
тью	-6708
▁--	-6709
▁Mm	-6710
▁Up	-6711
hang	-6712
пуск	-6713
▁Doc	-6714
▁Rod	-6715
▁Sel	-6716
▁pop	-6717
▁Ива	-6718
▁Мон	-6719
▁изу	-6720
▁лес	-6721
▁цве	-6722
eared	-6723
асшед	-6724
льник	-6725
льное	-6726
ством	-6727
▁Head	-6728
▁anim	-6729
▁beer	-6730
▁okay	-6731
▁Вами	-6732
▁Впер	-6733
▁Евро	-6734
▁визи	-6735
▁воск	-6736
▁выпи	-6737
▁забу	-6738
▁ключ	-6739
▁посо	-6740
▁разы	-6741
▁сосе	-6742
▁smell	-6743
▁Бекки	-6744
▁Ротши	-6745
▁Убери	-6746
▁воспо	-6747
▁заклю	-6748
▁любил	-6749
▁нарко	-6750
▁невес	-6751
▁разру	-6752
▁guests	-6753
▁pounds	-6754
▁Наполе	-6755
▁газеты	-6756
▁письма	-6757
▁придёт	-6758
▁спасти	-6759
▁unhappy	-6760
▁Слишком	-6761
▁пытался	-6762
▁свидете	-6763
▁newspaper	-6764
▁господина	-6765
50	-6766
UR	-6767
gy	-6768
ТО	-6769
нд	-6770
▁Й	-6771
ips	-6772
ris	-6773
дая	-6774
йка	-6775
них	-6776
нём	-6777
▁Lo	-6778
▁la	-6779
▁че	-6780
.000	-6781
ager	-6782
nday	-6783
omes	-6784
rupt	-6785
tern	-6786
нспе	-6787
няли	-6788
сите	-6789
чным	-6790
▁Cle	-6791
▁Mum	-6792
▁cow	-6793
▁Гри	-6794
▁Тру	-6795
▁ван	-6796
▁пам	-6797
нской	-6798
▁Dire	-6799
▁Drac	-6800
▁THIS	-6801
▁club	-6802
▁risk	-6803
▁боро	-6804
▁вещь	-6805
▁игру	-6806
▁окон	-6807
▁прие	-6808
▁Peter	-6809
▁Still	-6810
▁brave	-6811
▁champ	-6812
▁knife	-6813
▁raise	-6814
▁whose	-6815
▁Драку	-6816
▁Женщи	-6817
▁амери	-6818
▁дости	-6819
▁занят	-6820
▁знаем	-6821
▁самая	-6822
▁object	-6823
▁будьте	-6824
▁выйдет	-6825
▁попыта	-6826
▁поцело	-6827
▁старик	-6828
▁Exactly	-6829
▁learned	-6830
▁Здорово	-6831
▁Попробу	-6832
▁малышка	-6833
▁greatest	-6834
▁Заткнись	-6835
▁получишь	-6836
▁secretary	-6837
АР	-6838
фу	-6839
phe	-6840
ply	-6841
вее	-6842
лую	-6843
лях	-6844
ули	-6845
чий	-6846
▁Ву	-6847
▁Ша	-6848
Come	-6849
abor	-6850
Если	-6851
тишь	-6852
ющих	-6853
▁191	-6854
▁Kid	-6855
▁Pal	-6856
▁cas	-6857
▁Лам	-6858
▁Сан	-6859
▁Фер	-6860
▁бак	-6861
Thank	-6862
ances	-6863
ative	-6864
fered	-6865
едине	-6866
енный	-6867
▁Baby	-6868
▁blow	-6869
▁feed	-6870
▁lies	-6871
▁Чита	-6872
▁раза	-6873
▁счет	-6874
▁удоб	-6875
ледова	-6876
▁Harry	-6877
▁blind	-6878
▁produ	-6879
▁proof	-6880
▁shirt	-6881
▁видно	-6882
▁наблю	-6883
▁писто	-6884
▁самой	-6885
▁твоих	-6886
тельные	-6887
▁simple	-6888
▁Прощай	-6889
▁вместо	-6890
▁просил	-6891
▁узнает	-6892
▁услови	-6893
▁устраи	-6894
▁Dracula	-6895
▁Минутку	-6896
▁любезны	-6897
▁просить	-6898
▁разница	-6899
▁standing	-6900
▁поживаете	-6901
▁посмотрим	-6902
▁government	-6903
▁путешестви	-6904
Мы	-6905
рк	-6906
Don	-6907
bey	-6908
hin	-6909
рос	-6910
тик	-6911
чал	-6912
чие	-6913
шит	-6914
▁SE	-6915
▁чи	-6916
вест	-6917
веща	-6918
жест	-6919
лина	-6920
▁Dav	-6921
▁Hit	-6922
▁ide	-6923
▁Гла	-6924
▁иск	-6925
There	-6926
inite	-6927
uthor	-6928
ждать	-6929
▁Fire	-6930
▁Must	-6931
▁Next	-6932
▁burn	-6933
▁camp	-6934
▁film	-6935
▁phot	-6936
▁баро	-6937
▁вино	-6938
▁запо	-6939
▁моем	-6940
▁план	-6941
▁плем	-6942
▁уйду	-6943
▁pract	-6944
▁trans	-6945
▁Ларри	-6946
▁барон	-6947
▁глупы	-6948
▁дайте	-6949
▁крова	-6950
▁любов	-6951
▁семьи	-6952
▁убили	-6953
надцать	-6954
▁People	-6955
▁bottle	-6956
▁indeed	-6957
▁Панисс	-6958
▁Совсем	-6959
▁Чарльз	-6960
▁забыла	-6961
▁ходить	-6962
▁честно	-6963
▁kidding	-6964
▁Наконец	-6965
▁осторож	-6966
▁Everyone	-6967
▁Слушайте	-6968
▁приехали	-6969
▁Everybody	-6970
▁Правильно	-6971
▁Lieutenant	-6972
▁experience	-6973
OL	-6974
lo	-6975
aim	-6976
mes	-6977
жик	-6978
лил	-6979
пей	-6980
щик	-6981
щих	-6982
▁Чи	-6983
agne	-6984
andy	-6985
oned	-6986
берг	-6987
дьми	-6988
рила	-6989
ским	-6990
▁Dam	-6991
▁Lep	-6992
▁dev	-6993
▁Пом	-6994
acher	-6995
andal	-6996
asure	-6997
endid	-6998
inary	-6999
itude	-7000
жалею	-7001
▁cook	-7002
▁cops	-7003
▁mate	-7004
▁Кого	-7005
▁воду	-7006
▁дога	-7007
▁орга	-7008
▁рано	-7009
нешься	-7010
▁Black	-7011
▁reach	-7012
▁spent	-7013
▁wrote	-7014
▁двери	-7015
▁каждо	-7016
▁необы	-7017
▁перес	-7018
▁стара	-7019
▁твоим	-7020
▁устал	-7021
интерес	-7022
пустить	-7023
▁battle	-7024
▁handle	-7025
▁insist	-7026
▁pocket	-7027
▁regret	-7028
▁streng	-7029
▁друзей	-7030
▁минуты	-7031
▁успоко	-7032
▁Франции	-7033
▁никакой	-7034
▁очередь	-7035
▁подарок	-7036
▁Chandler	-7037
▁Philippe	-7038
▁returned	-7039
▁upstairs	-7040
▁Помогите	-7041
▁introduce	-7042
▁находится	-7043
▁подождать	-7044
▁particular	-7045
ЕЦ	-7046
hop	-7047
lon	-7048
Нет	-7049
гал	-7050
пой	-7051
ьер	-7052
▁13	-7053
▁OH	-7054
▁ho	-7055
▁Ее	-7056
▁цы	-7057
ploy	-7058
дила	-7059
жник	-7060
▁Joe	-7061
▁Que	-7062
▁loc	-7063
▁pot	-7064
▁Глу	-7065
▁Сла	-7066
▁моз	-7067
ovich	-7068
place	-7069
мотря	-7070
форма	-7071
▁forb	-7072
▁hors	-7073
▁note	-7074
▁prov	-7075
▁self	-7076
▁Буду	-7077
▁Джек	-7078
▁вниз	-7079
▁пари	-7080
achman	-7081
uation	-7082
▁folks	-7083
▁lover	-7084
▁serve	-7085
▁болез	-7086
▁живет	-7087
▁краса	-7088
▁огром	-7089
▁одном	-7090
▁такси	-7091
▁танцу	-7092
ination	-7093
▁Horace	-7094
▁figure	-7095
▁honour	-7096
▁record	-7097
▁stolen	-7098
▁Деньги	-7099
▁Товари	-7100
▁отказы	-7101
▁пойдём	-7102
▁сердца	-7103
▁officer	-7104
▁большая	-7105
▁впервые	-7106
▁помнишь	-7107
▁понятно	-7108
▁потерял	-7109
▁старина	-7110
▁уходите	-7111
▁terribly	-7112
▁интересу	-7113
▁серьёзно	-7114
▁detective	-7115
▁following	-7116
▁surprised	-7117
▁нормально	-7118
▁позволить	-7119
ongratulations	-7120
лэ	-7121
ACE	-7122
cul	-7123
now	-7124
oss	-7125
pic	-7126
zra	-7127
щую	-7128
▁зу	-7129
ifty	-7130
ighb	-7131
дное	-7132
зать	-7133
теле	-7134
цией	-7135
▁Fil	-7136
▁Min	-7137
▁cup	-7138
▁Гру	-7139
▁Сам	-7140
light	-7141
orter	-7142
▁evil	-7143
▁lots	-7144
▁resc	-7145
▁seat	-7146
▁whis	-7147
▁yeah	-7148
▁жало	-7149
▁отда	-7150
▁порт	-7151
пример	-7152
▁cards	-7153
▁chick	-7154
▁cover	-7155
▁force	-7156
▁seven	-7157
▁usual	-7158
▁Марга	-7159
▁всему	-7160
▁добры	-7161
▁любом	-7162
▁начал	-7163
▁слышу	-7164
▁Coming	-7165
▁Ladies	-7166
▁Little	-7167
▁Police	-7168
▁Sunday	-7169
▁neighb	-7170
▁satisf	-7171
▁single	-7172
▁дочери	-7173
▁помогу	-7174
▁уезжаю	-7175
ственное	-7176
тительно	-7177
▁Полиция	-7178
▁девочка	-7179
▁сможете	-7180
▁экспери	-7181
▁arrested	-7182
▁soldiers	-7183
▁ourselves	-7184
▁Профессор	-7185
▁заплатить	-7186
▁настоящий	-7187
oe	-7188
гам	-7189
жку	-7190
мов	-7191
нар	-7192
рау	-7193
▁Мю	-7194
Your	-7195
ancy	-7196
eral	-7197
ined	-7198
ises	-7199
oard	-7200
ship	-7201
бель	-7202
кала	-7203
лиза	-7204
▁tie	-7205
▁und	-7206
▁wis	-7207
▁Бри	-7208
▁Тот	-7209
▁май	-7210
▁обу	-7211
▁crim	-7212
▁shad	-7213
▁Любо	-7214
▁живу	-7215
▁неви	-7216
▁чемо	-7217
ounded	-7218
зульта	-7219
▁extra	-7220
▁marks	-7221
▁smoke	-7222
▁Барон	-7223
▁глубо	-7224
▁дурак	-7225
▁разум	-7226
ression	-7227
▁aboard	-7228
▁refuse	-7229
▁Говорю	-7230
▁Должно	-7231
▁Извини	-7232
▁выходи	-7233
▁достой	-7234
▁работе	-7235
▁сидеть	-7236
▁сможем	-7237
▁cigaret	-7238
▁возража	-7239
▁волнова	-7240
▁воскрес	-7241
▁наедине	-7242
▁неважно	-7243
▁Princess	-7244
▁телеграм	-7245
▁вернулась	-7246
Го	-7247
пс	-7248
00.	-7249
urs	-7250
бил	-7251
гай	-7252
где	-7253
дис	-7254
нку	-7255
тти	-7256
шеб	-7257
▁NO	-7258
▁Хи	-7259
пись	-7260
▁Act	-7261
▁Dan	-7262
▁cre	-7263
▁Вся	-7264
▁Лас	-7265
▁Свя	-7266
▁зай	-7267
▁ото	-7268
стран	-7269
твори	-7270
телей	-7271
▁Ezra	-7272
▁HAVE	-7273
▁WELL	-7274
▁bull	-7275
▁quit	-7276
▁Было	-7277
▁Полу	-7278
▁кусо	-7279
▁неда	-7280
▁поро	-7281
честве	-7282
▁Hotel	-7283
▁Serge	-7284
▁above	-7285
▁smile	-7286
▁Питер	-7287
▁Слуша	-7288
▁искус	-7289
▁купил	-7290
▁марки	-7291
▁откро	-7292
▁покой	-7293
▁corner	-7294
▁famous	-7295
▁remain	-7296
▁victim	-7297
▁девчон	-7298
▁singing	-7299
▁walking	-7300
▁адвокат	-7301
▁выходит	-7302
▁забрать	-7303
▁Садитесь	-7304
▁никакого	-7305
▁результа	-7306
▁отношения	-7307
▁последние	-7308
▁собирается	-7309
▁обязательно	-7310
ée	-7311
ЕТ	-7312
ОЛ	-7313
iam	-7314
ino	-7315
ждь	-7316
пля	-7317
ппа	-7318
хен	-7319
чим	-7320
▁RE	-7321
▁hy	-7322
ends	-7323
etch	-7324
ices	-7325
pens	-7326
ural	-7327
шина	-7328
ёнок	-7329
▁Mom	-7330
▁Six	-7331
▁Ste	-7332
▁Zou	-7333
▁Кор	-7334
▁дья	-7335
▁зап	-7336
aking	-7337
hange	-7338
лонди	-7339
рения	-7340
▁West	-7341
▁Граф	-7342
▁Лепи	-7343
▁Лили	-7344
▁Мину	-7345
▁Пять	-7346
▁дама	-7347
▁поса	-7348
▁стоя	-7349
▁твоё	-7350
▁James	-7351
▁Major	-7352
▁Прямо	-7353
▁голос	-7354
▁запис	-7355
▁затем	-7356
▁идите	-7357
▁насто	-7358
▁похож	-7359
▁своем	-7360
▁beauty	-7361
▁dreams	-7362
▁eating	-7363
▁leaves	-7364
▁missed	-7365
▁simply	-7366
▁threat	-7367
▁Лондон	-7368
▁Садись	-7369
▁вперед	-7370
▁имеете	-7371
▁лучший	-7372
▁милорд	-7373
▁обвиня	-7374
▁поводу	-7375
▁считаю	-7376
▁телефо	-7377
▁courage	-7378
▁finally	-7379
▁journey	-7380
▁problem	-7381
▁гораздо	-7382
▁историю	-7383
▁новости	-7384
▁поднима	-7385
▁подозре	-7386
▁постара	-7387
▁сюрприз	-7388
▁horrible	-7389
▁поверить	-7390
▁сделаешь	-7391
▁recognize	-7392
▁наверняка	-7393
▁понравится	-7394
ОД	-7395
mon	-7396
str	-7397
бку	-7398
вим	-7399
дию	-7400
рев	-7401
фер	-7402
чко	-7403
шем	-7404
▁Tr	-7405
▁ху	-7406
ands	-7407
вица	-7408
чную	-7409
▁Sec	-7410
▁den	-7411
▁org	-7412
▁top	-7413
▁вор	-7414
▁лод	-7415
ality	-7416
льные	-7417
▁Turn	-7418
▁test	-7419
▁даст	-7420
▁звез	-7421
▁мест	-7422
▁неиз	-7423
▁поги	-7424
▁сред	-7425
▁стан	-7426
▁Louis	-7427
▁While	-7428
▁White	-7429
▁badly	-7430
▁внизу	-7431
▁драго	-7432
▁испор	-7433
▁конца	-7434
▁новые	-7435
ведение	-7436
▁Better	-7437
▁horses	-7438
▁manage	-7439
▁needed	-7440
▁другую	-7441
▁машины	-7442
▁музыка	-7443
▁начала	-7444
▁несчас	-7445
▁первым	-7446
▁покупа	-7447
▁полага	-7448
▁приста	-7449
▁страны	-7450
▁allowed	-7451
▁control	-7452
▁machine	-7453
▁missing	-7454
▁suspect	-7455
▁Немного	-7456
▁большое	-7457
▁истории	-7458
▁неплохо	-7459
▁друзьями	-7460
▁красивая	-7461
▁ненавижу	-7462
▁серьезно	-7463
▁получится	-7464
▁танцевать	-7465
▁предпочита	-7466
ts	-7467
бл	-7468
жки	-7469
тии	-7470
▁Sl	-7471
▁Сы	-7472
▁ез	-7473
вете	-7474
ково	-7475
лены	-7476
рина	-7477
ришь	-7478
стан	-7479
цами	-7480
чкой	-7481
▁END	-7482
▁Fin	-7483
▁Ren	-7484
▁aut	-7485
▁bas	-7486
▁mix	-7487
▁odd	-7488
▁rum	-7489
▁Мер	-7490
▁Наш	-7491
▁пан	-7492
▁сен	-7493
▁шам	-7494
ellow	-7495
ounce	-7496
ложил	-7497
▁Glad	-7498
▁Lucy	-7499
▁opin	-7500
▁Ужас	-7501
▁мсье	-7502
▁офис	-7503
▁посы	-7504
▁смея	-7505
литься	-7506
▁accom	-7507
▁bread	-7508
▁fired	-7509
▁sacri	-7510
▁stole	-7511
▁Барба	-7512
▁Будет	-7513
▁Поста	-7514
▁вышел	-7515
▁каком	-7516
▁около	-7517
▁своём	-7518
▁сигна	-7519
▁charac	-7520
▁insane	-7521
▁intell	-7522
▁passed	-7523
▁strang	-7524
▁Возьми	-7525
▁дорого	-7526
▁жизнью	-7527
▁подела	-7528
▁привык	-7529
▁appoint	-7530
▁holding	-7531
▁вернуть	-7532
▁знамени	-7533
▁клянусь	-7534
▁grateful	-7535
▁strength	-7536
▁unfortun	-7537
▁Прекрати	-7538
▁директор	-7539
▁капитана	-7540
▁передать	-7541
▁послушай	-7542
▁сообщить	-7543
▁миллионов	-7544
▁возможность	-7545
▁собираетесь	-7546
1.	-7547
ux	-7548
ую	-7549
asy	-7550
cri	-7551
ify	-7552
lie	-7553
бря	-7554
ина	-7555
лят	-7556
ора	-7557
пай	-7558
пно	-7559
юду	-7560
▁KN	-7561
▁пр	-7562
ites	-7563
димо	-7564
енье	-7565
еспо	-7566
жден	-7567
жный	-7568
чное	-7569
▁Ang	-7570
▁Kar	-7571
▁Pin	-7572
▁Пла	-7573
▁Рей	-7574
▁Шан	-7575
▁суп	-7576
itive	-7577
точку	-7578
▁gall	-7579
▁hall	-7580
▁joke	-7581
▁Стой	-7582
▁геро	-7583
▁окно	-7584
▁свер	-7585
anisse	-7586
няться	-7587
▁Blond	-7588
▁cents	-7589
▁revol	-7590
▁shout	-7591
▁trees	-7592
▁twice	-7593
▁бедня	-7594
▁преда	-7595
▁секун	-7596
▁сыгра	-7597
iculous	-7598
▁Street	-7599
▁ground	-7600
▁talked	-7601
▁unless	-7602
▁заболе	-7603
▁обещал	-7604
▁пожало	-7605
▁пользу	-7606
▁решили	-7607
▁такими	-7608
▁тюрьме	-7609
▁убийца	-7610
▁Panisse	-7611
▁foolish	-7612
▁Помнишь	-7613
▁комната	-7614
▁сторону	-7615
▁marvelous	-7616
▁документы	-7617
▁человечес	-7618
▁величество	-7619
6.	-7620
go	-7621
za	-7622
КА	-7623
Он	-7624
ец	-7625
ION	-7626
die	-7627
gar	-7628
top	-7629
вуд	-7630
етт	-7631
ила	-7632
рез	-7633
чаю	-7634
▁AR	-7635
▁Ly	-7636
вало	-7637
здал	-7638
петь	-7639
▁Wyn	-7640
▁sum	-7641
▁Бей	-7642
▁Гор	-7643
▁убь	-7644
ricia	-7645
рован	-7646
▁Show	-7647
▁aunt	-7648
▁pair	-7649
▁warn	-7650
▁weak	-7651
▁Роза	-7652
▁идем	-7653
▁петь	-7654
ваются	-7655
говорю	-7656
довать	-7657
▁Lepic	-7658
▁bless	-7659
▁Совер	-7660
▁войну	-7661
▁желаю	-7662
▁карма	-7663
▁ситуа	-7664
▁arrive	-7665
▁cousin	-7666
▁settle	-7667
▁ticket	-7668
▁Спроси	-7669
▁людьми	-7670
▁нового	-7671
▁органи	-7672
▁относи	-7673
▁пальто	-7674
▁солдат	-7675
▁стране	-7676
▁noticed	-7677
▁scandal	-7678
▁государ	-7679
▁поехать	-7680
▁позволю	-7681
▁пригото	-7682
▁счастья	-7683
▁удалось	-7684
▁pictures	-7685
▁вернется	-7686
▁случайно	-7687
▁сумасшед	-7688
▁Посмотрим	-7689
▁everywhere	-7690
CK	-7691
ari	-7692
ays	-7693
арь	-7694
вич	-7695
еся	-7696
зем	-7697
мыш	-7698
риф	-7699
рно	-7700
сии	-7701
aunt	-7702
cher	-7703
kins	-7704
onds	-7705
orth	-7706
port	-7707
uses	-7708
рами	-7709
чеви	-7710
чена	-7711
▁Big	-7712
▁Ver	-7713
▁fir	-7714
▁ice	-7715
▁бой	-7716
▁сне	-7717
▁фак	-7718
▁чай	-7719
ffect	-7720
idden	-7721
ising	-7722
rantz	-7723
stant	-7724
ument	-7725
жнему	-7726
ёшься	-7727
▁Want	-7728
▁голу	-7729
▁идём	-7730
▁коль	-7731
▁людя	-7732
▁слов	-7733
▁служ	-7734
▁Queen	-7735
▁Stand	-7736
▁Young	-7737
▁stage	-7738
▁tight	-7739
▁Патри	-7740
▁брата	-7741
▁всеми	-7742
▁кончи	-7743
▁награ	-7744
▁ничто	-7745
▁пошёл	-7746
▁семей	-7747
▁сынок	-7748
mission	-7749
держать	-7750
▁Forget	-7751
▁Silver	-7752
▁Wynant	-7753
▁became	-7754
▁church	-7755
▁весело	-7756
▁готово	-7757
▁гражда	-7758
▁делают	-7759
▁священ	-7760
▁стоило	-7761
▁Blondie	-7762
▁written	-7763
▁послуша	-7764
▁Германии	-7765
▁подумала	-7766
▁собирался	-7767
▁разумеется	-7768
▁Мадемуазель	-7769
uf	-7770
ИТ	-7771
тс	-7772
She	-7773
bit	-7774
iff	-7775
imb	-7776
iny	-7777
ugg	-7778
али	-7779
кви	-7780
▁1,	-7781
▁es	-7782
▁Жо	-7783
▁НА	-7784
▁Уа	-7785
acle	-7786
iest	-7787
жали	-7788
жено	-7789
льда	-7790
тона	-7791
▁Bra	-7792
▁Rep	-7793
▁nic	-7794
▁ver	-7795
▁шан	-7796
board	-7797
немся	-7798
прово	-7799
скать	-7800
▁blue	-7801
▁held	-7802
▁rock	-7803
▁tree	-7804
▁Всем	-7805
▁Дамы	-7806
▁Люди	-7807
▁Успо	-7808
▁всём	-7809
▁выда	-7810
▁души	-7811
▁каби	-7812
▁черт	-7813
overed	-7814
▁David	-7815
▁fella	-7816
▁Отлич	-7817
▁мошен	-7818
▁поеду	-7819
▁пошел	-7820
▁приго	-7821
▁слома	-7822
дравляю	-7823
▁Barbar	-7824
▁appear	-7825
▁assure	-7826
▁garden	-7827
▁middle	-7828
▁spring	-7829
▁Быстро	-7830
▁извест	-7831
▁первой	-7832
▁свобод	-7833
▁соглас	-7834
▁subject	-7835
▁будущее	-7836
▁встречу	-7837
▁комнаты	-7838
▁крайней	-7839
▁старого	-7840
▁handsome	-7841
▁попросил	-7842
▁предлага	-7843
▁увидимся	-7844
▁condition	-7845
▁полностью	-7846
2.	-7847
ОВ	-7848
VER	-7849
eat	-7850
eth	-7851
lan	-7852
zen	-7853
▁23	-7854
▁AN	-7855
▁Ам	-7856
▁Жю	-7857
▁мэ	-7858
...!	-7859
This	-7860
eech	-7861
iano	-7862
omen	-7863
quis	-7864
длер	-7865
ремя	-7866
рует	-7867
тный	-7868
туда	-7869
чард	-7870
▁Pop	-7871
▁fat	-7872
▁god	-7873
▁psy	-7874
▁КОН	-7875
▁объ	-7876
▁ссо	-7877
▁тип	-7878
agger	-7879
всюду	-7880
▁Year	-7881
▁educ	-7882
▁Заба	-7883
▁Заме	-7884
▁Эдди	-7885
▁воро	-7886
▁креп	-7887
▁крес	-7888
▁обед	-7889
▁пойм	-7890
▁поле	-7891
▁сдел	-7892
▁солн	-7893
▁улыб	-7894
▁учас	-7895
ograph	-7896
▁Maria	-7897
▁cheap	-7898
▁Вчера	-7899
▁Джули	-7900
▁Конец	-7901
▁пошла	-7902
▁форме	-7903
▁части	-7904
▁Berlin	-7905
▁choose	-7906
▁excell	-7907
▁within	-7908
▁Хозяин	-7909
▁внутри	-7910
▁голова	-7911
▁Понимаю	-7912
▁Человек	-7913
▁увидите	-7914
▁stranger	-7915
▁Убирайся	-7916
▁Увидимся	-7917
▁женщиной	-7918
▁проблемы	-7919
▁perfectly	-7920
▁frightened	-7921
▁themselves	-7922
▁Совершенно	-7923
▁удовольствие	-7924
een	-7925
ils	-7926
isc	-7927
ita	-7928
бин	-7929
джи	-7930
жат	-7931
лью	-7932
тое	-7933
шин	-7934
▁16	-7935
▁ve	-7936
▁Ше	-7937
▁ан	-7938
▁пя	-7939
alle	-7940
lock	-7941
road	-7942
wana	-7943
волю	-7944
вует	-7945
мить	-7946
щите	-7947
▁192	-7948
▁Ric	-7949
▁mer	-7950
▁Анд	-7951
▁Зем	-7952
▁Лэн	-7953
▁Моё	-7954
▁дни	-7955
▁жур	-7956
▁кух	-7957
▁умо	-7958
stein	-7959
енька	-7960
ехали	-7961
лезно	-7962
▁Hard	-7963
▁Myra	-7964
▁hist	-7965
▁lone	-7966
▁view	-7967
▁wash	-7968
▁Вайн	-7969
▁дала	-7970
▁крас	-7971
▁либо	-7972
▁моги	-7973
▁моём	-7974
▁озна	-7975
▁осме	-7976
▁позо	-7977
▁ушли	-7978
ically	-7979
omeday	-7980
верьте	-7981
▁cabin	-7982
▁likes	-7983
▁waste	-7984
▁Дживс	-7985
▁взяли	-7986
▁замок	-7987
▁идиот	-7988
▁молод	-7989
▁нашем	-7990
▁нашла	-7991
▁небес	-7992
▁новую	-7993
▁разво	-7994
▁ужина	-7995
▁easily	-7996
▁nature	-7997
▁англий	-7998
▁другим	-7999
▁настро	-8000
▁постро	-8001
▁приказ	-8002
▁секрет	-8003
▁смешно	-8004
▁узнала	-8005
▁устала	-8006
▁opinion	-8007
▁streets	-8008
▁написал	-8009
▁Patricia	-8010
▁Прощайте	-8011
▁договори	-8012
▁обнаружи	-8013
▁особенно	-8014
▁является	-8015
▁Sometimes	-8016
▁downstairs	-8017
TH	-8018
ns	-8019
Let	-8020
und	-8021
yal	-8022
бло	-8023
ела	-8024
лот	-8025
фри	-8026
хов	-8027
щим	-8028
bury	-8029
guer	-8030
hard	-8031
выми	-8032
▁ARE	-8033
▁Run	-8034
▁doc	-8035
▁gar	-8036
▁low	-8037
▁Муж	-8038
▁Слу	-8039
▁дел	-8040
▁нос	-8041
▁рот	-8042
iling	-8043
known	-8044
враща	-8045
думал	-8046
льная	-8047
▁Four	-8048
▁Vict	-8049
▁chap	-8050
▁date	-8051
▁Анже	-8052
▁МакК	-8053
▁Само	-8054
▁Сядь	-8055
▁бело	-8056
▁мимо	-8057
▁удар	-8058
▁ушел	-8059
ending	-8060
▁Green	-8061
▁brain	-8062
▁magic	-8063
▁miles	-8064
▁press	-8065
▁stars	-8066
▁Хорас	-8067
▁восто	-8068
▁каким	-8069
▁радио	-8070
▁связа	-8071
▁Holmes	-8072
▁Topaze	-8073
▁hearts	-8074
▁scient	-8075
▁Иногда	-8076
▁недель	-8077
▁нервни	-8078
▁писать	-8079
▁command	-8080
▁engaged	-8081
▁example	-8082
▁soldier	-8083
▁платить	-8084
▁помните	-8085
▁причина	-8086
▁проигра	-8087
▁решение	-8088
▁двадцать	-8089
▁случится	-8090
▁лейтенант	-8091
▁information	-8092
▁встретиться	-8093
ob	-8094
чо	-8095
..!	-8096
oms	-8097
вок	-8098
деб	-8099
лле	-8100
рыг	-8101
унт	-8102
ьте	-8103
▁OK	-8104
ddie	-8105
time	-8106
дают	-8107
дыха	-8108
рачи	-8109
стри	-8110
тива	-8111
▁Led	-8112
▁dad	-8113
▁est	-8114
▁sky	-8115
▁Бур	-8116
▁гал	-8117
▁сон	-8118
Hello	-8119
ified	-8120
тится	-8121
▁KNOW	-8122
▁Pret	-8123
▁acqu	-8124
▁dame	-8125
▁vamp	-8126
▁Весь	-8127
▁Кото	-8128
▁Пора	-8129
▁Тише	-8130
▁Черт	-8131
▁врач	-8132
▁побо	-8133
▁ушёл	-8134
▁Chief	-8135
▁Взгля	-8136
▁КОНЕЦ	-8137
▁Краси	-8138
▁болен	-8139
▁народ	-8140
▁незна	-8141
▁проща	-8142
▁семья	-8143
▁созна	-8144
▁стала	-8145
guerite	-8146
помнить	-8147
тельным	-8148
▁Anyway	-8149
▁Armand	-8150
▁choice	-8151
▁clever	-8152
▁common	-8153
▁memory	-8154
▁Уверен	-8155
▁забира	-8156
▁помощи	-8157
▁послал	-8158
▁профес	-8159
▁writing	-8160
▁Думаете	-8161
▁бояться	-8162
▁выиграл	-8163
▁информа	-8164
▁кровать	-8165
▁распоря	-8166
▁evidence	-8167
▁внимания	-8168
▁смотрите	-8169
▁настолько	-8170
▁прекрасный	-8171
UP	-8172
fit	-8173
ену	-8174
суа	-8175
inda	-8176
resp	-8177
виду	-8178
порт	-8179
рита	-8180
скую	-8181
таль	-8182
ёмся	-8183
▁Jee	-8184
▁MAN	-8185
▁WAS	-8186
▁WIT	-8187
▁rub	-8188
▁Сем	-8189
otion	-8190
ловно	-8191
льной	-8192
тушка	-8193
▁Comp	-8194
▁HERE	-8195
▁Mont	-8196
▁Most	-8197
▁Move	-8198
▁card	-8199
▁coun	-8200
▁pers	-8201
▁Стив	-8202
▁брак	-8203
▁выяс	-8204
▁дали	-8205
▁есте	-8206
▁лест	-8207
▁Judge	-8208
▁South	-8209
▁appre	-8210
▁cause	-8211
▁claim	-8212
▁liked	-8213
▁Бедня	-8214
▁Будем	-8215
▁Иначе	-8216
▁докто	-8217
▁досто	-8218
▁журна	-8219
▁крови	-8220
▁мечта	-8221
▁немец	-8222
▁отдох	-8223
▁отеле	-8224
▁прези	-8225
▁проти	-8226
▁скром	-8227
▁стану	-8228
▁этими	-8229
ваешься	-8230
▁Carrot	-8231
▁breath	-8232
▁bridge	-8233
▁effect	-8234
▁search	-8235
▁Блонди	-8236
▁выпьем	-8237
▁спусти	-8238
▁стоять	-8239
▁fellows	-8240
▁general	-8241
▁neither	-8242
▁Переста	-8243
▁боишься	-8244
▁господи	-8245
▁губерна	-8246
▁повторя	-8247
▁feelings	-8248
▁midnight	-8249
▁pleasant	-8250
▁watching	-8251
▁Довольно	-8252
▁situation	-8253
▁Понимаешь	-8254
▁абсолютно	-8255
▁попросить	-8256
▁состоянии	-8257
▁принадлежит	-8258
▁председатель	-8259
.,	-8260
дн	-8261
ILL	-8262
alt	-8263
ere	-8264
gel	-8265
mas	-8266
ций	-8267
▁Es	-8268
▁GU	-8269
▁II	-8270
▁Эх	-8271
nect	-8272
pper	-8273
vent	-8274
кров	-8275
чены	-8276
шала	-8277
▁BUT	-8278
▁COU	-8279
▁Cal	-8280
▁Dry	-8281
▁Huh	-8282
▁Mab	-8283
▁pin	-8284
▁Ком	-8285
▁бал	-8286
▁наи	-8287
ortun	-8288
using	-8289
циаль	-8290
▁Back	-8291
▁Scot	-8292
▁ears	-8293
▁wise	-8294
▁Силь	-8295
▁Стэн	-8296
▁боже	-8297
▁доби	-8298
▁избе	-8299
▁мело	-8300
▁паро	-8301
ording	-8302
кажешь	-8303
ствует	-8304
▁Drink	-8305
▁Looks	-8306
▁judge	-8307
▁teach	-8308
▁tells	-8309
▁Росси	-8310
▁Такой	-8311
▁живот	-8312
▁инжен	-8313
▁инспе	-8314
▁какую	-8315
▁потря	-8316
▁присо	-8317
▁симпа	-8318
▁уважа	-8319
▁шляпу	-8320
ведливо	-8321
▁Claire	-8322
▁Jeeves	-8323
▁nearly	-8324
▁suffer	-8325
▁supper	-8326
▁suspic	-8327
▁бежать	-8328
▁девять	-8329
▁забыли	-8330
▁мастер	-8331
▁насчёт	-8332
▁негодя	-8333
▁смысле	-8334
прежнему	-8335
чательно	-8336
▁dropped	-8337
▁profess	-8338
▁Чандлер	-8339
▁большую	-8340
▁вопросы	-8341
▁товарищ	-8342
▁Ledrantz	-8343
▁contract	-8344
▁telegram	-8345
▁Возьмите	-8346
▁встретил	-8347
▁мальчика	-8348
▁champagne	-8349
▁seriously	-8350
▁последнее	-8351
▁ridiculous	-8352
▁заниматься	-8353
▁остановить	-8354
▁безопасности	-8355
.'	-8356
OK	-8357
eel	-8358
ese	-8359
ант	-8360
лив	-8361
нам	-8362
нуэ	-8363
рим	-8364
▁Pa	-8365
itty	-8366
roll	-8367
вард	-8368
льма	-8369
лями	-8370
стов	-8371
стом	-8372
часа	-8373
ющим	-8374
▁Aye	-8375
▁Wal	-8376
▁Дро	-8377
▁ред	-8378
▁чёр	-8379
ciety	-8380
hered	-8381
iving	-8382
ograp	-8383
oming	-8384
дание	-8385
ества	-8386
зываю	-8387
ненно	-8388
тился	-8389
▁Arch	-8390
▁Rosa	-8391
▁Toni	-8392
▁cars	-8393
▁damn	-8394
▁disp	-8395
▁gift	-8396
▁guns	-8397
▁Карл	-8398
▁Леди	-8399
▁дово	-8400
▁отцу	-8401
▁смеш	-8402
валась	-8403
▁Court	-8404
▁annoy	-8405
▁artic	-8406
▁fixed	-8407
▁Лепик	-8408
▁Много	-8409
▁Хотел	-8410
▁вмеши	-8411
▁матер	-8412
▁одним	-8413
▁отста	-8414
▁соста	-8415
▁убира	-8416
чевидно	-8417
▁Govern	-8418
▁author	-8419
▁closed	-8420
▁commun	-8421
▁decide	-8422
▁employ	-8423
▁favour	-8424
▁picked	-8425
▁scound	-8426
▁sounds	-8427
▁выстре	-8428
▁никуда	-8429
▁тяжело	-8430
▁уехала	-8431
atherine	-8432
▁excited	-8433
▁pleased	-8434
▁Пригото	-8435
▁англича	-8436
▁барышня	-8437
▁времена	-8438
▁генерал	-8439
▁корабле	-8440
▁определ	-8441
▁попасть	-8442
▁ребёнок	-8443
▁страшно	-8444
▁хорошие	-8445
▁comrades	-8446
▁американ	-8447
▁напомина	-8448
▁поговорю	-8449
▁простить	-8450
▁согласен	-8451
▁телефону	-8452
▁Marguerite	-8453
▁experiment	-8454
▁беспокойся	-8455
▁волнуйтесь	-8456
Is	-8457
РА	-8458
het	-8459
ias	-8460
par	-8461
vey	-8462
ани	-8463
бом	-8464
вёл	-8465
мор	-8466
нос	-8467
рел	-8468
▁AT	-8469
▁FR	-8470
▁Im	-8471
▁ау	-8472
aker	-8473
ging	-8474
етта	-8475
рица	-8476
▁Gab	-8477
▁Hav	-8478
▁Mme	-8479
▁Ven	-8480
▁ban	-8481
▁bid	-8482
▁oil	-8483
▁rat	-8484
▁unc	-8485
▁Гар	-8486
▁Кэй	-8487
▁Ман	-8488
▁Мэй	-8489
▁Сте	-8490
▁Ура	-8491
▁Час	-8492
▁поп	-8493
▁пят	-8494
▁сра	-8495
orney	-8496
везти	-8497
дольф	-8498
йдёшь	-8499
тение	-8500
▁Damn	-8501
▁Pass	-8502
▁Pier	-8503
▁begg	-8504
▁cock	-8505
▁lift	-8506
▁Бога	-8507
▁длин	-8508
▁мини	-8509
▁неза	-8510
▁парт	-8511
▁пьян	-8512
▁синь	-8513
asting	-8514
erable	-8515
риться	-8516
▁Honor	-8517
▁calls	-8518
▁chest	-8519
▁match	-8520
▁rooms	-8521
▁threw	-8522
▁Пауль	-8523
▁класс	-8524
▁майор	-8525
▁могло	-8526
▁никак	-8527
▁потре	-8528
▁прове	-8529
▁украл	-8530
arewell	-8531
▁finger	-8532
▁joking	-8533
▁prince	-8534
▁result	-8535
▁Кринге	-8536
▁вашему	-8537
▁выбира	-8538
▁глазах	-8539
▁драгоц	-8540
▁женаты	-8541
▁обраща	-8542
▁одежду	-8543
тельного	-8544
▁Barbara	-8545
▁Russian	-8546
▁matters	-8547
▁Никаких	-8548
▁Счастли	-8549
▁Франсуа	-8550
▁котором	-8551
▁матерью	-8552
▁мистеру	-8553
▁первого	-8554
▁управля	-8555
▁Somebody	-8556
▁intellig	-8557
▁Ротшильд	-8558
▁пистолет	-8559
стественно	-8560
▁отправить	-8561
▁поговорим	-8562
саживайтесь	-8563
▁comfortable	-8564
IL	-8565
рё	-8566
ium	-8567
nce	-8568
вли	-8569
нев	-8570
пка	-8571
рию	-8572
ште	-8573
▁Bu	-8574
▁Ор	-8575
▁Ях	-8576
▁ал	-8577
▁хи	-8578
▁эк	-8579
They	-8580
asse	-8581
ibly	-8582
дует	-8583
ждаю	-8584
жной	-8585
новь	-8586
чили	-8587
щему	-8588
▁Cut	-8589
▁Mus	-8590
▁Old	-8591
▁Wor	-8592
▁bow	-8593
▁civ	-8594
▁glo	-8595
▁pig	-8596
▁sin	-8597
▁Дюк	-8598
▁Пло	-8599
▁Сту	-8600
▁вет	-8601
▁кло	-8602
nific	-8603
ption	-8604
вится	-8605
жайте	-8606
ждает	-8607
койся	-8608
матри	-8609
почка	-8610
ретий	-8611
▁Down	-8612
▁Read	-8613
▁band	-8614
▁cell	-8615
▁Замо	-8616
▁Люби	-8617
▁Эзра	-8618
▁банк	-8619
▁вкус	-8620
▁годы	-8621
▁запа	-8622
▁одни	-8623
urious	-8624
рикмах	-8625
тельна	-8626
▁Speak	-8627
▁bride	-8628
▁joint	-8629
▁needn	-8630
▁plant	-8631
▁study	-8632
▁tears	-8633
▁Андер	-8634
▁Мануэ	-8635
▁бвана	-8636
▁ветер	-8637
▁зайти	-8638
▁общем	-8639
▁помол	-8640
енность	-8641
▁Enough	-8642
▁Russia	-8643
▁Wouldn	-8644
▁desert	-8645
▁moving	-8646
▁scream	-8647
▁slight	-8648
▁waited	-8649
▁Первый	-8650
▁восста	-8651
▁гостей	-8652
▁доверя	-8653
▁испуга	-8654
▁короля	-8655
▁начать	-8656
▁опасно	-8657
▁оттуда	-8658
▁ошибка	-8659
▁поняли	-8660
▁appreci	-8661
▁theater	-8662
▁wounded	-8663
▁Держите	-8664
▁кончено	-8665
▁неправи	-8666
▁прошлом	-8667
▁разгово	-8668
▁сокрови	-8669
▁marrying	-8670
▁millions	-8671
▁personal	-8672
▁Оставьте	-8673
▁нравятся	-8674
▁Allenbury	-8675
▁character	-8676
▁commander	-8677
▁заинтерес	-8678
▁absolutely	-8679
▁especially	-8680
▁sweetheart	-8681
▁yourselves	-8682
▁Естественно	-8683
▁недостаточно	-8684
▁разговаривать	-8685
4.	-8686
ec	-8687
вл	-8688
дю	-8689
bel	-8690
tin	-8691
ued	-8692
бки	-8693
лод	-8694
мар	-8695
тоя	-8696
▁ги	-8697
▁ны	-8698
asha	-8699
bers	-8700
burg	-8701
hood	-8702
oine	-8703
rect	-8704
rief	-8705
roup	-8706
бята	-8707
вляю	-8708
вший	-8709
жище	-8710
мети	-8711
нная	-8712
пыты	-8713
▁300	-8714
▁Bye	-8715
▁COM	-8716
▁Law	-8717
▁due	-8718
▁Сэр	-8719
▁Тре	-8720
▁бук	-8721
▁шах	-8722
asper	-8723
razia	-8724
вшись	-8725
дания	-8726
пазды	-8727
ётесь	-8728
▁bets	-8729
▁debt	-8730
▁desp	-8731
▁lend	-8732
▁mere	-8733
▁robb	-8734
▁Геор	-8735
▁Смер	-8736
▁бага	-8737
▁душа	-8738
▁едва	-8739
▁скан	-8740
cience	-8741
itions	-8742
neberg	-8743
даться	-8744
ческий	-8745
▁Haven	-8746
▁beast	-8747
▁began	-8748
▁somet	-8749
▁witch	-8750
▁Дюран	-8751
▁Пинне	-8752
▁жесто	-8753
▁отвра	-8754
▁отдал	-8755
▁отель	-8756
▁потер	-8757
▁треть	-8758
▁Manuel	-8759
▁insult	-8760
▁invest	-8761
▁mister	-8762
▁nerves	-8763
▁Превос	-8764
▁дороге	-8765
▁костюм	-8766
▁лошадь	-8767
▁машине	-8768
▁обстоя	-8769
▁одному	-8770
▁перчат	-8771
nificent	-8772
▁Dearest	-8773
▁Welcome	-8774
▁arrange	-8775
▁кровати	-8776
▁любовни	-8777
▁birthday	-8778
▁brothers	-8779
▁mistaken	-8780
▁received	-8781
▁деньгами	-8782
▁предоста	-8783
▁рождения	-8784
▁Pinneberg	-8785
▁Понимаете	-8786
▁рассказал	-8787
▁продолжать	-8788
▁становится	-8789
▁беспокойтесь	-8790
▁преступление	-8791
бь	-8792
пл	-8793
сл	-8794
TER	-8795
hib	-8796
sby	-8797
unn	-8798
бот	-8799
лым	-8800
тий	-8801
ъез	-8802
▁NE	-8803
▁Ос	-8804
▁бь	-8805
acks	-8806
cing	-8807
form	-8808
ills	-8809
look	-8810
джер	-8811
нако	-8812
тила	-8813
туан	-8814
▁ACT	-8815
▁DON	-8816
▁NOT	-8817
▁fle	-8818
▁hol	-8819
▁kit	-8820
▁sep	-8821
▁Бан	-8822
▁Рой	-8823
▁Сью	-8824
▁гля	-8825
▁дро	-8826
▁жал	-8827
▁тон	-8828
ницей	-8829
телем	-8830
▁Juan	-8831
▁Stan	-8832
▁bast	-8833
▁bene	-8834
▁cute	-8835
▁earn	-8836
▁infl	-8837
▁mail	-8838
▁main	-8839
▁shar	-8840
▁Гран	-8841
▁исти	-8842
▁круп	-8843
▁рыба	-8844
▁умру	-8845
iments	-8846
бовать	-8847
деться	-8848
казала	-8849
тельны	-8850
▁Eddie	-8851
▁Other	-8852
▁Shang	-8853
▁keeps	-8854
▁scene	-8855
▁Марсе	-8856
▁влюби	-8857
▁войне	-8858
▁двига	-8859
▁каких	-8860
▁лежит	-8861
▁мужем	-8862
▁мысль	-8863
▁повер	-8864
▁стали	-8865
ройляйн	-8866
▁assist	-8867
▁betray	-8868
▁lights	-8869
▁myster	-8870
▁strike	-8871
▁thirst	-8872
▁Бедный	-8873
▁Вперед	-8874
▁заходи	-8875
▁основа	-8876
▁пойдет	-8877
▁показы	-8878
▁чудови	-8879
▁Неплохо	-8880
▁Понятно	-8881
▁волнует	-8882
▁глазами	-8883
▁предпоч	-8884
▁расстро	-8885
▁ребёнка	-8886
▁следова	-8887
▁чудесно	-8888
▁director	-8889
▁expected	-8890
▁заставля	-8891
▁останусь	-8892
▁разговор	-8893
▁рассчиты	-8894
▁убийство	-8895
▁человеку	-8896
▁Алленбери	-8897
▁положение	-8898
▁Крингеляйн	-8899
LY	-8900
RO	-8901
hm	-8902
ГО	-8903
ЕЛ	-8904
Are	-8905
arm	-8906
edo	-8907
hys	-8908
icy	-8909
nal	-8910
oop	-8911
ser	-8912
вёр	-8913
дру	-8914
няя	-8915
энс	-8916
▁$2	-8917
▁DE	-8918
▁Фо	-8919
atic	-8920
onel	-8921
onia	-8922
yond	-8923
дник	-8924
▁Fer	-8925
▁Fun	-8926
▁Mal	-8927
▁Raw	-8928
▁obl	-8929
▁Лео	-8930
▁Лин	-8931
▁рай	-8932
▁суб	-8933
antic	-8934
avier	-8935
eward	-8936
рение	-8937
▁Bour	-8938
▁None	-8939
▁WITH	-8940
▁slow	-8941
▁viol	-8942
▁wire	-8943
▁Убий	-8944
▁Ясно	-8945
▁выго	-8946
▁душу	-8947
▁зато	-8948
▁паци	-8949
▁проч	-8950
▁тихо	-8951
ctions	-8952
resent	-8953
таться	-8954
▁Durin	-8955
▁Georg	-8956
▁books	-8957
▁bucks	-8958
▁etern	-8959
▁grave	-8960
▁heavy	-8961
▁moved	-8962
▁noise	-8963
▁radio	-8964
▁spoke	-8965
▁stone	-8966
▁Время	-8967
▁везде	-8968
▁вновь	-8969
▁земле	-8970
▁карты	-8971
▁людям	-8972
▁плачь	-8973
▁прочь	-8974
▁свиде	-8975
▁снима	-8976
▁целый	-8977
agement	-8978
▁Hitler	-8979
▁lesson	-8980
▁locked	-8981
▁lonely	-8982
▁nights	-8983
▁played	-8984
▁wishes	-8985
▁Анжель	-8986
▁Ребята	-8987
▁близко	-8988
▁газете	-8989
▁контра	-8990
▁племян	-8991
▁посети	-8992
▁похоро	-8993
▁смотре	-8994
▁смотрю	-8995
▁торопи	-8996
▁центов	-8997
▁Suppose	-8998
▁connect	-8999
▁manager	-9000
▁usually	-9001
▁Барбара	-9002
▁Лондоне	-9003
▁желание	-9004
▁повсюду	-9005
▁подожди	-9006
▁поцелуй	-9007
▁приезжа	-9008
▁свадьбы	-9009
▁сделает	-9010
▁симпати	-9011
▁хорошее	-9012
▁criminal	-9013
▁definite	-9014
▁followed	-9015
▁зарабаты	-9016
▁мистером	-9017
▁потеряла	-9018
▁существо	-9019
▁убийства	-9020
▁Goodnight	-9021
▁благодаря	-9022
▁заставить	-9023
▁останется	-9024
▁пожаловать	-9025
▁responsible	-9026
So	-9027
St	-9028
ev	-9029
АЛ	-9030
НО	-9031
Те	-9032
Ти	-9033
ям	-9034
ANT	-9035
Who	-9036
erk	-9037
hai	-9038
hal	-9039
Как	-9040
жей	-9041
кло	-9042
кор	-9043
кру	-9044
кти	-9045
нож	-9046
там	-9047
тру	-9048
цам	-9049
▁pa	-9050
▁Ут	-9051
▁Ча	-9052
aked	-9053
ford	-9054
istr	-9055
rass	-9056
reme	-9057
ucky	-9058
бург	-9059
ггер	-9060
онте	-9061
печа	-9062
сила	-9063
сипе	-9064
хода	-9065
чали	-9066
шний	-9067
▁150	-9068
▁Eve	-9069
▁HIM	-9070
▁Jew	-9071
▁Mur	-9072
▁Sam	-9073
▁Sim	-9074
▁Sus	-9075
▁Ten	-9076
▁Ter	-9077
▁maj	-9078
▁mug	-9079
▁neg	-9080
▁rom	-9081
▁Пет	-9082
▁Поч	-9083
▁даю	-9084
▁дур	-9085
▁ищу	-9086
▁сей	-9087
▁фла	-9088
asant	-9089
elein	-9090
eline	-9091
ender	-9092
стрей	-9093
▁copy	-9094
▁mama	-9095
▁Кому	-9096
▁Фред	-9097
▁Холм	-9098
▁гром	-9099
▁двор	-9100
▁идио	-9101
▁студ	-9102
▁сцен	-9103
▁убра	-9104
reedom	-9105
urning	-9106
енного	-9107
▁Anton	-9108
▁Ellen	-9109
▁Fried	-9110
▁Kring	-9111
▁THERE	-9112
▁enter	-9113
▁named	-9114
▁Браво	-9115
▁Конни	-9116
▁Майра	-9117
▁ближе	-9118
▁вампи	-9119
▁живёт	-9120
▁комму	-9121
▁потра	-9122
▁семье	-9123
ammchen	-9124
ведения	-9125
▁Grazia	-9126
▁Indeed	-9127
▁hiding	-9128
▁itself	-9129
▁Дросте	-9130
▁Мартин	-9131
▁впечат	-9132
▁наверх	-9133
▁обезья	-9134
▁обязан	-9135
▁развле	-9136
▁справи	-9137
▁тысячу	-9138
▁chicken	-9139
▁driving	-9140
▁elephan	-9141
▁foreign	-9142
▁support	-9143
▁Забавно	-9144
▁Наверно	-9145
▁Помните	-9146
▁большим	-9147
▁постель	-9148
▁actually	-9149
▁continue	-9150
▁Патриция	-9151
▁delighted	-9152
▁interrupt	-9153
▁беспокоит	-9154
▁Kringelein	-9155
▁предложить	-9156
▁приходится	-9157
▁беспокоиться	-9158
▁неприятности	-9159
ym	-9160
bes	-9161
ota	-9162
rap	-9163
гре	-9164
ера	-9165
лог	-9166
лэр	-9167
цер	-9168
▁-"	-9169
chan	-9170
ianc	-9171
inct	-9172
umst	-9173
Йорк	-9174
жных	-9175
няет	-9176
рили	-9177
▁193	-9178
▁Mag	-9179
▁bes	-9180
▁thy	-9181
▁Вол	-9182
▁Зак	-9183
▁Мас	-9184
▁Уор	-9185
▁каю	-9186
▁мед	-9187
▁шпи	-9188
abeth	-9189
atory	-9190
icate	-9191
комен	-9192
разум	-9193
▁Dead	-9194
▁Eliz	-9195
▁Span	-9196
▁dumb	-9197
▁wild	-9198
▁Един	-9199
▁Мило	-9200
▁вода	-9201
▁едем	-9202
▁зале	-9203
▁копи	-9204
▁обес	-9205
▁похи	-9206
▁прош	-9207
▁русс	-9208
▁срав	-9209
▁стой	-9210
▁убью	-9211
▁худо	-9212
vation	-9213
чества	-9214
▁Money	-9215
▁Reich	-9216
▁Selma	-9217
▁cheat	-9218
▁contr	-9219
▁disgr	-9220
▁embar	-9221
▁matey	-9222
▁Вовсе	-9223
▁Добро	-9224
▁Топаз	-9225
▁Уходи	-9226
▁внеза	-9227
▁возьм	-9228
▁завер	-9229
▁карти	-9230
▁неожи	-9231
▁отчая	-9232
▁почув	-9233
▁самых	-9234
▁сходи	-9235
▁темно	-9236
▁Connie	-9237
▁afford	-9238
▁invite	-9239
▁opened	-9240
▁Забудь	-9241
▁Парень	-9242
▁волосы	-9243
▁думали	-9244
▁наказа	-9245
▁обманы	-9246
▁опазды	-9247
▁сложно	-9248
▁старые	-9249
▁beloved	-9250
▁carried	-9251
▁deserve	-9252
▁possess	-9253
▁society	-9254
▁Большой	-9255
▁задержи	-9256
▁заметил	-9257
▁которым	-9258
▁мужчину	-9259
▁остался	-9260
▁сделаем	-9261
▁сильнее	-9262
▁течение	-9263
▁Shanghai	-9264
▁красивый	-9265
▁направля	-9266
▁посмотрю	-9267
▁родствен	-9268
▁understood	-9269
▁беспокоить	-9270
▁здравствует	-9271
5,	-9272
zy	-9273
AKE	-9274
aur	-9275
Про	-9276
вёз	-9277
гры	-9278
лай	-9279
нье	-9280
шаю	-9281
шта	-9282
▁21	-9283
▁LO	-9284
▁SA	-9285
amps	-9286
rons	-9287
ваны	-9288
возь	-9289
ится	-9290
пети	-9291
рать	-9292
тись	-9293
▁Pre	-9294
▁sle	-9295
▁tru	-9296
▁Вал	-9297
▁Вес	-9298
▁Иду	-9299
▁сил	-9300
▁юно	-9301
emois	-9302
field	-9303
leroy	-9304
время	-9305
ереги	-9306
нгтон	-9307
ствия	-9308
унтле	-9309
▁1000	-9310
▁Care	-9311
▁Mata	-9312
▁agre	-9313
▁deli	-9314
▁loud	-9315
▁rare	-9316
▁sand	-9317
▁soup	-9318
▁Хуан	-9319
▁изоб	-9320
▁фигу	-9321
aching	-9322
льного	-9323
ческая	-9324
▁Again	-9325
▁Smith	-9326
▁fetch	-9327
▁ideas	-9328
▁paint	-9329
▁reput	-9330
▁separ	-9331
▁storm	-9332
▁suitc	-9333
▁taste	-9334
▁trave	-9335
▁value	-9336
▁Джейм	-9337
▁войти	-9338
▁неуда	-9339
▁ранен	-9340
▁узнаю	-9341
pensive	-9342
собенно	-9343
тельную	-9344
▁action	-9345
▁affair	-9346
▁beyond	-9347
▁closer	-9348
▁lately	-9349
▁paying	-9350
▁rescue	-9351
▁Англии	-9352
▁Любовь	-9353
▁волшеб	-9354
▁мнение	-9355
▁оружие	-9356
▁полков	-9357
▁францу	-9358
панского	-9359
ственный	-9360
▁Jachman	-9361
▁affairs	-9362
▁kitchen	-9363
▁meaning	-9364
▁request	-9365
▁Фаунтле	-9366
▁графиня	-9367
▁достоин	-9368
▁красиво	-9369
▁магазин	-9370
▁миллион	-9371
▁получше	-9372
▁порядок	-9373
▁работаю	-9374
▁стороне	-9375
▁телефон	-9376
▁уходить	-9377
auntleroy	-9378
emoiselle	-9379
▁sleeping	-9380
▁Говорите	-9381
▁Christmas	-9382
▁Elizabeth	-9383
▁Naturally	-9384
▁Пиннеберг	-9385
▁постоянно	-9386
▁светлость	-9387
▁discovered	-9388
▁показалось	-9389
▁получилось	-9390
▁сомневаюсь	-9391
▁джентльмены	-9392
▁понадобится	-9393
7.	-9394
To	-9395
yr	-9396
All	-9397
IND	-9398
ato	-9399
you	-9400
жая	-9401
мым	-9402
сия	-9403
▁Te	-9404
back	-9405
reak	-9406
голо	-9407
моби	-9408
стка	-9409
цени	-9410
чила	-9411
чишь	-9412
▁Bad	-9413
▁End	-9414
▁Him	-9415
▁avo	-9416
▁lau	-9417
▁rou	-9418
▁Бак	-9419
▁Боб	-9420
▁Гас	-9421
▁Кам	-9422
▁Сво	-9423
▁Хан	-9424
▁Чер	-9425
▁Элл	-9426
▁кня	-9427
▁нез	-9428
▁теб	-9429
▁уте	-9430
ature	-9431
enger	-9432
illes	-9433
ilson	-9434
usion	-9435
вушка	-9436
лился	-9437
нович	-9438
▁Bark	-9439
▁Comm	-9440
▁Gold	-9441
▁Hall	-9442
▁Thom	-9443
▁hunt	-9444
▁legs	-9445
▁load	-9446
▁myst	-9447
▁repe	-9448
▁Барк	-9449
▁Кали	-9450
▁Твои	-9451
▁арес	-9452
▁борь	-9453
▁вело	-9454
▁лица	-9455
▁фами	-9456
uments	-9457
нулась	-9458
нулись	-9459
ческой	-9460
▁Franz	-9461
▁Going	-9462
▁civil	-9463
▁fianc	-9464
▁sever	-9465
▁Позво	-9466
▁Пойду	-9467
▁Ральф	-9468
▁Удачи	-9469
▁борту	-9470
▁герцо	-9471
▁делом	-9472
▁держа	-9473
▁нашим	-9474
▁новое	-9475
▁пусты	-9476
▁разбу	-9477
тически	-9478
▁Ellman	-9479
▁behave	-9480
▁bright	-9481
▁brings	-9482
▁failed	-9483
▁temper	-9484
▁travel	-9485
▁Положи	-9486
▁Работа	-9487
▁верить	-9488
▁любила	-9489
▁неделе	-9490
▁решила	-9491
▁срочно	-9492
▁history	-9493
▁invited	-9494
▁servant	-9495
▁weather	-9496
▁момента	-9497
▁намного	-9498
▁оставлю	-9499
▁подписа	-9500
▁принцес	-9501
▁слушать	-9502
▁murdered	-9503
▁shooting	-9504
▁Пойдемте	-9505
▁велосипе	-9506
▁вернётся	-9507
▁глупости	-9508
▁Великолеп	-9509
▁Проходите	-9510
▁случиться	-9511
▁страшного	-9512
▁conscience	-9513
▁profession	-9514
▁собственно	-9515
▁естественно	-9516
▁Congratulations	-9517
SS	-9518
la	-9519
yl	-9520
ém	-9521
мб	-9522
asa	-9523
omm	-9524
rin	-9525
жил	-9526
зал	-9527
инг	-9528
май	-9529
рам	-9530
тую	-9531
уса	-9532
чок	-9533
appy	-9534
rage	-9535
ruit	-9536
дные	-9537
жисс	-9538
изнь	-9539
кали	-9540
леть	-9541
пали	-9542
прем	-9543
рому	-9544
стую	-9545
тура	-9546
чите	-9547
▁Ain	-9548
▁Bob	-9549
▁CAN	-9550
▁Gra	-9551
▁Kay	-9552
▁rul	-9553
▁saf	-9554
▁van	-9555
▁Гит	-9556
▁Пау	-9557
▁Сол	-9558
▁Шар	-9559
▁зар	-9560
itary	-9561
osing	-9562
ентов	-9563
чется	-9564
▁Carl	-9565
▁Mina	-9566
▁Sing	-9567
▁Were	-9568
▁deck	-9569
▁jury	-9570
▁stom	-9571
▁Гото	-9572
▁Клэр	-9573
▁Наши	-9574
▁Эдит	-9575
▁ищет	-9576
▁погу	-9577
▁пяти	-9578
▁сере	-9579
▁счёт	-9580
вашему	-9581
▁Doesn	-9582
▁cheer	-9583
▁level	-9584
▁owner	-9585
▁slave	-9586
▁spell	-9587
▁Затем	-9588
▁Милый	-9589
▁Рыжик	-9590
▁загля	-9591
▁исклю	-9592
▁насла	-9593
▁полез	-9594
▁привя	-9595
▁утвер	-9596
▁школу	-9597
▁Dryden	-9598
▁advent	-9599
▁attend	-9600
▁forced	-9601
▁monkey	-9602
▁reward	-9603
▁speech	-9604
▁безуми	-9605
▁важное	-9606
▁голове	-9607
▁кстати	-9608
▁метров	-9609
▁прибли	-9610
▁распро	-9611
▁Antoine	-9612
▁Without	-9613
▁heavens	-9614
▁justice	-9615
▁ordered	-9616
▁putting	-9617
▁reached	-9618
▁tickets	-9619
▁Говорят	-9620
▁вовремя	-9621
▁исправи	-9622
▁получит	-9623
▁полчаса	-9624
▁поступи	-9625
▁поужина	-9626
▁прелест	-9627
лейтенант	-9628
▁Nonsense	-9629
▁believed	-9630
▁building	-9631
▁entirely	-9632
▁prepared	-9633
▁казалось	-9634
▁компании	-9635
▁поделать	-9636
▁присоеди	-9637
▁услышать	-9638
▁cigarette	-9639
▁mountains	-9640
▁добраться	-9641
▁насколько	-9642
▁остальные	-9643
▁Fauntleroy	-9644
▁волноваться	-9645
3.	-9646
8.	-9647
ОМ	-9648
▁z	-9649
ago	-9650
era	-9651
ham	-9652
rid	-9653
sed	-9654
вов	-9655
вяз	-9656
ема	-9657
жаю	-9658
зии	-9659
пая	-9660
рда	-9661
▁$5	-9662
▁Кэ	-9663
▁Фу	-9664
▁аг	-9665
arch	-9666
hand	-9667
hold	-9668
hope	-9669
ntil	-9670
oted	-9671
вишь	-9672
дной	-9673
дняя	-9674
дёшь	-9675
ленд	-9676
лено	-9677
нами	-9678
прес	-9679
фран	-9680
шено	-9681
▁10.	-9682
▁Int	-9683
▁LUP	-9684
▁SIR	-9685
▁Sun	-9686
▁Yet	-9687
▁ast	-9688
▁equ	-9689
▁Сви	-9690
▁Шин	-9691
▁осу	-9692
▁плы	-9693
hings	-9694
olved	-9695
range	-9696
sters	-9697
лится	-9698
новен	-9699
праши	-9700
чного	-9701
▁Fred	-9702
▁Last	-9703
▁Lily	-9704
▁Mack	-9705
▁chat	-9706
▁dawn	-9707
▁fate	-9708
▁fond	-9709
▁gate	-9710
▁lips	-9711
▁obey	-9712
▁ours	-9713
▁race	-9714
▁taxi	-9715
▁team	-9716
▁Быть	-9717
▁беру	-9718
▁выше	-9719
▁жили	-9720
▁лорд	-9721
▁любя	-9722
▁проя	-9723
▁роли	-9724
▁рука	-9725
▁спит	-9726
urance	-9727
кажете	-9728
кройте	-9729
менить	-9730
читься	-9731
▁Blood	-9732
▁baron	-9733
▁bwana	-9734
▁dread	-9735
▁faint	-9736
▁grown	-9737
▁march	-9738
▁organ	-9739
▁scare	-9740
▁worst	-9741
▁Харви	-9742
▁Чудес	-9743
▁бойся	-9744
▁вверх	-9745
▁вещей	-9746
▁взяла	-9747
▁курсе	-9748
▁отплы	-9749
▁пиджа	-9750
▁погиб	-9751
▁твори	-9752
▁шутка	-9753
itation	-9754
благода	-9755
винения	-9756
▁Edward	-9757
▁Nicole	-9758
▁driver	-9759
▁palace	-9760
▁sooner	-9761
▁surely	-9762
▁Антуан	-9763
▁Вперёд	-9764
▁вперёд	-9765
▁какого	-9766
▁король	-9767
▁лучшее	-9768
▁любого	-9769
▁получу	-9770
▁превра	-9771
▁пресле	-9772
▁револю	-9773
▁репута	-9774
▁тюрьму	-9775
▁ударил	-9776
▁узнали	-9777
▁freedom	-9778
▁killing	-9779
▁teacher	-9780
▁workers	-9781
▁Входите	-9782
▁Отпусти	-9783
▁Сильвер	-9784
▁Уходите	-9785
▁Хорошая	-9786
▁большие	-9787
▁величай	-9788
▁женился	-9789
▁завтрак	-9790
▁наркоти	-9791
▁разбира	-9792
▁рубашку	-9793
▁Stanhope	-9794
▁bringing	-9795
▁complain	-9796
▁дорогуша	-9797
▁например	-9798
▁приехала	-9799
▁радостью	-9800
▁считаете	-9801
▁Ivanovich	-9802
▁Маргарита	-9803
▁Несколько	-9804
▁взглянуть	-9805
▁состояние	-9806
▁disappoint	-9807
▁revolution	-9808
▁избавиться	-9809
▁grandfather	-9810
▁преступления	-9811
OD	-9812
За	-9813
КТ	-9814
ОТ	-9815
:30	-9816
ALL	-9817
acy	-9818
eau	-9819
irk	-9820
ань	-9821
дри	-9822
пки	-9823
▁37	-9824
▁Ok	-9825
▁Ск	-9826
mber	-9827
vere	-9828
vert	-9829
думы	-9830
жишь	-9831
лова	-9832
нике	-9833
ними	-9834
нишь	-9835
нные	-9836
▁Dro	-9837
▁Dub	-9838
▁Heh	-9839
▁Jan	-9840
▁OUT	-9841
▁Tre	-9842
▁ant	-9843
▁pan	-9844
▁une	-9845
▁wid	-9846
▁Дик	-9847
▁Кей	-9848
▁Ого	-9849
▁Пой	-9850
▁вру	-9851
▁зер	-9852
▁ино	-9853
▁кок	-9854
▁ног	-9855
▁	-9856
e	-9857
о	-9858
o	-9859
е	-9860
t	-9861
а	-9862
.	-9863
a	-9864
т	-9865
n	-9866
н	-9867
i	-9868
и	-9869
r	-9870
s	-9871
h	-9872
с	-9873
l	-9874
р	-9875
,	-9876
u	-9877
л	-9878
в	-9879
d	-9880
м	-9881
д	-9882
y	-9883
у	-9884
m	-9885
к	-9886
ь	-9887
п	-9888
g	-9889
w	-9890
я	-9891
-	-9892
ы	-9893
c	-9894
б	-9895
?	-9896
f	-9897
ч	-9898
'	-9899
г	-9900
з	-9901
I	-9902
b	-9903
p	-9904
й	-9905
ж	-9906
!	-9907
k	-9908
v	-9909
ш	-9910
ю	-9911
х	-9912
T	-9913
W	-9914
"	-9915
Н	-9916
Y	-9917
В	-9918
э	-9919
A	-9920
П	-9921
Д	-9922
H	-9923
Я	-9924
S	-9925
О	-9926
M	-9927
Т	-9928
М	-9929
ё	-9930
ц	-9931
N	-9932
С	-9933
К	-9934
щ	-9935
O	-9936
D	-9937
B	-9938
C	-9939
А	-9940
L	-9941
G	-9942
E	-9943
И	-9944
Э	-9945
0	-9946
Ч	-9947
P	-9948
ф	-9949
Б	-9950
R	-9951
F	-9952
j	-9953
Г	-9954
x	-9955
З	-9956
У	-9957
Е	-9958
Р	-9959
J	-9960
Л	-9961
Х	-9962
1	-9963
z	-9964
:	-9965
U	-9966
2	-9967
q	-9968
K	-9969
Ф	-9970
€	-9971
5	-9972
V	-9973
3	-9974
—	-9975
Ж	-9976
Ш	-9977
4	-9978
8	-9979
ъ	-9980
7	-9981
6	-9982
9	-9983
–	-9984
)	-9985
Q	-9986
(	-9987
Ц	-9988
Й	-9989
é	-9990
$	-9991
[	-9992
¬	-9993
Z	-9994
]	-9995
